unsigned char model_tflite_2[] = {
  0x1c, 0x00, 0x00, 0x00, 0x54, 0x46, 0x4c, 0x33, 0x14, 0x00, 0x20, 0x00,
  0x1c, 0x00, 0x18, 0x00, 0x14, 0x00, 0x10, 0x00, 0x0c, 0x00, 0x00, 0x00,
  0x08, 0x00, 0x04, 0x00, 0x14, 0x00, 0x00, 0x00, 0x1c, 0x00, 0x00, 0x00,
  0x88, 0x00, 0x00, 0x00, 0xe0, 0x00, 0x00, 0x00, 0x58, 0x15, 0x00, 0x00,
  0x68, 0x15, 0x00, 0x00, 0xa8, 0x1f, 0x00, 0x00, 0x03, 0x00, 0x00, 0x00,
  0x01, 0x00, 0x00, 0x00, 0x04, 0x00, 0x00, 0x00, 0xb6, 0xe9, 0xff, 0xff,
  0x0c, 0x00, 0x00, 0x00, 0x1c, 0x00, 0x00, 0x00, 0x38, 0x00, 0x00, 0x00,
  0x0f, 0x00, 0x00, 0x00, 0x73, 0x65, 0x72, 0x76, 0x69, 0x6e, 0x67, 0x5f,
  0x64, 0x65, 0x66, 0x61, 0x75, 0x6c, 0x74, 0x00, 0x01, 0x00, 0x00, 0x00,
  0x04, 0x00, 0x00, 0x00, 0x94, 0xff, 0xff, 0xff, 0x11, 0x00, 0x00, 0x00,
  0x04, 0x00, 0x00, 0x00, 0x07, 0x00, 0x00, 0x00, 0x64, 0x65, 0x6e, 0x73,
  0x65, 0x5f, 0x31, 0x00, 0x01, 0x00, 0x00, 0x00, 0x04, 0x00, 0x00, 0x00,
  0x46, 0xeb, 0xff, 0xff, 0x04, 0x00, 0x00, 0x00, 0x0c, 0x00, 0x00, 0x00,
  0x63, 0x6f, 0x6e, 0x76, 0x32, 0x64, 0x5f, 0x69, 0x6e, 0x70, 0x75, 0x74,
  0x00, 0x00, 0x00, 0x00, 0x02, 0x00, 0x00, 0x00, 0x34, 0x00, 0x00, 0x00,
  0x04, 0x00, 0x00, 0x00, 0xdc, 0xff, 0xff, 0xff, 0x14, 0x00, 0x00, 0x00,
  0x04, 0x00, 0x00, 0x00, 0x13, 0x00, 0x00, 0x00, 0x43, 0x4f, 0x4e, 0x56,
  0x45, 0x52, 0x53, 0x49, 0x4f, 0x4e, 0x5f, 0x4d, 0x45, 0x54, 0x41, 0x44,
  0x41, 0x54, 0x41, 0x00, 0x08, 0x00, 0x0c, 0x00, 0x08, 0x00, 0x04, 0x00,
  0x08, 0x00, 0x00, 0x00, 0x13, 0x00, 0x00, 0x00, 0x04, 0x00, 0x00, 0x00,
  0x13, 0x00, 0x00, 0x00, 0x6d, 0x69, 0x6e, 0x5f, 0x72, 0x75, 0x6e, 0x74,
  0x69, 0x6d, 0x65, 0x5f, 0x76, 0x65, 0x72, 0x73, 0x69, 0x6f, 0x6e, 0x00,
  0x15, 0x00, 0x00, 0x00, 0x74, 0x14, 0x00, 0x00, 0x6c, 0x14, 0x00, 0x00,
  0x3c, 0x14, 0x00, 0x00, 0xe4, 0x13, 0x00, 0x00, 0x74, 0x13, 0x00, 0x00,
  0x64, 0x0d, 0x00, 0x00, 0x34, 0x0d, 0x00, 0x00, 0x20, 0x0d, 0x00, 0x00,
  0x08, 0x0d, 0x00, 0x00, 0xf8, 0x00, 0x00, 0x00, 0xc8, 0x00, 0x00, 0x00,
  0xc0, 0x00, 0x00, 0x00, 0xb8, 0x00, 0x00, 0x00, 0xb0, 0x00, 0x00, 0x00,
  0xa8, 0x00, 0x00, 0x00, 0xa0, 0x00, 0x00, 0x00, 0x98, 0x00, 0x00, 0x00,
  0x90, 0x00, 0x00, 0x00, 0x88, 0x00, 0x00, 0x00, 0x68, 0x00, 0x00, 0x00,
  0x04, 0x00, 0x00, 0x00, 0x16, 0xec, 0xff, 0xff, 0x04, 0x00, 0x00, 0x00,
  0x54, 0x00, 0x00, 0x00, 0x0c, 0x00, 0x00, 0x00, 0x08, 0x00, 0x0e, 0x00,
  0x08, 0x00, 0x04, 0x00, 0x08, 0x00, 0x00, 0x00, 0x10, 0x00, 0x00, 0x00,
  0x24, 0x00, 0x00, 0x00, 0x00, 0x00, 0x06, 0x00, 0x08, 0x00, 0x04, 0x00,
  0x06, 0x00, 0x00, 0x00, 0x04, 0x00, 0x00, 0x00, 0x00, 0x00, 0x00, 0x00,
  0x00, 0x00, 0x0a, 0x00, 0x10, 0x00, 0x0c, 0x00, 0x08, 0x00, 0x04, 0x00,
  0x0a, 0x00, 0x00, 0x00, 0x02, 0x00, 0x00, 0x00, 0x02, 0x00, 0x00, 0x00,
  0x04, 0x00, 0x00, 0x00, 0x06, 0x00, 0x00, 0x00, 0x32, 0x2e, 0x31, 0x32,
  0x2e, 0x30, 0x00, 0x00, 0x76, 0xec, 0xff, 0xff, 0x04, 0x00, 0x00, 0x00,
  0x10, 0x00, 0x00, 0x00, 0x31, 0x2e, 0x31, 0x34, 0x2e, 0x30, 0x00, 0x00,
  0x00, 0x00, 0x00, 0x00, 0x00, 0x00, 0x00, 0x00, 0x40, 0xe2, 0xff, 0xff,
  0x44, 0xe2, 0xff, 0xff, 0x48, 0xe2, 0xff, 0xff, 0x4c, 0xe2, 0xff, 0xff,
  0x50, 0xe2, 0xff, 0xff, 0x54, 0xe2, 0xff, 0xff, 0x58, 0xe2, 0xff, 0xff,
  0x5c, 0xe2, 0xff, 0xff, 0xb2, 0xec, 0xff, 0xff, 0x04, 0x00, 0x00, 0x00,
  0x20, 0x00, 0x00, 0x00, 0xd9, 0x71, 0x22, 0x3f, 0x30, 0xf2, 0x76, 0xbe,
  0x6e, 0xea, 0x31, 0x3f, 0x9a, 0x4e, 0xe5, 0xbe, 0x46, 0x51, 0x0f, 0xbf,
  0x78, 0xa3, 0xf3, 0x3d, 0xbe, 0x1b, 0x12, 0xbf, 0x67, 0xb2, 0x3c, 0xbf,
  0xde, 0xec, 0xff, 0xff, 0x04, 0x00, 0x00, 0x00, 0x00, 0x0c, 0x00, 0x00,
  0xf4, 0xdc, 0x2c, 0xbd, 0x89, 0x79, 0xf5, 0xbd, 0x61, 0x40, 0xd9, 0xbd,
  0xc8, 0x5e, 0x18, 0xbe, 0xd1, 0xe8, 0xf3, 0xbd, 0x20, 0x65, 0x5c, 0x3c,
  0xba, 0x72, 0x05, 0xbe, 0x00, 0x4a, 0x87, 0xba, 0xd4, 0x07, 0x5b, 0x3e,
  0x50, 0x6b, 0xf8, 0x3c, 0x10, 0xfc, 0x58, 0xbe, 0x3e, 0xb6, 0x28, 0x3e,
  0xbc, 0x7c, 0xca, 0x3d, 0x90, 0x77, 0xda, 0xbc, 0x3f, 0x58, 0xd4, 0x3d,
  0x43, 0x63, 0x6a, 0xbe, 0xa8, 0x6e, 0x73, 0xbe, 0xf0, 0xec, 0x52, 0x3e,
  0x9e, 0x08, 0x08, 0xbe, 0xbd, 0xcc, 0x6c, 0xbe, 0xe5, 0x42, 0x03, 0x3e,
  0xc1, 0xb1, 0x1f, 0xbe, 0xab, 0x1a, 0x6d, 0x3d, 0xe0, 0xe4, 0xde, 0x3d,
  0x96, 0xb5, 0x49, 0x3e, 0xf7, 0x71, 0x43, 0xbe, 0xc0, 0x1c, 0xe0, 0xbd,
  0x7c, 0x69, 0x5f, 0x3e, 0xc7, 0xbf, 0x7c, 0xbd, 0xa1, 0xa2, 0x5c, 0xbe,
  0x9d, 0x25, 0x10, 0xbe, 0x4a, 0x28, 0xb9, 0xbd, 0x00, 0x5d, 0x86, 0x3c,
  0x66, 0xc7, 0x23, 0x3e, 0xea, 0x94, 0xd7, 0xbb, 0x3c, 0x8f, 0xc9, 0xbd,
  0xb1, 0x46, 0x7b, 0xbe, 0x38, 0x13, 0x93, 0x3d, 0xb6, 0xcf, 0xe0, 0xbd,
  0x66, 0x53, 0x4a, 0x3e, 0xa9, 0xa8, 0x47, 0xbe, 0x3c, 0xfd, 0x22, 0xbd,
  0x86, 0xce, 0x75, 0x3d, 0x3a, 0xff, 0x4c, 0xbc, 0x48, 0x92, 0x22, 0xbe,
  0xb1, 0x95, 0x44, 0xbe, 0xeb, 0x57, 0xf6, 0x3c, 0x44, 0x07, 0xbd, 0x3d,
  0x22, 0x73, 0x35, 0x3e, 0x5f, 0x37, 0x6d, 0x3e, 0x27, 0x29, 0x70, 0xbe,
  0xd8, 0xee, 0x6c, 0x3d, 0xea, 0xad, 0x9b, 0xbd, 0xa0, 0x99, 0x32, 0xbe,
  0x87, 0xa3, 0x69, 0x3e, 0x26, 0x30, 0x45, 0x3e, 0x80, 0x85, 0x1a, 0x3e,
  0x40, 0x1e, 0x2b, 0x3b, 0xbe, 0xaa, 0x92, 0x3d, 0x05, 0xe5, 0x5f, 0xbe,
  0x56, 0xd3, 0x52, 0x3d, 0x6a, 0xfa, 0x11, 0xbe, 0x46, 0x03, 0x32, 0x3e,
  0x88, 0x6d, 0x7e, 0xbd, 0xfe, 0x6f, 0x67, 0x3e, 0x12, 0x04, 0x67, 0xbe,
  0x2d, 0xc8, 0x1e, 0xbe, 0x2e, 0x4b, 0x93, 0xbd, 0x77, 0x7b, 0x3d, 0xbe,
  0xd0, 0x04, 0x42, 0xbd, 0x0a, 0x9e, 0x82, 0xbd, 0x92, 0xbb, 0x96, 0xbd,
  0xb7, 0x18, 0x93, 0x3d, 0xa0, 0x69, 0xaa, 0x3b, 0x13, 0x54, 0x5e, 0xbe,
  0x0a, 0xf1, 0xc9, 0xbd, 0x4a, 0x75, 0x2a, 0x3e, 0x71, 0x62, 0x40, 0xbe,
  0xa1, 0xdf, 0x4c, 0x3c, 0x46, 0xe5, 0x12, 0x3e, 0xc0, 0xa1, 0x2f, 0x3d,
  0x57, 0x80, 0x46, 0xbe, 0x91, 0x5e, 0x16, 0x3d, 0x1a, 0x7b, 0x0b, 0x3e,
  0x93, 0xee, 0xad, 0x3d, 0xe0, 0x7d, 0x7d, 0xbd, 0xa3, 0xe9, 0x46, 0xbe,
  0x46, 0xaa, 0xc9, 0x3d, 0x07, 0x99, 0x3b, 0xbe, 0x7e, 0xd2, 0x43, 0xbe,
  0xf6, 0xaa, 0x01, 0x3e, 0xae, 0x53, 0x45, 0xbe, 0x8d, 0x70, 0x0f, 0x3e,
  0x8e, 0xa2, 0x65, 0xbe, 0x9c, 0xa6, 0x2b, 0x3e, 0x18, 0x26, 0x3e, 0xbe,
  0xb8, 0x0c, 0xa4, 0x3d, 0x99, 0x80, 0xda, 0x3d, 0xeb, 0xf4, 0xcf, 0x3d,
  0x8c, 0x8d, 0x5c, 0x3e, 0x9c, 0xef, 0x34, 0x3e, 0xf5, 0x9f, 0x67, 0xbe,
  0x01, 0xf7, 0x7d, 0xbe, 0xee, 0xe5, 0xeb, 0x3d, 0x21, 0x41, 0x96, 0xbd,
  0x64, 0x0e, 0xa4, 0xbd, 0x8b, 0x14, 0x9d, 0xbd, 0x8b, 0x8e, 0x64, 0x3c,
  0xef, 0x2c, 0x31, 0x3d, 0x10, 0xae, 0x18, 0x3e, 0xc3, 0x82, 0xf4, 0x3d,
  0x7e, 0x91, 0x37, 0x3e, 0xa0, 0x8b, 0xc7, 0x3c, 0xc9, 0x2b, 0x48, 0xbe,
  0xe3, 0x78, 0x3e, 0x3e, 0x21, 0x62, 0x59, 0xbd, 0xbd, 0xc4, 0xb8, 0x3c,
  0xc8, 0x96, 0xf0, 0x3d, 0x06, 0x62, 0x49, 0x3e, 0x71, 0x7f, 0x88, 0x3d,
  0x0f, 0x97, 0xad, 0x3d, 0x88, 0xf3, 0x6a, 0x3e, 0x33, 0x44, 0x00, 0x3e,
  0xc3, 0x9f, 0x07, 0xbe, 0x61, 0x47, 0x64, 0xbd, 0x2c, 0x4d, 0xb0, 0xbd,
  0xba, 0xa3, 0xb2, 0xbd, 0x6e, 0x4d, 0xfa, 0xbd, 0x1e, 0xa9, 0x47, 0xbe,
  0xee, 0x4a, 0x6c, 0xbd, 0x3c, 0x3b, 0x6c, 0xbd, 0xfd, 0xcf, 0x29, 0xbd,
  0xb2, 0xa7, 0x27, 0x3c, 0xea, 0x94, 0x33, 0xbe, 0x46, 0x1e, 0x0f, 0xbd,
  0x70, 0x3f, 0xf1, 0x3c, 0x0d, 0x17, 0xa3, 0x3c, 0x60, 0x8a, 0x4e, 0x3e,
  0xdc, 0x4a, 0x22, 0x3e, 0xdb, 0x98, 0xf9, 0xbd, 0x21, 0x4a, 0x69, 0x3c,
  0xe0, 0x72, 0x62, 0x3e, 0x30, 0xd6, 0x5d, 0x3e, 0x1b, 0x8b, 0x3c, 0xbe,
  0x88, 0x7a, 0xd8, 0x3d, 0xae, 0x32, 0xf8, 0xbc, 0x2e, 0xc0, 0x1e, 0x3e,
  0x54, 0x04, 0xa6, 0xbd, 0x93, 0xf9, 0xd1, 0xbc, 0xc0, 0x26, 0x29, 0x3b,
  0x67, 0x3c, 0x07, 0xbe, 0x7e, 0x5a, 0x2e, 0x3d, 0xb4, 0x2a, 0xe0, 0x3d,
  0x80, 0x5e, 0x96, 0x3c, 0xd6, 0xcc, 0x7e, 0xbe, 0x3c, 0x2e, 0x31, 0x3c,
  0x6e, 0x2e, 0x07, 0x3d, 0x88, 0xf1, 0x5e, 0x3d, 0x2e, 0xe7, 0x05, 0xbe,
  0x1b, 0x57, 0xbc, 0x3d, 0xae, 0xd5, 0x22, 0x3e, 0x4c, 0xe7, 0x57, 0xbe,
  0x5f, 0x6e, 0x20, 0x3d, 0x1e, 0xff, 0xf4, 0xbd, 0xcc, 0xb9, 0xac, 0xbc,
  0xf8, 0x49, 0x47, 0x3e, 0x15, 0xf7, 0x6a, 0x3e, 0x67, 0xee, 0x46, 0x3e,
  0x62, 0x8a, 0x5a, 0xbd, 0x24, 0x3e, 0x4c, 0xbe, 0x96, 0xb9, 0x01, 0xbc,
  0x7d, 0xaf, 0x60, 0x3e, 0x97, 0x06, 0x13, 0x3d, 0x27, 0xde, 0x6d, 0xbe,
  0x00, 0x5c, 0xa5, 0x3d, 0x47, 0x8f, 0x5b, 0x3e, 0x72, 0x75, 0x5f, 0xbe,
  0xa7, 0x9a, 0xa4, 0x3d, 0x08, 0xc8, 0x03, 0x3e, 0xd4, 0xb0, 0x5b, 0xbd,
  0x87, 0x7f, 0x2f, 0xbe, 0x88, 0x5f, 0x1b, 0x3d, 0xa2, 0x3c, 0x42, 0xbe,
  0xaa, 0x22, 0xa6, 0x3c, 0xc3, 0xee, 0x29, 0xbe, 0xca, 0xb7, 0x38, 0x3e,
  0x1f, 0x74, 0x95, 0x3c, 0x66, 0x2a, 0xaa, 0x3c, 0x41, 0x57, 0x2e, 0x3e,
  0xb7, 0x23, 0x70, 0xbe, 0xf9, 0xc0, 0xef, 0x3d, 0x7d, 0xac, 0x52, 0x3d,
  0x14, 0xff, 0x5f, 0xbd, 0xb2, 0x3f, 0x11, 0x3d, 0xb9, 0xb9, 0x9a, 0x3d,
  0x9e, 0x2a, 0x0d, 0xbe, 0x1b, 0xa0, 0x47, 0x3d, 0x96, 0x19, 0x47, 0xbe,
  0xf0, 0xbc, 0x3b, 0x3d, 0x3e, 0x38, 0xa4, 0x3b, 0xc6, 0x29, 0x0c, 0xbe,
  0x92, 0x0f, 0x75, 0x3e, 0x2b, 0x8b, 0xbf, 0x3d, 0xa7, 0xd1, 0x65, 0xbe,
  0x09, 0x34, 0x61, 0xbd, 0x80, 0x1b, 0xf8, 0xbb, 0x4a, 0x24, 0xac, 0x3d,
  0x12, 0xc9, 0x36, 0xbe, 0x00, 0x7e, 0x5a, 0xbe, 0x6b, 0x77, 0x2d, 0xbe,
  0x0f, 0x76, 0x04, 0xbe, 0xa7, 0x4f, 0x11, 0x3b, 0xe2, 0xbd, 0x80, 0xbd,
  0x3c, 0x76, 0xc3, 0x3d, 0x0b, 0xee, 0xf5, 0x3d, 0xb9, 0xc8, 0xb2, 0x3d,
  0x69, 0x7c, 0x22, 0xbc, 0x8a, 0xa7, 0x51, 0x3e, 0xc8, 0x6d, 0x68, 0xbe,
  0x23, 0x16, 0x07, 0xbe, 0xe9, 0x87, 0x04, 0x3e, 0xd8, 0x18, 0x00, 0xbe,
  0xc3, 0xf4, 0x23, 0x3e, 0x10, 0x7a, 0x04, 0x3e, 0x38, 0xf2, 0x63, 0xbd,
  0xc1, 0x91, 0x3a, 0x3e, 0x97, 0xb7, 0x2e, 0xbe, 0x30, 0x20, 0xfa, 0xbd,
  0xc2, 0x2f, 0xe2, 0x3d, 0x8a, 0x18, 0xd0, 0xbd, 0xf1, 0x77, 0xcb, 0x3c,
  0x67, 0xfc, 0xd0, 0xbd, 0xa9, 0x85, 0x4a, 0x3e, 0x1a, 0xe6, 0x87, 0xbd,
  0x7c, 0x39, 0x46, 0x3e, 0xa5, 0xd7, 0x33, 0xbe, 0xcb, 0x00, 0x6d, 0xbc,
  0x80, 0x06, 0xbe, 0x3c, 0x5b, 0x0a, 0x8b, 0xbd, 0x42, 0x22, 0xb0, 0xbd,
  0x64, 0xa0, 0xd0, 0x3d, 0x19, 0x60, 0x1e, 0xbd, 0x04, 0xe5, 0xbc, 0x3d,
  0x41, 0x5f, 0x0a, 0x3e, 0x96, 0x3f, 0x79, 0xbe, 0xd0, 0x73, 0x51, 0x3e,
  0xa2, 0xf0, 0x0a, 0x3d, 0xb3, 0x23, 0xe5, 0xbd, 0xc9, 0x1f, 0x94, 0x3d,
  0xb6, 0x08, 0x00, 0x3e, 0x61, 0x43, 0xbf, 0xbd, 0xfd, 0x55, 0x41, 0x3d,
  0x34, 0x0c, 0xe2, 0x3c, 0x60, 0xc4, 0x0b, 0x3e, 0xa8, 0x2d, 0xb0, 0x3d,
  0x17, 0x07, 0x61, 0xbe, 0x90, 0x86, 0x47, 0xbc, 0xb5, 0x52, 0x46, 0xbd,
  0x14, 0x68, 0x28, 0xbd, 0xc0, 0x38, 0x82, 0xbc, 0x72, 0x7d, 0x97, 0x3d,
  0xcc, 0xf0, 0x5b, 0x3e, 0xc1, 0x33, 0x8b, 0x3d, 0x47, 0xac, 0x26, 0xbe,
  0xea, 0x49, 0x3f, 0x3e, 0x3e, 0xd3, 0x49, 0xbe, 0xb2, 0xf1, 0x10, 0x3e,
  0xf7, 0x65, 0x2c, 0x3e, 0x4b, 0xbb, 0xa2, 0xbd, 0x26, 0x48, 0x10, 0x3e,
  0x6e, 0x4c, 0x18, 0xbe, 0x10, 0xcd, 0x31, 0x3e, 0xc0, 0xb4, 0x5b, 0xbe,
  0x25, 0x68, 0x76, 0xbe, 0xdd, 0xca, 0xa9, 0xbb, 0xc0, 0x43, 0xc1, 0x3c,
  0x21, 0xb4, 0x4d, 0xbe, 0xda, 0x15, 0xc1, 0xbd, 0x4e, 0x42, 0x6f, 0x3e,
  0x66, 0x58, 0xeb, 0x3d, 0xc5, 0x93, 0xdc, 0x3d, 0x58, 0x76, 0x37, 0xbd,
  0x3d, 0xa0, 0x50, 0xbd, 0x30, 0x5c, 0x67, 0x3b, 0xfd, 0x57, 0x47, 0xbc,
  0x90, 0x91, 0x3e, 0xbd, 0x4c, 0xc3, 0xcf, 0x3c, 0xcc, 0xf8, 0x2f, 0xbd,
  0xb8, 0xd8, 0x2e, 0x3d, 0x7b, 0xe8, 0xd5, 0xbc, 0xc4, 0x3b, 0x15, 0xbb,
  0x36, 0x8d, 0x68, 0x3d, 0x02, 0x6f, 0x53, 0x3e, 0x44, 0x5d, 0xba, 0x3d,
  0x2a, 0x8a, 0xcd, 0xbc, 0xbf, 0x9b, 0x3a, 0xbe, 0x11, 0x92, 0x4e, 0xbe,
  0x40, 0xf4, 0xf8, 0x3c, 0x5b, 0xeb, 0x01, 0xbe, 0x37, 0xe0, 0x47, 0x3e,
  0x96, 0x92, 0xb8, 0xbd, 0x58, 0xe8, 0x2e, 0xbd, 0x4d, 0xc7, 0x11, 0xbe,
  0x38, 0x17, 0xe7, 0xbd, 0x88, 0xd8, 0x07, 0xbe, 0xed, 0xf7, 0x6f, 0x3b,
  0xd2, 0x18, 0x4d, 0xbe, 0x64, 0xf2, 0xc3, 0x3d, 0x90, 0xb0, 0x2e, 0xbd,
  0x44, 0x2d, 0xa7, 0x3d, 0x81, 0x84, 0xb8, 0xbd, 0x0f, 0x21, 0xdb, 0x3d,
  0xac, 0x51, 0xb4, 0x3c, 0xb4, 0x07, 0x55, 0xbd, 0x7f, 0x06, 0x29, 0xbe,
  0x39, 0xc7, 0x09, 0x3e, 0x1e, 0x70, 0x58, 0xbe, 0xf0, 0xf6, 0x6b, 0xbe,
  0x91, 0x29, 0xfb, 0x3d, 0x67, 0xaa, 0x0b, 0xbe, 0x51, 0x23, 0x38, 0xbe,
  0x29, 0xe7, 0xe4, 0xbd, 0x46, 0x12, 0x42, 0x3e, 0xd4, 0x04, 0x35, 0x3e,
  0xd5, 0xee, 0x76, 0xbc, 0x04, 0xac, 0x62, 0x3e, 0xd9, 0x17, 0x25, 0x3e,
  0x5f, 0x70, 0x86, 0x3e, 0x60, 0x6a, 0xe2, 0x3c, 0xb0, 0xa8, 0xde, 0x3d,
  0x55, 0x9c, 0xcb, 0x3d, 0x38, 0xec, 0x3a, 0x3e, 0xac, 0x5e, 0xab, 0xbd,
  0xba, 0xe1, 0x61, 0x3e, 0xc0, 0xb0, 0x44, 0xbe, 0x40, 0x7a, 0xa3, 0xbd,
  0xaa, 0xef, 0xb0, 0xbd, 0x27, 0xea, 0xce, 0x3d, 0xb0, 0xc4, 0x27, 0xbe,
  0x78, 0x1b, 0x27, 0x3e, 0x39, 0xba, 0x5b, 0xbe, 0x34, 0xa8, 0x4f, 0xbe,
  0xb9, 0x8a, 0x2d, 0xbe, 0xc9, 0xf1, 0x3b, 0xbe, 0x62, 0x38, 0xf6, 0xbd,
  0x28, 0x6c, 0x1f, 0xbe, 0x1f, 0xce, 0x24, 0xbd, 0x78, 0x3d, 0x0b, 0xbe,
  0x4a, 0xe1, 0x64, 0x3e, 0x1a, 0x6b, 0xbe, 0xbd, 0x9b, 0xbb, 0x70, 0x3e,
  0x5a, 0xa1, 0x6b, 0x3e, 0x18, 0xaf, 0x3a, 0x3e, 0x9b, 0x82, 0x26, 0xbe,
  0xff, 0x73, 0x65, 0x3d, 0xb2, 0x27, 0x69, 0x3e, 0xbe, 0xbc, 0x9d, 0x3c,
  0xd0, 0x07, 0x7a, 0xbd, 0x9a, 0x7f, 0x39, 0x3e, 0x50, 0x7f, 0x29, 0xbe,
  0x38, 0x8f, 0x82, 0x3e, 0x02, 0x68, 0x42, 0x3e, 0x9c, 0xb4, 0x39, 0x3d,
  0x2e, 0x4d, 0x7d, 0x3e, 0xab, 0xd6, 0x8f, 0x3d, 0x22, 0x24, 0x07, 0x3e,
  0xf0, 0x30, 0x4f, 0x3e, 0xd7, 0x9f, 0x0c, 0xbe, 0xf4, 0x7a, 0x95, 0x3d,
  0x16, 0x3c, 0x27, 0x3e, 0xa9, 0x02, 0x92, 0x3d, 0x50, 0x3d, 0xe8, 0xbd,
  0x38, 0xbd, 0xd1, 0xbc, 0xc4, 0x15, 0xad, 0xbd, 0x49, 0x44, 0xd5, 0xbd,
  0x29, 0xc2, 0x3c, 0x3d, 0xf5, 0x12, 0x37, 0xbd, 0xc8, 0x1f, 0xd2, 0xbc,
  0xce, 0x04, 0x39, 0x3e, 0x0b, 0xeb, 0x44, 0xbe, 0x89, 0x5a, 0xe7, 0x3d,
  0x38, 0x08, 0xbf, 0xbd, 0x3d, 0x34, 0x46, 0x3e, 0x49, 0x94, 0x6b, 0x3d,
  0x1e, 0xa9, 0x30, 0x3e, 0xa7, 0x1a, 0x57, 0xbe, 0x1a, 0x77, 0x2c, 0xbe,
  0x8a, 0x61, 0x5c, 0x3e, 0x04, 0x57, 0x8d, 0x3d, 0xde, 0x7f, 0x12, 0x3e,
  0xc0, 0x34, 0x73, 0x3b, 0xcc, 0x7c, 0x10, 0x3e, 0xd8, 0x2a, 0xfc, 0xbd,
  0xa8, 0x49, 0x53, 0x3d, 0x52, 0xa3, 0x58, 0x3e, 0x28, 0x56, 0xe9, 0xbd,
  0x60, 0x19, 0x5a, 0x3c, 0xf0, 0xf6, 0x60, 0x3d, 0x94, 0x22, 0x00, 0xbd,
  0xc0, 0xbb, 0x7f, 0xbd, 0x00, 0x8f, 0xb7, 0xba, 0xc3, 0x84, 0x2e, 0xbe,
  0x14, 0xc7, 0x64, 0x3e, 0xa2, 0x19, 0x5e, 0x3e, 0xc8, 0x0c, 0x67, 0x3e,
  0xcc, 0xea, 0x40, 0xbe, 0x38, 0x09, 0x1d, 0x3d, 0x30, 0x38, 0x37, 0x3d,
  0x28, 0x26, 0x6d, 0xbd, 0xbc, 0xa6, 0x44, 0x3e, 0x00, 0x04, 0x70, 0x39,
  0x82, 0xa5, 0x84, 0xbd, 0x40, 0xf8, 0x42, 0x3e, 0x6c, 0xfa, 0x36, 0x3e,
  0x84, 0x24, 0xee, 0x3d, 0x42, 0xce, 0x2c, 0xbe, 0x6e, 0x37, 0xdc, 0xbd,
  0x7a, 0xa2, 0x0d, 0xbe, 0x70, 0x06, 0x1c, 0xbe, 0xeb, 0x74, 0x5c, 0xbe,
  0x1e, 0x24, 0x21, 0xbe, 0x88, 0xcf, 0xd4, 0xbd, 0xc0, 0xc2, 0x05, 0x3b,
  0x74, 0x91, 0x04, 0xbe, 0x06, 0x0a, 0xb1, 0xbd, 0x37, 0xc9, 0x38, 0xbe,
  0xf8, 0x7f, 0xd2, 0x3d, 0xe2, 0xcf, 0x41, 0x3e, 0x24, 0xc1, 0x91, 0x3d,
  0x94, 0x66, 0x10, 0x3e, 0x1c, 0x84, 0x02, 0x3e, 0x4f, 0xc8, 0x70, 0xbe,
  0xb0, 0x0e, 0x3c, 0xbc, 0xe8, 0xa4, 0x84, 0x3d, 0xc2, 0xda, 0x5c, 0x3e,
  0xae, 0xb9, 0x04, 0x3e, 0xb4, 0xef, 0xff, 0x3d, 0x2a, 0x2a, 0x30, 0xbe,
  0x20, 0xdc, 0x79, 0x3c, 0xd0, 0x5e, 0x1f, 0x3d, 0x10, 0x72, 0x64, 0xbd,
  0x06, 0x65, 0xdb, 0xbd, 0x54, 0x82, 0x4b, 0xbe, 0x54, 0x24, 0xb7, 0x3d,
  0x9c, 0xe6, 0x1b, 0xbe, 0x66, 0x9c, 0x66, 0x3e, 0xc5, 0xde, 0x54, 0xbe,
  0x50, 0xb4, 0xc9, 0x3d, 0xc2, 0xc7, 0x4b, 0x3e, 0xc2, 0x89, 0x4e, 0xbe,
  0x80, 0x1d, 0xa2, 0xbc, 0x04, 0xec, 0xbb, 0x3d, 0x54, 0xff, 0x36, 0xbd,
  0x20, 0x22, 0x06, 0x3e, 0x36, 0xbe, 0x2a, 0x3e, 0xac, 0xaa, 0x1e, 0xbd,
  0x2a, 0x5c, 0xbd, 0xbd, 0x40, 0xa3, 0x33, 0xbb, 0x79, 0x53, 0x5e, 0xbe,
  0x70, 0x6d, 0x25, 0x3d, 0x7d, 0x7f, 0x5a, 0xbe, 0xce, 0x8b, 0x08, 0xbe,
  0xa8, 0x64, 0xac, 0x3d, 0x90, 0x4f, 0x0c, 0x3e, 0x80, 0x7f, 0x90, 0x3d,
  0xfe, 0x9b, 0x03, 0xbe, 0x97, 0x8d, 0x28, 0xbe, 0x08, 0x9b, 0xe9, 0x3d,
  0xcc, 0x3f, 0xf8, 0x3d, 0x40, 0x5d, 0x0f, 0x3e, 0xfa, 0xe0, 0x54, 0xbe,
  0x7e, 0x06, 0xe4, 0xbd, 0xb4, 0x17, 0x63, 0xbd, 0x00, 0xfd, 0x31, 0xbd,
  0x22, 0x24, 0x11, 0x3e, 0x4e, 0xf0, 0x55, 0x3e, 0xe8, 0x27, 0xa6, 0x3d,
  0x82, 0x8d, 0x53, 0x3e, 0xe4, 0xf9, 0x39, 0xbd, 0xa4, 0x2f, 0x2d, 0xbe,
  0x28, 0xfa, 0x62, 0x3d, 0xac, 0x79, 0x02, 0x3e, 0x52, 0x38, 0xc9, 0xbd,
  0x90, 0x79, 0x41, 0x3e, 0x28, 0x8e, 0xb3, 0xbd, 0xd8, 0x61, 0xe7, 0x3d,
  0xb0, 0x40, 0xea, 0xbc, 0x48, 0x6e, 0x69, 0xbe, 0xac, 0x1d, 0xae, 0x3d,
  0x3a, 0x5a, 0x56, 0xbe, 0x80, 0x34, 0x63, 0x3e, 0xbe, 0x52, 0x85, 0xbd,
  0xf8, 0xb4, 0x5f, 0x3d, 0x7a, 0x07, 0x0d, 0xbe, 0x92, 0x50, 0x0d, 0xbe,
  0x06, 0xeb, 0x8b, 0xbd, 0x54, 0x43, 0x0c, 0xbe, 0x60, 0xdd, 0xba, 0x3d,
  0x6a, 0x51, 0x75, 0x3e, 0x30, 0x7f, 0x57, 0xbe, 0x36, 0x71, 0x69, 0x3e,
  0x30, 0xed, 0x93, 0x3c, 0xd6, 0x29, 0x08, 0xbe, 0x14, 0x3d, 0xe4, 0x3d,
  0x40, 0xc0, 0x18, 0xbb, 0x5a, 0x83, 0x16, 0x3e, 0x48, 0x0f, 0x11, 0xbd,
  0xc0, 0xa2, 0xe4, 0x3c, 0x34, 0xf3, 0xee, 0x3d, 0xa0, 0x9c, 0x9d, 0x3d,
  0x00, 0xaa, 0x57, 0xbe, 0x08, 0x36, 0x9a, 0x3d, 0x02, 0x79, 0x16, 0xbe,
  0x60, 0xf3, 0xad, 0x3c, 0x6c, 0xe3, 0xd3, 0x3d, 0xa0, 0xa1, 0x8f, 0x3b,
  0x80, 0x28, 0x14, 0x3c, 0xc2, 0x25, 0x05, 0x3e, 0x78, 0xc2, 0xec, 0xbc,
  0xf0, 0x35, 0x75, 0xbd, 0x14, 0xf7, 0x20, 0xbd, 0x0c, 0xf6, 0x1d, 0xbd,
  0xf4, 0x9b, 0x32, 0x3e, 0x5a, 0x60, 0x47, 0x3e, 0x00, 0x2c, 0xd2, 0x39,
  0x60, 0xe6, 0xbf, 0x3d, 0x88, 0x26, 0x54, 0xbd, 0xa0, 0x2f, 0xad, 0xbb,
  0x2d, 0x32, 0x56, 0xbe, 0x00, 0xfb, 0x26, 0xbc, 0xd6, 0x6a, 0x25, 0xbe,
  0x8f, 0xd4, 0xed, 0xbd, 0x58, 0xd7, 0xbe, 0xbd, 0x10, 0xe3, 0xbb, 0x3d,
  0x36, 0x88, 0x64, 0x3e, 0x58, 0x3c, 0x4a, 0x3e, 0x54, 0xc2, 0x2f, 0xbe,
  0x30, 0x0a, 0xe8, 0x3d, 0x6e, 0x04, 0x01, 0xbe, 0x34, 0xf4, 0x63, 0xbd,
  0x0e, 0x98, 0x2b, 0xbe, 0xa4, 0xdf, 0x8f, 0x3d, 0x64, 0xd4, 0x9f, 0xbd,
  0x00, 0x51, 0x8c, 0xbc, 0x00, 0x10, 0xd5, 0xb8, 0x78, 0x28, 0x2d, 0xbe,
  0x50, 0x7f, 0x7e, 0x3d, 0x6e, 0xdf, 0x64, 0x3e, 0x1a, 0xee, 0x86, 0xbd,
  0x1c, 0x1c, 0x5c, 0xbe, 0x52, 0x2d, 0x08, 0x3e, 0x7a, 0x39, 0x0b, 0x3e,
  0x66, 0xda, 0xe0, 0xbd, 0x52, 0xe3, 0x5a, 0x3e, 0x73, 0x5c, 0x4f, 0xbe,
  0xe8, 0xb2, 0x7d, 0xbd, 0x00, 0xb2, 0x35, 0x3d, 0x3b, 0x14, 0x3d, 0xbe,
  0xb4, 0xfc, 0xaf, 0x3d, 0xc0, 0xc3, 0x56, 0x3d, 0xf0, 0xd7, 0xca, 0xbd,
  0x7c, 0x08, 0xf3, 0xbd, 0x42, 0x0a, 0x4a, 0xbe, 0xb4, 0x42, 0x1c, 0xbd,
  0xc6, 0xa6, 0x53, 0xbe, 0x2a, 0xfb, 0xaa, 0xbd, 0x80, 0x85, 0xff, 0x3c,
  0x94, 0xe3, 0x37, 0x3e, 0xc0, 0xa3, 0x2a, 0x3e, 0x82, 0x73, 0x73, 0x3e,
  0x3a, 0x15, 0x21, 0x3e, 0x10, 0x2e, 0xb4, 0x3c, 0x1c, 0xc1, 0x34, 0xbe,
  0x03, 0x7f, 0x2c, 0xbe, 0x80, 0x14, 0xf5, 0xbc, 0x60, 0x35, 0xfb, 0x3d,
  0x28, 0x90, 0x1d, 0x3d, 0x19, 0xac, 0x91, 0x3d, 0x44, 0xbc, 0x26, 0x3d,
  0x48, 0x50, 0xff, 0xbd, 0x3c, 0x3d, 0x13, 0x3d, 0xdf, 0x4d, 0xef, 0xbd,
  0x7a, 0xa2, 0x5f, 0x3d, 0xaf, 0xbe, 0x5f, 0xbe, 0x73, 0x61, 0x3a, 0xbe,
  0x74, 0x37, 0x17, 0x3e, 0x15, 0xa4, 0x8a, 0xbd, 0xe2, 0xbe, 0x0d, 0xbe,
  0xdb, 0x21, 0x5c, 0xbc, 0xb6, 0xb1, 0x27, 0xbe, 0x70, 0x80, 0x03, 0x3e,
  0xa3, 0x85, 0x26, 0x3e, 0x70, 0xeb, 0x68, 0x3d, 0x87, 0xb6, 0xa6, 0x3d,
  0x9b, 0xb5, 0x74, 0x3d, 0x47, 0x41, 0x9f, 0xbd, 0x26, 0x3d, 0xe9, 0x3d,
  0x30, 0x4e, 0x0e, 0x3d, 0xd4, 0xda, 0x99, 0xbd, 0xab, 0xeb, 0x89, 0xbd,
  0xa3, 0xef, 0x0e, 0xbe, 0x2c, 0x2d, 0xfd, 0xbd, 0x26, 0x2a, 0x6f, 0x3e,
  0x04, 0x5d, 0xa3, 0xbd, 0xcb, 0xf9, 0x0b, 0xbe, 0x1a, 0xff, 0x73, 0x3e,
  0x32, 0x5c, 0x4f, 0x3d, 0xa4, 0x27, 0xe0, 0xbb, 0xb0, 0xca, 0xbf, 0x3d,
  0xc5, 0xaa, 0xa3, 0xbd, 0x20, 0x58, 0xb6, 0xbd, 0xa7, 0x52, 0x04, 0x3e,
  0x66, 0xea, 0x30, 0xbc, 0xb0, 0x5a, 0x02, 0x3e, 0x77, 0xbb, 0x56, 0x3d,
  0xbd, 0x41, 0xa9, 0xbd, 0x27, 0xfe, 0xf3, 0x3d, 0x00, 0xa1, 0x42, 0x3e,
  0x6e, 0xe3, 0x49, 0x3e, 0x69, 0xaa, 0x16, 0x3e, 0xc4, 0x41, 0x69, 0xbe,
  0x6c, 0xf7, 0xd7, 0x3d, 0x6b, 0x7f, 0x28, 0xbe, 0x15, 0x09, 0xe6, 0x3d,
  0x9c, 0xb7, 0x0b, 0x3e, 0x88, 0x10, 0x31, 0x3e, 0xd8, 0x34, 0x59, 0x3e,
  0x6c, 0x45, 0x68, 0x3e, 0xa0, 0xd4, 0xbf, 0x3c, 0x94, 0xfe, 0x28, 0xbd,
  0x5c, 0xc0, 0x49, 0x3e, 0x6e, 0x6b, 0xe0, 0xbd, 0x52, 0x5f, 0x61, 0x3d,
  0x5b, 0x0a, 0x1b, 0xbe, 0xc5, 0x6e, 0x27, 0xbe, 0x80, 0x5f, 0x54, 0x3e,
  0xba, 0x0f, 0x53, 0xbe, 0xf0, 0xff, 0x16, 0x3e, 0x06, 0x73, 0x03, 0xbe,
  0x53, 0x96, 0x27, 0xbe, 0x83, 0xd8, 0x3e, 0xbe, 0x15, 0x99, 0x9c, 0xbc,
  0x69, 0x51, 0xc1, 0x3d, 0x3c, 0xc5, 0x5e, 0x3e, 0x71, 0x83, 0x3a, 0xbe,
  0xec, 0x15, 0x56, 0xbe, 0x0a, 0x39, 0x33, 0xbe, 0xaa, 0xd6, 0x62, 0xbe,
  0xe1, 0x22, 0x3b, 0xbe, 0xd0, 0x3a, 0x7a, 0xbc, 0x05, 0xc5, 0xcf, 0x3d,
  0xdf, 0x18, 0xca, 0xbd, 0x28, 0xc4, 0x78, 0xbd, 0x14, 0x68, 0xc2, 0x3d,
  0xa0, 0x65, 0x43, 0x3e, 0x9d, 0xc7, 0x92, 0xbd, 0x1f, 0x54, 0x47, 0xbe,
  0xe6, 0xe9, 0x2e, 0xbd, 0xc9, 0x65, 0xac, 0xbc, 0xf6, 0xbf, 0x6a, 0x3e,
  0xfc, 0xdf, 0x3e, 0x3b, 0x80, 0xd1, 0xad, 0x3b, 0xfe, 0xd9, 0xb2, 0xbd,
  0xd2, 0x26, 0x10, 0xbe, 0xb9, 0x35, 0x50, 0x3e, 0x1c, 0x9b, 0xd8, 0xbd,
  0xd3, 0xc1, 0xbb, 0xbd, 0x0c, 0xf9, 0xf4, 0xbd, 0xe6, 0x72, 0x8d, 0x3d,
  0xe4, 0x69, 0x3d, 0x3e, 0xf9, 0xec, 0x3f, 0x3e, 0x12, 0x66, 0x3b, 0xbe,
  0xf3, 0x3c, 0x04, 0xbe, 0x0c, 0x52, 0x3f, 0xbe, 0x30, 0x8c, 0xce, 0x3d,
  0xd0, 0x1f, 0xe3, 0xbd, 0x84, 0xc9, 0x22, 0x3e, 0xcc, 0xf5, 0x2d, 0xbd,
  0x50, 0x9d, 0x30, 0xbd, 0x3e, 0x7d, 0x09, 0x3e, 0xc8, 0x1d, 0x8d, 0xbd,
  0xc0, 0xca, 0xd3, 0x3d, 0xb2, 0x79, 0x61, 0x3e, 0x9a, 0x9e, 0x0d, 0xbe,
  0x1c, 0xc6, 0x24, 0xbe, 0x18, 0x6c, 0x66, 0x3d, 0xa2, 0x52, 0xca, 0xbd,
  0xce, 0x03, 0x3d, 0xbe, 0xc8, 0x56, 0x40, 0x3e, 0x10, 0x02, 0x1e, 0x3d,
  0x24, 0x3a, 0xb2, 0x3d, 0x8e, 0x73, 0x28, 0x3e, 0x84, 0xbf, 0x34, 0x3e,
  0x80, 0xbe, 0xdb, 0x3b, 0x8a, 0xe5, 0x4a, 0xbe, 0x00, 0x1c, 0x22, 0x3d,
  0xa2, 0x56, 0x90, 0xbd, 0xfc, 0xbd, 0x4e, 0xbe, 0xe0, 0x22, 0x60, 0x3d,
  0x36, 0x43, 0x72, 0xbe, 0xe0, 0x7b, 0xc1, 0x3d, 0xe9, 0x0a, 0x29, 0xbe,
  0x75, 0x49, 0x68, 0xbe, 0xa2, 0x34, 0x1c, 0x3e, 0x30, 0xc7, 0x1d, 0x3c,
  0x08, 0xba, 0x67, 0xbe, 0x8c, 0xe3, 0x32, 0x3e, 0xe0, 0x03, 0xf2, 0xbd,
  0x9e, 0x80, 0xc1, 0xbd, 0x80, 0x59, 0x9b, 0x3d, 0x02, 0x96, 0x5e, 0x3e,
  0x0e, 0xdf, 0x3d, 0xbe, 0x80, 0x84, 0x24, 0x3d, 0x82, 0xae, 0x2f, 0x3e,
  0x2c, 0x2d, 0xfb, 0x3d, 0x20, 0x85, 0x9d, 0x3c, 0x30, 0x0d, 0xea, 0xbd,
  0x10, 0x05, 0xf9, 0xbc, 0x80, 0xde, 0x0a, 0xbd, 0x4c, 0xcd, 0x28, 0x3e,
  0x18, 0x84, 0xe3, 0xbd, 0x7e, 0x9f, 0x53, 0x3e, 0x20, 0x97, 0x27, 0x3d,
  0x90, 0x64, 0xb2, 0xbd, 0xc0, 0x43, 0x72, 0xbe, 0x88, 0x1d, 0x6e, 0x3e,
  0xc1, 0xf4, 0x18, 0xbe, 0xb0, 0x07, 0x19, 0x3e, 0x26, 0x01, 0x2e, 0xbe,
  0x28, 0x45, 0xa2, 0xbd, 0xec, 0xfe, 0x51, 0xbd, 0x7a, 0xa9, 0x33, 0x3e,
  0xd8, 0x91, 0xb9, 0x3d, 0xf8, 0xd4, 0x5b, 0x3e, 0xbe, 0x13, 0x0a, 0x3e,
  0xd8, 0xf5, 0x45, 0x3d, 0x00, 0xd0, 0xe8, 0x3c, 0x58, 0x97, 0xd3, 0x3d,
  0x7a, 0x0a, 0x19, 0xbe, 0x7c, 0x67, 0x3c, 0x3e, 0xd8, 0xc4, 0x61, 0x3d,
  0xfc, 0xde, 0x1f, 0xbe, 0x00, 0xe5, 0x4f, 0x3e, 0x82, 0xa8, 0xa8, 0xbd,
  0x92, 0xb7, 0x64, 0x3e, 0x64, 0xa5, 0x59, 0x3e, 0x48, 0xfc, 0x52, 0x3e,
  0xce, 0x50, 0x1d, 0xbe, 0x60, 0x39, 0x10, 0xbc, 0xea, 0x26, 0xdc, 0xbd,
  0xd8, 0xd8, 0x8e, 0xbd, 0xa3, 0xd1, 0x40, 0xbe, 0xbe, 0x89, 0x55, 0xbe,
  0x8e, 0x35, 0xc5, 0xbd, 0xf4, 0x5a, 0x7f, 0xbd, 0xbc, 0x0e, 0x27, 0x3e,
  0xa0, 0x4b, 0x9d, 0xbd, 0x00, 0xbc, 0xb8, 0xb9, 0xc0, 0x30, 0x44, 0x3d,
  0x4c, 0xd3, 0x61, 0x3e, 0x10, 0x65, 0x03, 0x3d, 0xec, 0x24, 0x39, 0xbe,
  0x70, 0x09, 0x69, 0x3d, 0x7c, 0x99, 0xa7, 0x3d, 0x64, 0xad, 0x6c, 0x3e,
  0x1c, 0x94, 0x78, 0xbd, 0x06, 0xd9, 0x36, 0xbe, 0xfe, 0x46, 0x9c, 0xbd,
  0xea, 0xf8, 0xff, 0xff, 0x04, 0x00, 0x00, 0x00, 0x08, 0x00, 0x00, 0x00,
  0xff, 0xff, 0xff, 0xff, 0x60, 0x00, 0x00, 0x00, 0xfe, 0xf8, 0xff, 0xff,
  0x04, 0x00, 0x00, 0x00, 0x04, 0x00, 0x00, 0x00, 0x0b, 0xae, 0x12, 0x3c,
  0x0e, 0xf9, 0xff, 0xff, 0x04, 0x00, 0x00, 0x00, 0x20, 0x00, 0x00, 0x00,
  0xcb, 0x7b, 0x2f, 0xba, 0xe7, 0x16, 0x14, 0xbc, 0xbf, 0xbd, 0x11, 0x3c,
  0x53, 0x46, 0x84, 0x3c, 0x00, 0x00, 0x00, 0x00, 0x00, 0x00, 0x00, 0x00,
  0x91, 0xfa, 0x12, 0xbc, 0x00, 0x00, 0x00, 0x00, 0x3a, 0xf9, 0xff, 0xff,
  0x04, 0x00, 0x00, 0x00, 0x00, 0x06, 0x00, 0x00, 0x1e, 0xf9, 0x8c, 0xbd,
  0xc0, 0xe7, 0x71, 0xbd, 0x00, 0x2f, 0x51, 0xbc, 0x68, 0x84, 0x70, 0x3e,
  0x3c, 0x24, 0xc3, 0x3d, 0xfa, 0xcf, 0x84, 0xbe, 0xfc, 0xa0, 0x44, 0x3e,
  0xc8, 0x98, 0x2b, 0x3d, 0x46, 0xa8, 0x40, 0xbe, 0xc8, 0x6b, 0x19, 0xbd,
  0x80, 0x53, 0x68, 0xbe, 0x9c, 0x2c, 0x68, 0x3e, 0x68, 0xa7, 0xf3, 0xbd,
  0xdc, 0x58, 0x95, 0x3d, 0x46, 0xfb, 0xb6, 0xbd, 0x80, 0x03, 0x16, 0xbe,
  0xde, 0x6b, 0x84, 0xbe, 0x9a, 0x9d, 0x00, 0x3e, 0x10, 0xa9, 0xf3, 0xbd,
  0x0c, 0xec, 0xba, 0x3d, 0x08, 0x1f, 0x5f, 0xbe, 0x48, 0xbd, 0x51, 0xbd,
  0x6a, 0x42, 0x7d, 0xbe, 0xaa, 0x6c, 0x49, 0x3e, 0x40, 0xc3, 0x12, 0x3e,
  0xb5, 0x0b, 0x98, 0xbb, 0x54, 0xe6, 0x2d, 0xbd, 0x39, 0xa0, 0x0a, 0xbe,
  0x90, 0x66, 0x8c, 0x3e, 0x60, 0xc1, 0x83, 0xbe, 0xe3, 0xb4, 0x44, 0xbe,
  0xbc, 0xc7, 0x7e, 0xbe, 0x88, 0xcc, 0x93, 0xbe, 0xec, 0x07, 0x61, 0xbc,
  0x60, 0x26, 0xb4, 0x3d, 0x58, 0xc2, 0x55, 0x3e, 0xef, 0x7e, 0xfe, 0xbd,
  0x79, 0x4b, 0x30, 0xbe, 0xac, 0xf3, 0x5e, 0xbe, 0xae, 0xc9, 0x86, 0x3b,
  0x66, 0xf3, 0xb9, 0xbd, 0x4a, 0xf9, 0x5c, 0x3e, 0xd8, 0x38, 0x6b, 0x3e,
  0x0e, 0xbb, 0x57, 0x3e, 0x07, 0x0f, 0xa1, 0x3d, 0x86, 0x34, 0x53, 0x3e,
  0x28, 0xe9, 0x85, 0x3e, 0x17, 0xac, 0x9b, 0x3d, 0x1a, 0x4d, 0x3d, 0xbe,
  0x22, 0xb3, 0x4c, 0xbd, 0x26, 0x0e, 0x92, 0xbe, 0x79, 0x07, 0xb0, 0x3d,
  0x2c, 0x5e, 0x7e, 0x3e, 0x20, 0xfc, 0xc5, 0x3d, 0xa4, 0x54, 0x7b, 0xbd,
  0xae, 0xb9, 0x04, 0xbd, 0x3c, 0x9b, 0x92, 0x3d, 0x89, 0xc3, 0x7b, 0x3e,
  0x14, 0x63, 0x54, 0xbe, 0xbe, 0x65, 0x1d, 0xbe, 0x8c, 0xcd, 0x34, 0x3e,
  0x4d, 0x49, 0x29, 0x3e, 0x62, 0x34, 0x92, 0x3e, 0xc1, 0x17, 0x29, 0xbe,
  0xac, 0x93, 0x7d, 0xbd, 0xa9, 0x6f, 0x60, 0x3e, 0xe8, 0xc6, 0x81, 0x3e,
  0xc7, 0xe1, 0x1d, 0xbe, 0x00, 0xb9, 0x11, 0x3d, 0x1c, 0x4a, 0x2d, 0xbe,
  0x54, 0x30, 0xf7, 0x3d, 0x49, 0x08, 0x8a, 0x3e, 0x20, 0x6f, 0x6c, 0x3e,
  0xfd, 0xa8, 0xcd, 0xbd, 0x58, 0x77, 0x47, 0x3e, 0x50, 0xc8, 0x80, 0x3c,
  0x49, 0x14, 0x89, 0xbe, 0x44, 0x77, 0x71, 0xbe, 0x20, 0x69, 0x06, 0x3d,
  0x2f, 0x75, 0xd3, 0x3c, 0x8a, 0xd4, 0xfc, 0xbd, 0x68, 0x57, 0x7e, 0x3e,
  0x74, 0x54, 0x3f, 0xbd, 0x60, 0x7f, 0xf8, 0xbd, 0x15, 0x38, 0x39, 0xbe,
  0x09, 0x11, 0x24, 0xbe, 0x70, 0xb5, 0xf7, 0xbc, 0x6b, 0x60, 0x9d, 0xbd,
  0x00, 0xb0, 0x8d, 0xbb, 0x26, 0x32, 0x2c, 0x3e, 0x00, 0x74, 0x6f, 0xba,
  0x10, 0x64, 0x81, 0x3e, 0xbf, 0x06, 0x15, 0xbc, 0xf7, 0x71, 0xbc, 0xbd,
  0x40, 0x98, 0x7b, 0x3d, 0x5a, 0x09, 0x80, 0x3e, 0xde, 0x5a, 0x89, 0x3e,
  0xf4, 0xb4, 0xef, 0x3d, 0x45, 0xa7, 0x7f, 0xbe, 0xec, 0x3c, 0x76, 0x3e,
  0x88, 0xb2, 0x5e, 0xbe, 0x42, 0xf7, 0x32, 0x3e, 0x78, 0x43, 0x2f, 0xbd,
  0x9b, 0xce, 0x31, 0xbe, 0x00, 0x03, 0xab, 0xbc, 0x7f, 0x5f, 0xb6, 0xbd,
  0xf0, 0x4d, 0x58, 0x3d, 0x9b, 0x6d, 0x08, 0xbe, 0x34, 0xaf, 0x2f, 0x3e,
  0x85, 0x71, 0x87, 0xbd, 0x56, 0x8b, 0x91, 0xbd, 0x7a, 0x0d, 0x55, 0x3e,
  0x14, 0x4f, 0x49, 0x3e, 0x35, 0x9e, 0xc6, 0x3d, 0x4c, 0x72, 0x64, 0x3e,
  0xba, 0x83, 0x8e, 0xbe, 0x64, 0xb0, 0xad, 0xbd, 0xe9, 0xeb, 0x86, 0x3e,
  0xf4, 0x06, 0x55, 0xbe, 0x8e, 0x0f, 0x47, 0xbd, 0x70, 0x36, 0xbb, 0xbc,
  0xc0, 0x59, 0xe2, 0xbc, 0xfa, 0x76, 0x9e, 0xbd, 0xc4, 0x5b, 0xb5, 0xbd,
  0xd4, 0x8e, 0xe9, 0x3d, 0x40, 0x87, 0x70, 0xbc, 0x80, 0xbe, 0x23, 0x3c,
  0x5e, 0xca, 0xef, 0xbd, 0xb4, 0x18, 0x63, 0x3e, 0x68, 0x46, 0x25, 0x3d,
  0x48, 0x30, 0x5f, 0x3e, 0x96, 0x43, 0x02, 0x3e, 0x88, 0x6f, 0x94, 0xbd,
  0x74, 0xcc, 0xaf, 0xbd, 0xea, 0xeb, 0x45, 0x3e, 0x3e, 0x44, 0x89, 0x3e,
  0x90, 0xac, 0x58, 0x3e, 0xc4, 0xdf, 0x05, 0xbe, 0x38, 0xfe, 0xbb, 0xbd,
  0xb4, 0xd9, 0x05, 0x3e, 0xd8, 0xae, 0xc3, 0xbd, 0xce, 0xa9, 0xdb, 0xbd,
  0xb8, 0x4c, 0x2b, 0xbd, 0x1b, 0x9f, 0x81, 0xbe, 0xdc, 0xa9, 0x42, 0xbe,
  0xbd, 0x2b, 0x89, 0x3e, 0x68, 0xf2, 0xf2, 0x3d, 0x47, 0x55, 0x02, 0x3d,
  0xd7, 0x23, 0x86, 0x3e, 0x6e, 0x07, 0x41, 0x3e, 0xe6, 0xef, 0x0a, 0xbe,
  0xea, 0x41, 0x46, 0x3e, 0x23, 0x7e, 0x4f, 0xbe, 0x66, 0x31, 0x04, 0x3e,
  0x56, 0xe1, 0x0c, 0x3e, 0xbd, 0x7d, 0x57, 0x3e, 0xd0, 0xfb, 0xc7, 0xbd,
  0xb1, 0x4e, 0x57, 0xbe, 0x71, 0x86, 0x8d, 0xbe, 0x81, 0x6c, 0x08, 0x3e,
  0x20, 0xfa, 0x83, 0x3c, 0x46, 0x92, 0x58, 0x3e, 0xdc, 0x4b, 0x6d, 0x3e,
  0x70, 0x22, 0x82, 0x3e, 0xa2, 0x0d, 0x6f, 0x3d, 0xfb, 0x9c, 0x38, 0x3e,
  0x24, 0x28, 0x84, 0x3d, 0xdd, 0xcd, 0x18, 0xbe, 0xbe, 0x3e, 0xa7, 0xbd,
  0x79, 0x31, 0x83, 0x3e, 0x7c, 0xcb, 0x3a, 0x3e, 0x7c, 0x78, 0x14, 0x3e,
  0x9e, 0x17, 0x3d, 0xbe, 0x10, 0xc9, 0x80, 0x3e, 0x9c, 0x03, 0x5d, 0x3e,
  0x80, 0xf8, 0x02, 0xbd, 0x90, 0xdf, 0x32, 0x3e, 0x07, 0x5c, 0x90, 0x3e,
  0xb1, 0x47, 0x0e, 0xbe, 0x7c, 0x87, 0x3d, 0x3e, 0x1c, 0xff, 0x90, 0xbe,
  0xe5, 0x16, 0x91, 0x3d, 0x20, 0xae, 0xff, 0x3d, 0xa0, 0x45, 0x3e, 0xbe,
  0x10, 0xdf, 0xec, 0xbd, 0xe5, 0xf6, 0x06, 0x3e, 0x7a, 0x97, 0x5d, 0xbe,
  0x78, 0xcb, 0x7d, 0x3e, 0x96, 0x47, 0xbc, 0x3b, 0x2b, 0x60, 0x86, 0xbd,
  0x2a, 0x1b, 0x8a, 0x3e, 0x04, 0x8b, 0xb4, 0x3d, 0xba, 0xdd, 0x1e, 0xbe,
  0x51, 0xd4, 0x27, 0xbe, 0x18, 0x20, 0x5c, 0x3e, 0xcb, 0xdb, 0x8d, 0xbe,
  0x72, 0x0e, 0x61, 0xbd, 0x25, 0xa3, 0x57, 0xbd, 0x9c, 0xeb, 0x65, 0x3e,
  0x17, 0xd0, 0x43, 0x3e, 0xa8, 0x37, 0x5e, 0x3e, 0x9b, 0xd1, 0x23, 0x3e,
  0x18, 0x88, 0x2c, 0x3d, 0xa6, 0xad, 0x92, 0xbd, 0x6c, 0xaa, 0x29, 0x3e,
  0x03, 0x6d, 0xe1, 0xbc, 0xa4, 0x40, 0x2b, 0x3e, 0x5e, 0xe6, 0x2f, 0x3d,
  0xf5, 0xc8, 0x91, 0xbe, 0xfd, 0x6a, 0x85, 0x3d, 0xc0, 0x2d, 0x77, 0xbe,
  0x55, 0x80, 0xea, 0x3d, 0xeb, 0x8e, 0x8f, 0xbb, 0xaf, 0x7b, 0xfa, 0x3b,
  0x68, 0xbf, 0x5e, 0x3e, 0x16, 0x50, 0x90, 0x3c, 0x04, 0xcf, 0x5e, 0x3e,
  0x00, 0x58, 0x0c, 0x3d, 0x42, 0xc0, 0xaf, 0xbd, 0xd0, 0xff, 0x5c, 0xbe,
  0xd0, 0xaa, 0x8a, 0xbd, 0x70, 0x1d, 0xa6, 0x3c, 0x78, 0xfe, 0x8c, 0x3e,
  0xbc, 0x05, 0x61, 0xbe, 0x00, 0xa6, 0xf1, 0xba, 0xa0, 0x20, 0xb5, 0xbd,
  0x86, 0xd1, 0x1b, 0x3e, 0x33, 0x19, 0x0e, 0xbe, 0xde, 0x93, 0x2c, 0x3e,
  0xc0, 0x33, 0x11, 0x3d, 0x10, 0x18, 0xf9, 0x3c, 0x88, 0x77, 0x00, 0x3e,
  0xf6, 0xfe, 0x06, 0x3e, 0xe8, 0x5a, 0x24, 0xbe, 0x6a, 0xa2, 0x4c, 0x3e,
  0xe0, 0xf7, 0x0f, 0x3e, 0xce, 0x9f, 0x1e, 0xbe, 0x51, 0x3b, 0x5a, 0xbe,
  0x97, 0x1c, 0x0e, 0xbe, 0x26, 0xaf, 0xf2, 0xbd, 0x70, 0x1a, 0x09, 0xbe,
  0x85, 0x36, 0x21, 0x3e, 0x50, 0x62, 0x2e, 0x3e, 0x78, 0x37, 0xa6, 0xbd,
  0x4e, 0x62, 0x29, 0xbd, 0x72, 0xc3, 0x8d, 0xbe, 0x2a, 0x17, 0x42, 0x3e,
  0xb1, 0x75, 0x66, 0xbe, 0x30, 0x6f, 0x71, 0xbe, 0x54, 0x7d, 0x03, 0x3e,
  0x86, 0xce, 0x91, 0x3e, 0x32, 0x14, 0x8a, 0xbd, 0xb0, 0xb0, 0x5e, 0xbd,
  0xaf, 0x29, 0x19, 0xbd, 0x2c, 0xb8, 0x65, 0x3e, 0x33, 0x46, 0x77, 0x3e,
  0xa0, 0x34, 0x93, 0x3e, 0xba, 0x4f, 0x06, 0xbd, 0x40, 0x43, 0x09, 0xbc,
  0x18, 0x79, 0xc2, 0x3d, 0x42, 0x48, 0xc6, 0x3d, 0x12, 0xe0, 0x34, 0xbd,
  0x80, 0xfc, 0x67, 0x3c, 0xef, 0x7b, 0x8d, 0xbd, 0xd4, 0x60, 0x2f, 0xbe,
  0x39, 0x50, 0x69, 0xbe, 0x85, 0xff, 0x6d, 0xbe, 0x56, 0xac, 0x84, 0x3e,
  0x8a, 0x77, 0x56, 0x3b, 0x52, 0x8b, 0x97, 0x3e, 0x82, 0xfb, 0x4e, 0x3e,
  0x2e, 0x52, 0x4e, 0x3e, 0x64, 0x0f, 0x61, 0xbe, 0x1c, 0x4c, 0x04, 0xbe,
  0x18, 0xcd, 0x78, 0x3e, 0x79, 0x82, 0x72, 0xbe, 0xa7, 0x27, 0x92, 0x3e,
  0xae, 0xf8, 0xb1, 0x3d, 0x28, 0xc5, 0x2a, 0x3e, 0x36, 0x88, 0x3d, 0xbe,
  0x3d, 0xa2, 0x8d, 0xbe, 0xb5, 0x0c, 0xfe, 0x3d, 0x94, 0x74, 0x8b, 0x3e,
  0x49, 0x7c, 0x1a, 0xbe, 0xc6, 0xca, 0x9c, 0xbc, 0xc2, 0xfe, 0x4a, 0x3d,
  0x37, 0x38, 0x5d, 0xbe, 0x47, 0x2c, 0x61, 0xbe, 0x99, 0x01, 0x72, 0xbe,
  0xd2, 0xcd, 0xe6, 0xbd, 0x99, 0xee, 0x3c, 0xbe, 0x67, 0xe3, 0x16, 0xbe,
  0x36, 0xc3, 0x4a, 0x3d, 0xfd, 0x73, 0xa9, 0xbd, 0x2c, 0x16, 0x47, 0xbe,
  0xc2, 0xa6, 0x59, 0xbe, 0x58, 0x14, 0x1b, 0x3d, 0x7e, 0x4c, 0x8b, 0x3d,
  0x30, 0xb7, 0xf4, 0x3d, 0xc0, 0xc0, 0xb7, 0x3b, 0xca, 0x43, 0x59, 0xbe,
  0x77, 0x5a, 0x2d, 0xbd, 0x02, 0x02, 0x86, 0xbe, 0x3a, 0x95, 0x08, 0x3e,
  0xc0, 0xd7, 0x06, 0xbc, 0xab, 0x67, 0x0e, 0x3e, 0x6c, 0x7a, 0x1e, 0x3e,
  0x7f, 0x3d, 0x92, 0xbc, 0xa3, 0xde, 0xb4, 0x3d, 0xb1, 0x9e, 0x25, 0x3e,
  0xd7, 0x79, 0x8d, 0xbe, 0xa6, 0x52, 0x66, 0x3e, 0x5b, 0x1b, 0x50, 0xbe,
  0x44, 0x8a, 0x3c, 0xbe, 0x40, 0xba, 0x5e, 0xbc, 0x3a, 0x3b, 0xc1, 0xbd,
  0xf8, 0xf6, 0x11, 0xbd, 0x68, 0x04, 0x98, 0xbd, 0xe1, 0x43, 0x1f, 0xbe,
  0x68, 0xfb, 0xa6, 0xbd, 0xbc, 0x6e, 0x53, 0x3e, 0x50, 0x09, 0x4d, 0xbe,
  0x08, 0x2e, 0x3c, 0x3e, 0x92, 0x6f, 0x7a, 0xbe, 0x04, 0x1f, 0x6a, 0x3e,
  0x44, 0x4c, 0xfb, 0xbd, 0xa2, 0x66, 0x29, 0x3e, 0xbd, 0x5b, 0x82, 0xbe,
  0x6e, 0x84, 0xfc, 0xbd, 0x86, 0x22, 0x24, 0xbe, 0x00, 0x48, 0x87, 0xba,
  0x72, 0xb5, 0x0f, 0x3e, 0x02, 0x0c, 0xd5, 0xbd, 0x6a, 0xf2, 0xfe, 0xbd,
  0x24, 0xad, 0x72, 0x3e, 0xe0, 0xc4, 0xef, 0x3c, 0xe4, 0xce, 0x9f, 0x3d,
  0xcb, 0x12, 0x8c, 0x3e, 0x6a, 0xbc, 0x95, 0xbd, 0x09, 0x4e, 0x33, 0x3e,
  0x3f, 0xff, 0x79, 0xbd, 0x63, 0x20, 0x62, 0x3c, 0x7e, 0xe0, 0xc3, 0xbd,
  0x2a, 0xa2, 0x7e, 0x3c, 0x6c, 0x63, 0x20, 0xbd, 0x50, 0x50, 0x99, 0x3e,
  0x60, 0x29, 0xe6, 0xbd, 0x47, 0xb3, 0x0e, 0xbe, 0xa3, 0x19, 0x3c, 0x3e,
  0x22, 0x58, 0x72, 0xbb, 0x8c, 0xad, 0x31, 0xbe, 0x1a, 0x7a, 0x83, 0xbd,
  0xa4, 0x8f, 0xe6, 0x3d, 0x3e, 0x4c, 0x50, 0x3d, 0x4c, 0x46, 0x01, 0x3e,
  0x3b, 0x23, 0x6f, 0x3e, 0xf7, 0x81, 0x50, 0x3e, 0x9a, 0x1f, 0x75, 0x3d,
  0xa4, 0x4a, 0x19, 0xbe, 0x9e, 0xe7, 0x92, 0x3e, 0x38, 0xa4, 0x17, 0xbe,
  0x1d, 0x87, 0x81, 0xbe, 0x02, 0x48, 0x4b, 0xbe, 0xac, 0xc9, 0xc4, 0x3d,
  0xd2, 0xd2, 0xfa, 0x3c, 0x1f, 0x26, 0x16, 0xbe, 0xb4, 0x75, 0xa3, 0x3d,
  0x66, 0xd2, 0x10, 0xbd, 0x4c, 0xd4, 0x2c, 0xbd, 0x17, 0x17, 0x5a, 0xbc,
  0xd8, 0xf1, 0xef, 0x3d, 0x5a, 0x52, 0x1f, 0xbe, 0x61, 0x90, 0x1f, 0x3e,
  0x58, 0x43, 0x39, 0x3e, 0x7c, 0x16, 0x67, 0xbd, 0x38, 0x1b, 0x90, 0x3d,
  0xe3, 0x2a, 0x8c, 0xbe, 0xc2, 0xc9, 0x1f, 0xbe, 0x5a, 0x4e, 0x90, 0x3e,
  0xf1, 0x82, 0x3f, 0xbe, 0x9c, 0xb7, 0x80, 0x3d, 0xef, 0xf0, 0xef, 0xbd,
  0x4e, 0x56, 0x26, 0x3e, 0x53, 0x60, 0x15, 0xbe, 0x46, 0xff, 0xff, 0xff,
  0x04, 0x00, 0x00, 0x00, 0x60, 0x00, 0x00, 0x00, 0xf1, 0xd4, 0x92, 0x3e,
  0xa6, 0x1b, 0x9f, 0xbe, 0x1a, 0x4b, 0xc9, 0xbe, 0x22, 0xba, 0x84, 0x3e,
  0x62, 0x87, 0xd7, 0x3d, 0xac, 0xdc, 0xe6, 0xbd, 0xdc, 0x37, 0x0a, 0xbe,
  0xc0, 0xcd, 0xdd, 0xbe, 0x76, 0x47, 0xdd, 0xbe, 0x3b, 0x9f, 0x2d, 0x3e,
  0x09, 0xcd, 0xb6, 0xbe, 0x55, 0x9c, 0x61, 0xbe, 0x9f, 0x68, 0xa4, 0xbd,
  0xee, 0xef, 0x72, 0x3e, 0x58, 0x9d, 0x81, 0x3e, 0x11, 0x2f, 0x1c, 0xbd,
  0xaf, 0x84, 0x7d, 0xbe, 0x36, 0x1d, 0x52, 0x3e, 0xe7, 0xb2, 0xd2, 0xbe,
  0x76, 0x7b, 0x3a, 0xbe, 0xe9, 0xaa, 0xe4, 0xbe, 0x82, 0x51, 0xa1, 0x3e,
  0x57, 0xda, 0xd8, 0x3c, 0x10, 0xdd, 0x0b, 0xbd, 0xb2, 0xff, 0xff, 0xff,
  0x04, 0x00, 0x00, 0x00, 0x40, 0x00, 0x00, 0x00, 0x00, 0x00, 0x00, 0x00,
  0x22, 0x70, 0xeb, 0xbb, 0x31, 0x59, 0x33, 0xbc, 0x55, 0x1a, 0x4b, 0xbc,
  0xca, 0xf6, 0xa6, 0xbb, 0x00, 0x00, 0x00, 0x00, 0x3e, 0xfe, 0xd9, 0x3b,
  0xd0, 0x07, 0x36, 0x3b, 0xfd, 0x7e, 0xcd, 0x3b, 0x00, 0x00, 0x00, 0x00,
  0xe4, 0x32, 0x48, 0x3c, 0x2a, 0x18, 0x62, 0x3c, 0xe9, 0xab, 0xb7, 0x3b,
  0x00, 0x00, 0x00, 0x00, 0xe7, 0x19, 0x7c, 0xbb, 0x15, 0x91, 0xb3, 0xbc,
  0x00, 0x00, 0x06, 0x00, 0x08, 0x00, 0x04, 0x00, 0x06, 0x00, 0x00, 0x00,
  0x04, 0x00, 0x00, 0x00, 0x20, 0x00, 0x00, 0x00, 0x00, 0x00, 0x00, 0x00,
  0xcf, 0xf1, 0x17, 0xbc, 0x00, 0x00, 0x00, 0x00, 0x72, 0xcc, 0x54, 0xb9,
  0x53, 0x81, 0x3c, 0xbc, 0x17, 0xbb, 0x68, 0x3c, 0x00, 0x00, 0x00, 0x00,
  0x1a, 0x5b, 0x21, 0x3b, 0xe0, 0xf5, 0xff, 0xff, 0xe4, 0xf5, 0xff, 0xff,
  0x0f, 0x00, 0x00, 0x00, 0x4d, 0x4c, 0x49, 0x52, 0x20, 0x43, 0x6f, 0x6e,
  0x76, 0x65, 0x72, 0x74, 0x65, 0x64, 0x2e, 0x00, 0x01, 0x00, 0x00, 0x00,
  0x14, 0x00, 0x00, 0x00, 0x00, 0x00, 0x0e, 0x00, 0x18, 0x00, 0x14, 0x00,
  0x10, 0x00, 0x0c, 0x00, 0x08, 0x00, 0x04, 0x00, 0x0e, 0x00, 0x00, 0x00,
  0x14, 0x00, 0x00, 0x00, 0x1c, 0x00, 0x00, 0x00, 0x3c, 0x02, 0x00, 0x00,
  0x40, 0x02, 0x00, 0x00, 0x44, 0x02, 0x00, 0x00, 0x04, 0x00, 0x00, 0x00,
  0x6d, 0x61, 0x69, 0x6e, 0x00, 0x00, 0x00, 0x00, 0x08, 0x00, 0x00, 0x00,
  0xd4, 0x01, 0x00, 0x00, 0x70, 0x01, 0x00, 0x00, 0x1c, 0x01, 0x00, 0x00,
  0xd8, 0x00, 0x00, 0x00, 0xb0, 0x00, 0x00, 0x00, 0x60, 0x00, 0x00, 0x00,
  0x28, 0x00, 0x00, 0x00, 0x04, 0x00, 0x00, 0x00, 0x6a, 0xff, 0xff, 0xff,
  0x0c, 0x00, 0x00, 0x00, 0x10, 0x00, 0x00, 0x00, 0x04, 0x00, 0x00, 0x00,
  0x01, 0x00, 0x00, 0x00, 0x11, 0x00, 0x00, 0x00, 0x01, 0x00, 0x00, 0x00,
  0x10, 0x00, 0x00, 0x00, 0xda, 0xfe, 0xff, 0xff, 0x14, 0x00, 0x00, 0x00,
  0x00, 0x00, 0x00, 0x08, 0x10, 0x00, 0x00, 0x00, 0x14, 0x00, 0x00, 0x00,
  0x03, 0x00, 0x00, 0x00, 0x94, 0xf6, 0xff, 0xff, 0x01, 0x00, 0x00, 0x00,
  0x10, 0x00, 0x00, 0x00, 0x03, 0x00, 0x00, 0x00, 0x0f, 0x00, 0x00, 0x00,
  0x09, 0x00, 0x00, 0x00, 0x06, 0x00, 0x00, 0x00, 0x0e, 0xff, 0xff, 0xff,
  0x1c, 0x00, 0x00, 0x00, 0x00, 0x00, 0x00, 0x08, 0x1c, 0x00, 0x00, 0x00,
  0x20, 0x00, 0x00, 0x00, 0x03, 0x00, 0x00, 0x00, 0x00, 0x00, 0x06, 0x00,
  0x08, 0x00, 0x07, 0x00, 0x06, 0x00, 0x00, 0x00, 0x00, 0x00, 0x00, 0x01,
  0x01, 0x00, 0x00, 0x00, 0x0f, 0x00, 0x00, 0x00, 0x03, 0x00, 0x00, 0x00,
  0x0e, 0x00, 0x00, 0x00, 0x08, 0x00, 0x00, 0x00, 0x05, 0x00, 0x00, 0x00,
  0x00, 0x00, 0x0a, 0x00, 0x10, 0x00, 0x0c, 0x00, 0x08, 0x00, 0x04, 0x00,
  0x0a, 0x00, 0x00, 0x00, 0x0c, 0x00, 0x00, 0x00, 0x10, 0x00, 0x00, 0x00,
  0x02, 0x00, 0x00, 0x00, 0x01, 0x00, 0x00, 0x00, 0x0e, 0x00, 0x00, 0x00,
  0x02, 0x00, 0x00, 0x00, 0x0d, 0x00, 0x00, 0x00, 0x07, 0x00, 0x00, 0x00,
  0x7e, 0xff, 0xff, 0xff, 0x14, 0x00, 0x00, 0x00, 0x00, 0x00, 0x00, 0x05,
  0x24, 0x00, 0x00, 0x00, 0x28, 0x00, 0x00, 0x00, 0x01, 0x00, 0x00, 0x00,
  0x6e, 0xff, 0xff, 0xff, 0x02, 0x00, 0x00, 0x00, 0x01, 0x00, 0x00, 0x00,
  0x02, 0x00, 0x00, 0x00, 0x01, 0x00, 0x00, 0x00, 0x00, 0x00, 0x00, 0x01,
  0x01, 0x00, 0x00, 0x00, 0x0d, 0x00, 0x00, 0x00, 0x01, 0x00, 0x00, 0x00,
  0x0c, 0x00, 0x00, 0x00, 0x5e, 0xff, 0xff, 0xff, 0x10, 0x00, 0x00, 0x00,
  0x00, 0x00, 0x00, 0x01, 0x1c, 0x00, 0x00, 0x00, 0x20, 0x00, 0x00, 0x00,
  0x50, 0xff, 0xff, 0xff, 0x00, 0x00, 0x00, 0x01, 0x01, 0x00, 0x00, 0x00,
  0x01, 0x00, 0x00, 0x00, 0x00, 0x00, 0x00, 0x01, 0x01, 0x00, 0x00, 0x00,
  0x0c, 0x00, 0x00, 0x00, 0x03, 0x00, 0x00, 0x00, 0x0b, 0x00, 0x00, 0x00,
  0x04, 0x00, 0x00, 0x00, 0x02, 0x00, 0x00, 0x00, 0x00, 0x00, 0x0e, 0x00,
  0x1a, 0x00, 0x14, 0x00, 0x10, 0x00, 0x0c, 0x00, 0x0b, 0x00, 0x04, 0x00,
  0x0e, 0x00, 0x00, 0x00, 0x24, 0x00, 0x00, 0x00, 0x00, 0x00, 0x00, 0x05,
  0x34, 0x00, 0x00, 0x00, 0x38, 0x00, 0x00, 0x00, 0x01, 0x00, 0x00, 0x00,
  0x00, 0x00, 0x0e, 0x00, 0x18, 0x00, 0x17, 0x00, 0x10, 0x00, 0x0c, 0x00,
  0x08, 0x00, 0x04, 0x00, 0x0e, 0x00, 0x00, 0x00, 0x02, 0x00, 0x00, 0x00,
  0x01, 0x00, 0x00, 0x00, 0x02, 0x00, 0x00, 0x00, 0x01, 0x00, 0x00, 0x00,
  0x00, 0x00, 0x00, 0x01, 0x01, 0x00, 0x00, 0x00, 0x0b, 0x00, 0x00, 0x00,
  0x01, 0x00, 0x00, 0x00, 0x0a, 0x00, 0x00, 0x00, 0x00, 0x00, 0x0e, 0x00,
  0x14, 0x00, 0x00, 0x00, 0x10, 0x00, 0x0c, 0x00, 0x0b, 0x00, 0x04, 0x00,
  0x0e, 0x00, 0x00, 0x00, 0x1c, 0x00, 0x00, 0x00, 0x00, 0x00, 0x00, 0x01,
  0x28, 0x00, 0x00, 0x00, 0x2c, 0x00, 0x00, 0x00, 0x0c, 0x00, 0x14, 0x00,
  0x13, 0x00, 0x0c, 0x00, 0x08, 0x00, 0x07, 0x00, 0x0c, 0x00, 0x00, 0x00,
  0x00, 0x00, 0x00, 0x01, 0x01, 0x00, 0x00, 0x00, 0x01, 0x00, 0x00, 0x00,
  0x00, 0x00, 0x00, 0x01, 0x01, 0x00, 0x00, 0x00, 0x0a, 0x00, 0x00, 0x00,
  0x03, 0x00, 0x00, 0x00, 0x00, 0x00, 0x00, 0x00, 0x03, 0x00, 0x00, 0x00,
  0x01, 0x00, 0x00, 0x00, 0x01, 0x00, 0x00, 0x00, 0x11, 0x00, 0x00, 0x00,
  0x01, 0x00, 0x00, 0x00, 0x00, 0x00, 0x00, 0x00, 0x12, 0x00, 0x00, 0x00,
  0x60, 0x07, 0x00, 0x00, 0xf0, 0x06, 0x00, 0x00, 0x80, 0x06, 0x00, 0x00,
  0x2c, 0x06, 0x00, 0x00, 0xd8, 0x05, 0x00, 0x00, 0x84, 0x05, 0x00, 0x00,
  0x2c, 0x05, 0x00, 0x00, 0xe0, 0x04, 0x00, 0x00, 0x80, 0x04, 0x00, 0x00,
  0x34, 0x04, 0x00, 0x00, 0x70, 0x03, 0x00, 0x00, 0xfc, 0x02, 0x00, 0x00,
  0x30, 0x02, 0x00, 0x00, 0xbc, 0x01, 0x00, 0x00, 0x60, 0x01, 0x00, 0x00,
  0xd8, 0x00, 0x00, 0x00, 0x60, 0x00, 0x00, 0x00, 0x04, 0x00, 0x00, 0x00,
  0xfe, 0xf8, 0xff, 0xff, 0x00, 0x00, 0x00, 0x01, 0x14, 0x00, 0x00, 0x00,
  0x1c, 0x00, 0x00, 0x00, 0x1c, 0x00, 0x00, 0x00, 0x12, 0x00, 0x00, 0x00,
  0x34, 0x00, 0x00, 0x00, 0x02, 0x00, 0x00, 0x00, 0xff, 0xff, 0xff, 0xff,
  0x01, 0x00, 0x00, 0x00, 0xe0, 0xf8, 0xff, 0xff, 0x19, 0x00, 0x00, 0x00,
  0x53, 0x74, 0x61, 0x74, 0x65, 0x66, 0x75, 0x6c, 0x50, 0x61, 0x72, 0x74,
  0x69, 0x74, 0x69, 0x6f, 0x6e, 0x65, 0x64, 0x43, 0x61, 0x6c, 0x6c, 0x3a,
  0x30, 0x00, 0x00, 0x00, 0x02, 0x00, 0x00, 0x00, 0x01, 0x00, 0x00, 0x00,
  0x01, 0x00, 0x00, 0x00, 0x56, 0xf9, 0xff, 0xff, 0x00, 0x00, 0x00, 0x01,
  0x14, 0x00, 0x00, 0x00, 0x1c, 0x00, 0x00, 0x00, 0x1c, 0x00, 0x00, 0x00,
  0x11, 0x00, 0x00, 0x00, 0x50, 0x00, 0x00, 0x00, 0x02, 0x00, 0x00, 0x00,
  0xff, 0xff, 0xff, 0xff, 0x01, 0x00, 0x00, 0x00, 0x38, 0xf9, 0xff, 0xff,
  0x34, 0x00, 0x00, 0x00, 0x73, 0x65, 0x71, 0x75, 0x65, 0x6e, 0x74, 0x69,
  0x61, 0x6c, 0x2f, 0x64, 0x65, 0x6e, 0x73, 0x65, 0x5f, 0x31, 0x2f, 0x4d,
  0x61, 0x74, 0x4d, 0x75, 0x6c, 0x3b, 0x73, 0x65, 0x71, 0x75, 0x65, 0x6e,
  0x74, 0x69, 0x61, 0x6c, 0x2f, 0x64, 0x65, 0x6e, 0x73, 0x65, 0x5f, 0x31,
  0x2f, 0x42, 0x69, 0x61, 0x73, 0x41, 0x64, 0x64, 0x00, 0x00, 0x00, 0x00,
  0x02, 0x00, 0x00, 0x00, 0x01, 0x00, 0x00, 0x00, 0x01, 0x00, 0x00, 0x00,
  0xca, 0xf9, 0xff, 0xff, 0x00, 0x00, 0x00, 0x01, 0x14, 0x00, 0x00, 0x00,
  0x1c, 0x00, 0x00, 0x00, 0x1c, 0x00, 0x00, 0x00, 0x10, 0x00, 0x00, 0x00,
  0x60, 0x00, 0x00, 0x00, 0x02, 0x00, 0x00, 0x00, 0xff, 0xff, 0xff, 0xff,
  0x08, 0x00, 0x00, 0x00, 0xac, 0xf9, 0xff, 0xff, 0x46, 0x00, 0x00, 0x00,
  0x73, 0x65, 0x71, 0x75, 0x65, 0x6e, 0x74, 0x69, 0x61, 0x6c, 0x2f, 0x64,
  0x65, 0x6e, 0x73, 0x65, 0x2f, 0x4d, 0x61, 0x74, 0x4d, 0x75, 0x6c, 0x3b,
  0x73, 0x65, 0x71, 0x75, 0x65, 0x6e, 0x74, 0x69, 0x61, 0x6c, 0x2f, 0x64,
  0x65, 0x6e, 0x73, 0x65, 0x2f, 0x52, 0x65, 0x6c, 0x75, 0x3b, 0x73, 0x65,
  0x71, 0x75, 0x65, 0x6e, 0x74, 0x69, 0x61, 0x6c, 0x2f, 0x64, 0x65, 0x6e,
  0x73, 0x65, 0x2f, 0x42, 0x69, 0x61, 0x73, 0x41, 0x64, 0x64, 0x00, 0x00,
  0x02, 0x00, 0x00, 0x00, 0x01, 0x00, 0x00, 0x00, 0x08, 0x00, 0x00, 0x00,
  0x4e, 0xfa, 0xff, 0xff, 0x00, 0x00, 0x00, 0x01, 0x14, 0x00, 0x00, 0x00,
  0x1c, 0x00, 0x00, 0x00, 0x1c, 0x00, 0x00, 0x00, 0x0f, 0x00, 0x00, 0x00,
  0x34, 0x00, 0x00, 0x00, 0x02, 0x00, 0x00, 0x00, 0xff, 0xff, 0xff, 0xff,
  0x60, 0x00, 0x00, 0x00, 0x30, 0xfa, 0xff, 0xff, 0x1a, 0x00, 0x00, 0x00,
  0x73, 0x65, 0x71, 0x75, 0x65, 0x6e, 0x74, 0x69, 0x61, 0x6c, 0x2f, 0x66,
  0x6c, 0x61, 0x74, 0x74, 0x65, 0x6e, 0x2f, 0x52, 0x65, 0x73, 0x68, 0x61,
  0x70, 0x65, 0x00, 0x00, 0x02, 0x00, 0x00, 0x00, 0x01, 0x00, 0x00, 0x00,
  0x60, 0x00, 0x00, 0x00, 0xa6, 0xfa, 0xff, 0xff, 0x00, 0x00, 0x00, 0x01,
  0x14, 0x00, 0x00, 0x00, 0x24, 0x00, 0x00, 0x00, 0x24, 0x00, 0x00, 0x00,
  0x0e, 0x00, 0x00, 0x00, 0x44, 0x00, 0x00, 0x00, 0x04, 0x00, 0x00, 0x00,
  0xff, 0xff, 0xff, 0xff, 0x06, 0x00, 0x00, 0x00, 0x01, 0x00, 0x00, 0x00,
  0x10, 0x00, 0x00, 0x00, 0x90, 0xfa, 0xff, 0xff, 0x22, 0x00, 0x00, 0x00,
  0x73, 0x65, 0x71, 0x75, 0x65, 0x6e, 0x74, 0x69, 0x61, 0x6c, 0x2f, 0x6d,
  0x61, 0x78, 0x5f, 0x70, 0x6f, 0x6f, 0x6c, 0x69, 0x6e, 0x67, 0x32, 0x64,
  0x5f, 0x31, 0x2f, 0x4d, 0x61, 0x78, 0x50, 0x6f, 0x6f, 0x6c, 0x00, 0x00,
  0x04, 0x00, 0x00, 0x00, 0x01, 0x00, 0x00, 0x00, 0x06, 0x00, 0x00, 0x00,
  0x01, 0x00, 0x00, 0x00, 0x10, 0x00, 0x00, 0x00, 0x16, 0xfb, 0xff, 0xff,
  0x00, 0x00, 0x00, 0x01, 0x14, 0x00, 0x00, 0x00, 0x24, 0x00, 0x00, 0x00,
  0x24, 0x00, 0x00, 0x00, 0x0d, 0x00, 0x00, 0x00, 0x9c, 0x00, 0x00, 0x00,
  0x04, 0x00, 0x00, 0x00, 0xff, 0xff, 0xff, 0xff, 0x0c, 0x00, 0x00, 0x00,
  0x01, 0x00, 0x00, 0x00, 0x10, 0x00, 0x00, 0x00, 0x00, 0xfb, 0xff, 0xff,
  0x7a, 0x00, 0x00, 0x00, 0x73, 0x65, 0x71, 0x75, 0x65, 0x6e, 0x74, 0x69,
  0x61, 0x6c, 0x2f, 0x63, 0x6f, 0x6e, 0x76, 0x32, 0x64, 0x5f, 0x31, 0x2f,
  0x52, 0x65, 0x6c, 0x75, 0x3b, 0x73, 0x65, 0x71, 0x75, 0x65, 0x6e, 0x74,
  0x69, 0x61, 0x6c, 0x2f, 0x63, 0x6f, 0x6e, 0x76, 0x32, 0x64, 0x5f, 0x31,
  0x2f, 0x42, 0x69, 0x61, 0x73, 0x41, 0x64, 0x64, 0x3b, 0x73, 0x65, 0x71,
  0x75, 0x65, 0x6e, 0x74, 0x69, 0x61, 0x6c, 0x2f, 0x63, 0x6f, 0x6e, 0x76,
  0x32, 0x64, 0x5f, 0x31, 0x2f, 0x43, 0x6f, 0x6e, 0x76, 0x32, 0x44, 0x3b,
  0x73, 0x65, 0x71, 0x75, 0x65, 0x6e, 0x74, 0x69, 0x61, 0x6c, 0x2f, 0x63,
  0x6f, 0x6e, 0x76, 0x32, 0x64, 0x5f, 0x31, 0x2f, 0x42, 0x69, 0x61, 0x73,
  0x41, 0x64, 0x64, 0x2f, 0x52, 0x65, 0x61, 0x64, 0x56, 0x61, 0x72, 0x69,
  0x61, 0x62, 0x6c, 0x65, 0x4f, 0x70, 0x00, 0x00, 0x04, 0x00, 0x00, 0x00,
  0x01, 0x00, 0x00, 0x00, 0x0c, 0x00, 0x00, 0x00, 0x01, 0x00, 0x00, 0x00,
  0x10, 0x00, 0x00, 0x00, 0xde, 0xfb, 0xff, 0xff, 0x00, 0x00, 0x00, 0x01,
  0x14, 0x00, 0x00, 0x00, 0x24, 0x00, 0x00, 0x00, 0x24, 0x00, 0x00, 0x00,
  0x0c, 0x00, 0x00, 0x00, 0x44, 0x00, 0x00, 0x00, 0x04, 0x00, 0x00, 0x00,
  0xff, 0xff, 0xff, 0xff, 0x0e, 0x00, 0x00, 0x00, 0x01, 0x00, 0x00, 0x00,
  0x08, 0x00, 0x00, 0x00, 0xc8, 0xfb, 0xff, 0xff, 0x20, 0x00, 0x00, 0x00,
  0x73, 0x65, 0x71, 0x75, 0x65, 0x6e, 0x74, 0x69, 0x61, 0x6c, 0x2f, 0x6d,
  0x61, 0x78, 0x5f, 0x70, 0x6f, 0x6f, 0x6c, 0x69, 0x6e, 0x67, 0x32, 0x64,
  0x2f, 0x4d, 0x61, 0x78, 0x50, 0x6f, 0x6f, 0x6c, 0x00, 0x00, 0x00, 0x00,
  0x04, 0x00, 0x00, 0x00, 0x01, 0x00, 0x00, 0x00, 0x0e, 0x00, 0x00, 0x00,
  0x01, 0x00, 0x00, 0x00, 0x08, 0x00, 0x00, 0x00, 0x4e, 0xfc, 0xff, 0xff,
  0x00, 0x00, 0x00, 0x01, 0x14, 0x00, 0x00, 0x00, 0x24, 0x00, 0x00, 0x00,
  0x24, 0x00, 0x00, 0x00, 0x0b, 0x00, 0x00, 0x00, 0x94, 0x00, 0x00, 0x00,
  0x04, 0x00, 0x00, 0x00, 0xff, 0xff, 0xff, 0xff, 0x1c, 0x00, 0x00, 0x00,
  0x01, 0x00, 0x00, 0x00, 0x08, 0x00, 0x00, 0x00, 0x38, 0xfc, 0xff, 0xff,
  0x72, 0x00, 0x00, 0x00, 0x73, 0x65, 0x71, 0x75, 0x65, 0x6e, 0x74, 0x69,
  0x61, 0x6c, 0x2f, 0x63, 0x6f, 0x6e, 0x76, 0x32, 0x64, 0x2f, 0x52, 0x65,
  0x6c, 0x75, 0x3b, 0x73, 0x65, 0x71, 0x75, 0x65, 0x6e, 0x74, 0x69, 0x61,
  0x6c, 0x2f, 0x63, 0x6f, 0x6e, 0x76, 0x32, 0x64, 0x2f, 0x42, 0x69, 0x61,
  0x73, 0x41, 0x64, 0x64, 0x3b, 0x73, 0x65, 0x71, 0x75, 0x65, 0x6e, 0x74,
  0x69, 0x61, 0x6c, 0x2f, 0x63, 0x6f, 0x6e, 0x76, 0x32, 0x64, 0x2f, 0x43,
  0x6f, 0x6e, 0x76, 0x32, 0x44, 0x3b, 0x73, 0x65, 0x71, 0x75, 0x65, 0x6e,
  0x74, 0x69, 0x61, 0x6c, 0x2f, 0x63, 0x6f, 0x6e, 0x76, 0x32, 0x64, 0x2f,
  0x42, 0x69, 0x61, 0x73, 0x41, 0x64, 0x64, 0x2f, 0x52, 0x65, 0x61, 0x64,
  0x56, 0x61, 0x72, 0x69, 0x61, 0x62, 0x6c, 0x65, 0x4f, 0x70, 0x00, 0x00,
  0x04, 0x00, 0x00, 0x00, 0x01, 0x00, 0x00, 0x00, 0x1c, 0x00, 0x00, 0x00,
  0x01, 0x00, 0x00, 0x00, 0x08, 0x00, 0x00, 0x00, 0x7a, 0xfd, 0xff, 0xff,
  0x00, 0x00, 0x00, 0x01, 0x10, 0x00, 0x00, 0x00, 0x10, 0x00, 0x00, 0x00,
  0x0a, 0x00, 0x00, 0x00, 0x28, 0x00, 0x00, 0x00, 0xe0, 0xfc, 0xff, 0xff,
  0x19, 0x00, 0x00, 0x00, 0x73, 0x65, 0x71, 0x75, 0x65, 0x6e, 0x74, 0x69,
  0x61, 0x6c, 0x2f, 0x64, 0x65, 0x6e, 0x73, 0x65, 0x5f, 0x31, 0x2f, 0x4d,
  0x61, 0x74, 0x4d, 0x75, 0x6c, 0x00, 0x00, 0x00, 0x02, 0x00, 0x00, 0x00,
  0x01, 0x00, 0x00, 0x00, 0x08, 0x00, 0x00, 0x00, 0xc2, 0xfd, 0xff, 0xff,
  0x00, 0x00, 0x00, 0x01, 0x10, 0x00, 0x00, 0x00, 0x10, 0x00, 0x00, 0x00,
  0x09, 0x00, 0x00, 0x00, 0x24, 0x00, 0x00, 0x00, 0x28, 0xfd, 0xff, 0xff,
  0x17, 0x00, 0x00, 0x00, 0x73, 0x65, 0x71, 0x75, 0x65, 0x6e, 0x74, 0x69,
  0x61, 0x6c, 0x2f, 0x64, 0x65, 0x6e, 0x73, 0x65, 0x2f, 0x4d, 0x61, 0x74,
  0x4d, 0x75, 0x6c, 0x00, 0x02, 0x00, 0x00, 0x00, 0x08, 0x00, 0x00, 0x00,
  0x60, 0x00, 0x00, 0x00, 0x00, 0x00, 0x16, 0x00, 0x1c, 0x00, 0x18, 0x00,
  0x17, 0x00, 0x10, 0x00, 0x0c, 0x00, 0x08, 0x00, 0x00, 0x00, 0x00, 0x00,
  0x00, 0x00, 0x07, 0x00, 0x16, 0x00, 0x00, 0x00, 0x00, 0x00, 0x00, 0x01,
  0x14, 0x00, 0x00, 0x00, 0x14, 0x00, 0x00, 0x00, 0x08, 0x00, 0x00, 0x00,
  0x00, 0x00, 0x00, 0x02, 0x28, 0x00, 0x00, 0x00, 0x88, 0xfd, 0xff, 0xff,
  0x18, 0x00, 0x00, 0x00, 0x73, 0x65, 0x71, 0x75, 0x65, 0x6e, 0x74, 0x69,
  0x61, 0x6c, 0x2f, 0x66, 0x6c, 0x61, 0x74, 0x74, 0x65, 0x6e, 0x2f, 0x43,
  0x6f, 0x6e, 0x73, 0x74, 0x00, 0x00, 0x00, 0x00, 0x01, 0x00, 0x00, 0x00,
  0x02, 0x00, 0x00, 0x00, 0x66, 0xfe, 0xff, 0xff, 0x00, 0x00, 0x00, 0x01,
  0x10, 0x00, 0x00, 0x00, 0x10, 0x00, 0x00, 0x00, 0x07, 0x00, 0x00, 0x00,
  0x38, 0x00, 0x00, 0x00, 0xcc, 0xfd, 0xff, 0xff, 0x29, 0x00, 0x00, 0x00,
  0x73, 0x65, 0x71, 0x75, 0x65, 0x6e, 0x74, 0x69, 0x61, 0x6c, 0x2f, 0x64,
  0x65, 0x6e, 0x73, 0x65, 0x5f, 0x31, 0x2f, 0x42, 0x69, 0x61, 0x73, 0x41,
  0x64, 0x64, 0x2f, 0x52, 0x65, 0x61, 0x64, 0x56, 0x61, 0x72, 0x69, 0x61,
  0x62, 0x6c, 0x65, 0x4f, 0x70, 0x00, 0x00, 0x00, 0x01, 0x00, 0x00, 0x00,
  0x01, 0x00, 0x00, 0x00, 0xba, 0xfe, 0xff, 0xff, 0x00, 0x00, 0x00, 0x01,
  0x10, 0x00, 0x00, 0x00, 0x10, 0x00, 0x00, 0x00, 0x06, 0x00, 0x00, 0x00,
  0x34, 0x00, 0x00, 0x00, 0x20, 0xfe, 0xff, 0xff, 0x27, 0x00, 0x00, 0x00,
  0x73, 0x65, 0x71, 0x75, 0x65, 0x6e, 0x74, 0x69, 0x61, 0x6c, 0x2f, 0x64,
  0x65, 0x6e, 0x73, 0x65, 0x2f, 0x42, 0x69, 0x61, 0x73, 0x41, 0x64, 0x64,
  0x2f, 0x52, 0x65, 0x61, 0x64, 0x56, 0x61, 0x72, 0x69, 0x61, 0x62, 0x6c,
  0x65, 0x4f, 0x70, 0x00, 0x01, 0x00, 0x00, 0x00, 0x08, 0x00, 0x00, 0x00,
  0x0a, 0xff, 0xff, 0xff, 0x00, 0x00, 0x00, 0x01, 0x10, 0x00, 0x00, 0x00,
  0x10, 0x00, 0x00, 0x00, 0x05, 0x00, 0x00, 0x00, 0x28, 0x00, 0x00, 0x00,
  0x70, 0xfe, 0xff, 0xff, 0x1a, 0x00, 0x00, 0x00, 0x73, 0x65, 0x71, 0x75,
  0x65, 0x6e, 0x74, 0x69, 0x61, 0x6c, 0x2f, 0x63, 0x6f, 0x6e, 0x76, 0x32,
  0x64, 0x5f, 0x31, 0x2f, 0x43, 0x6f, 0x6e, 0x76, 0x32, 0x44, 0x00, 0x00,
  0x04, 0x00, 0x00, 0x00, 0x10, 0x00, 0x00, 0x00, 0x03, 0x00, 0x00, 0x00,
  0x01, 0x00, 0x00, 0x00, 0x08, 0x00, 0x00, 0x00, 0x5a, 0xff, 0xff, 0xff,
  0x00, 0x00, 0x00, 0x01, 0x10, 0x00, 0x00, 0x00, 0x10, 0x00, 0x00, 0x00,
  0x04, 0x00, 0x00, 0x00, 0x28, 0x00, 0x00, 0x00, 0xc0, 0xfe, 0xff, 0xff,
  0x18, 0x00, 0x00, 0x00, 0x73, 0x65, 0x71, 0x75, 0x65, 0x6e, 0x74, 0x69,
  0x61, 0x6c, 0x2f, 0x63, 0x6f, 0x6e, 0x76, 0x32, 0x64, 0x2f, 0x43, 0x6f,
  0x6e, 0x76, 0x32, 0x44, 0x00, 0x00, 0x00, 0x00, 0x04, 0x00, 0x00, 0x00,
  0x08, 0x00, 0x00, 0x00, 0x03, 0x00, 0x00, 0x00, 0x01, 0x00, 0x00, 0x00,
  0x01, 0x00, 0x00, 0x00, 0xaa, 0xff, 0xff, 0xff, 0x00, 0x00, 0x00, 0x01,
  0x10, 0x00, 0x00, 0x00, 0x10, 0x00, 0x00, 0x00, 0x03, 0x00, 0x00, 0x00,
  0x38, 0x00, 0x00, 0x00, 0x10, 0xff, 0xff, 0xff, 0x2a, 0x00, 0x00, 0x00,
  0x73, 0x65, 0x71, 0x75, 0x65, 0x6e, 0x74, 0x69, 0x61, 0x6c, 0x2f, 0x63,
  0x6f, 0x6e, 0x76, 0x32, 0x64, 0x5f, 0x31, 0x2f, 0x42, 0x69, 0x61, 0x73,
  0x41, 0x64, 0x64, 0x2f, 0x52, 0x65, 0x61, 0x64, 0x56, 0x61, 0x72, 0x69,
  0x61, 0x62, 0x6c, 0x65, 0x4f, 0x70, 0x00, 0x00, 0x01, 0x00, 0x00, 0x00,
  0x10, 0x00, 0x00, 0x00, 0x00, 0x00, 0x16, 0x00, 0x18, 0x00, 0x14, 0x00,
  0x00, 0x00, 0x10, 0x00, 0x0c, 0x00, 0x08, 0x00, 0x00, 0x00, 0x00, 0x00,
  0x00, 0x00, 0x07, 0x00, 0x16, 0x00, 0x00, 0x00, 0x00, 0x00, 0x00, 0x01,
  0x10, 0x00, 0x00, 0x00, 0x10, 0x00, 0x00, 0x00, 0x02, 0x00, 0x00, 0x00,
  0x38, 0x00, 0x00, 0x00, 0x7c, 0xff, 0xff, 0xff, 0x28, 0x00, 0x00, 0x00,
  0x73, 0x65, 0x71, 0x75, 0x65, 0x6e, 0x74, 0x69, 0x61, 0x6c, 0x2f, 0x63,
  0x6f, 0x6e, 0x76, 0x32, 0x64, 0x2f, 0x42, 0x69, 0x61, 0x73, 0x41, 0x64,
  0x64, 0x2f, 0x52, 0x65, 0x61, 0x64, 0x56, 0x61, 0x72, 0x69, 0x61, 0x62,
  0x6c, 0x65, 0x4f, 0x70, 0x00, 0x00, 0x00, 0x00, 0x01, 0x00, 0x00, 0x00,
  0x08, 0x00, 0x00, 0x00, 0x00, 0x00, 0x16, 0x00, 0x1c, 0x00, 0x18, 0x00,
  0x00, 0x00, 0x14, 0x00, 0x10, 0x00, 0x0c, 0x00, 0x00, 0x00, 0x00, 0x00,
  0x08, 0x00, 0x07, 0x00, 0x16, 0x00, 0x00, 0x00, 0x00, 0x00, 0x00, 0x01,
  0x14, 0x00, 0x00, 0x00, 0x28, 0x00, 0x00, 0x00, 0x28, 0x00, 0x00, 0x00,
  0x01, 0x00, 0x00, 0x00, 0x44, 0x00, 0x00, 0x00, 0x04, 0x00, 0x00, 0x00,
  0xff, 0xff, 0xff, 0xff, 0x1e, 0x00, 0x00, 0x00, 0x01, 0x00, 0x00, 0x00,
  0x01, 0x00, 0x00, 0x00, 0x04, 0x00, 0x04, 0x00, 0x04, 0x00, 0x00, 0x00,
  0x1e, 0x00, 0x00, 0x00, 0x73, 0x65, 0x72, 0x76, 0x69, 0x6e, 0x67, 0x5f,
  0x64, 0x65, 0x66, 0x61, 0x75, 0x6c, 0x74, 0x5f, 0x63, 0x6f, 0x6e, 0x76,
  0x32, 0x64, 0x5f, 0x69, 0x6e, 0x70, 0x75, 0x74, 0x3a, 0x30, 0x00, 0x00,
  0x04, 0x00, 0x00, 0x00, 0x01, 0x00, 0x00, 0x00, 0x1e, 0x00, 0x00, 0x00,
  0x01, 0x00, 0x00, 0x00, 0x01, 0x00, 0x00, 0x00, 0x05, 0x00, 0x00, 0x00,
  0x50, 0x00, 0x00, 0x00, 0x34, 0x00, 0x00, 0x00, 0x24, 0x00, 0x00, 0x00,
  0x14, 0x00, 0x00, 0x00, 0x04, 0x00, 0x00, 0x00, 0xd0, 0xff, 0xff, 0xff,
  0x0e, 0x00, 0x00, 0x00, 0x00, 0x00, 0x00, 0x0e, 0xdc, 0xff, 0xff, 0xff,
  0x09, 0x00, 0x00, 0x00, 0x00, 0x00, 0x00, 0x09, 0xe8, 0xff, 0xff, 0xff,
  0x16, 0x00, 0x00, 0x00, 0x00, 0x00, 0x00, 0x16, 0xf4, 0xff, 0xff, 0xff,
  0x11, 0x00, 0x00, 0x00, 0x00, 0x00, 0x00, 0x11, 0x0c, 0x00, 0x0c, 0x00,
  0x0b, 0x00, 0x00, 0x00, 0x00, 0x00, 0x04, 0x00, 0x0c, 0x00, 0x00, 0x00,
  0x03, 0x00, 0x00, 0x00, 0x00, 0x00, 0x00, 0x03
};
unsigned int model_tflite_2_len = 8252;
