unsigned char model_tflite[] = {
  0x1c, 0x00, 0x00, 0x00, 0x54, 0x46, 0x4c, 0x33, 0x14, 0x00, 0x20, 0x00,
  0x1c, 0x00, 0x18, 0x00, 0x14, 0x00, 0x10, 0x00, 0x0c, 0x00, 0x00, 0x00,
  0x08, 0x00, 0x04, 0x00, 0x14, 0x00, 0x00, 0x00, 0x1c, 0x00, 0x00, 0x00,
  0x88, 0x00, 0x00, 0x00, 0xe0, 0x00, 0x00, 0x00, 0x58, 0x15, 0x00, 0x00,
  0x68, 0x15, 0x00, 0x00, 0xa8, 0x1f, 0x00, 0x00, 0x03, 0x00, 0x00, 0x00,
  0x01, 0x00, 0x00, 0x00, 0x04, 0x00, 0x00, 0x00, 0xb6, 0xe9, 0xff, 0xff,
  0x0c, 0x00, 0x00, 0x00, 0x1c, 0x00, 0x00, 0x00, 0x38, 0x00, 0x00, 0x00,
  0x0f, 0x00, 0x00, 0x00, 0x73, 0x65, 0x72, 0x76, 0x69, 0x6e, 0x67, 0x5f,
  0x64, 0x65, 0x66, 0x61, 0x75, 0x6c, 0x74, 0x00, 0x01, 0x00, 0x00, 0x00,
  0x04, 0x00, 0x00, 0x00, 0x94, 0xff, 0xff, 0xff, 0x11, 0x00, 0x00, 0x00,
  0x04, 0x00, 0x00, 0x00, 0x07, 0x00, 0x00, 0x00, 0x64, 0x65, 0x6e, 0x73,
  0x65, 0x5f, 0x31, 0x00, 0x01, 0x00, 0x00, 0x00, 0x04, 0x00, 0x00, 0x00,
  0x46, 0xeb, 0xff, 0xff, 0x04, 0x00, 0x00, 0x00, 0x0c, 0x00, 0x00, 0x00,
  0x63, 0x6f, 0x6e, 0x76, 0x32, 0x64, 0x5f, 0x69, 0x6e, 0x70, 0x75, 0x74,
  0x00, 0x00, 0x00, 0x00, 0x02, 0x00, 0x00, 0x00, 0x34, 0x00, 0x00, 0x00,
  0x04, 0x00, 0x00, 0x00, 0xdc, 0xff, 0xff, 0xff, 0x14, 0x00, 0x00, 0x00,
  0x04, 0x00, 0x00, 0x00, 0x13, 0x00, 0x00, 0x00, 0x43, 0x4f, 0x4e, 0x56,
  0x45, 0x52, 0x53, 0x49, 0x4f, 0x4e, 0x5f, 0x4d, 0x45, 0x54, 0x41, 0x44,
  0x41, 0x54, 0x41, 0x00, 0x08, 0x00, 0x0c, 0x00, 0x08, 0x00, 0x04, 0x00,
  0x08, 0x00, 0x00, 0x00, 0x13, 0x00, 0x00, 0x00, 0x04, 0x00, 0x00, 0x00,
  0x13, 0x00, 0x00, 0x00, 0x6d, 0x69, 0x6e, 0x5f, 0x72, 0x75, 0x6e, 0x74,
  0x69, 0x6d, 0x65, 0x5f, 0x76, 0x65, 0x72, 0x73, 0x69, 0x6f, 0x6e, 0x00,
  0x15, 0x00, 0x00, 0x00, 0x74, 0x14, 0x00, 0x00, 0x6c, 0x14, 0x00, 0x00,
  0x3c, 0x14, 0x00, 0x00, 0xe4, 0x13, 0x00, 0x00, 0x74, 0x13, 0x00, 0x00,
  0x64, 0x0d, 0x00, 0x00, 0x34, 0x0d, 0x00, 0x00, 0x20, 0x0d, 0x00, 0x00,
  0x08, 0x0d, 0x00, 0x00, 0xf8, 0x00, 0x00, 0x00, 0xc8, 0x00, 0x00, 0x00,
  0xc0, 0x00, 0x00, 0x00, 0xb8, 0x00, 0x00, 0x00, 0xb0, 0x00, 0x00, 0x00,
  0xa8, 0x00, 0x00, 0x00, 0xa0, 0x00, 0x00, 0x00, 0x98, 0x00, 0x00, 0x00,
  0x90, 0x00, 0x00, 0x00, 0x88, 0x00, 0x00, 0x00, 0x68, 0x00, 0x00, 0x00,
  0x04, 0x00, 0x00, 0x00, 0x16, 0xec, 0xff, 0xff, 0x04, 0x00, 0x00, 0x00,
  0x54, 0x00, 0x00, 0x00, 0x0c, 0x00, 0x00, 0x00, 0x08, 0x00, 0x0e, 0x00,
  0x08, 0x00, 0x04, 0x00, 0x08, 0x00, 0x00, 0x00, 0x10, 0x00, 0x00, 0x00,
  0x24, 0x00, 0x00, 0x00, 0x00, 0x00, 0x06, 0x00, 0x08, 0x00, 0x04, 0x00,
  0x06, 0x00, 0x00, 0x00, 0x04, 0x00, 0x00, 0x00, 0x00, 0x00, 0x00, 0x00,
  0x00, 0x00, 0x0a, 0x00, 0x10, 0x00, 0x0c, 0x00, 0x08, 0x00, 0x04, 0x00,
  0x0a, 0x00, 0x00, 0x00, 0x02, 0x00, 0x00, 0x00, 0x02, 0x00, 0x00, 0x00,
  0x04, 0x00, 0x00, 0x00, 0x06, 0x00, 0x00, 0x00, 0x32, 0x2e, 0x31, 0x32,
  0x2e, 0x30, 0x00, 0x00, 0x76, 0xec, 0xff, 0xff, 0x04, 0x00, 0x00, 0x00,
  0x10, 0x00, 0x00, 0x00, 0x31, 0x2e, 0x31, 0x34, 0x2e, 0x30, 0x00, 0x00,
  0x00, 0x00, 0x00, 0x00, 0x00, 0x00, 0x00, 0x00, 0x40, 0xe2, 0xff, 0xff,
  0x44, 0xe2, 0xff, 0xff, 0x48, 0xe2, 0xff, 0xff, 0x4c, 0xe2, 0xff, 0xff,
  0x50, 0xe2, 0xff, 0xff, 0x54, 0xe2, 0xff, 0xff, 0x58, 0xe2, 0xff, 0xff,
  0x5c, 0xe2, 0xff, 0xff, 0xb2, 0xec, 0xff, 0xff, 0x04, 0x00, 0x00, 0x00,
  0x20, 0x00, 0x00, 0x00, 0x79, 0xfe, 0xc7, 0xbe, 0x10, 0x06, 0xbe, 0xbd,
  0xd4, 0xdd, 0xb3, 0xbe, 0x63, 0x02, 0x10, 0xbf, 0x9c, 0x35, 0x3c, 0xbf,
  0xb0, 0x8f, 0x3d, 0x3d, 0x09, 0x92, 0xf8, 0xbe, 0x6e, 0x43, 0x1e, 0xbf,
  0xde, 0xec, 0xff, 0xff, 0x04, 0x00, 0x00, 0x00, 0x00, 0x0c, 0x00, 0x00,
  0x8c, 0x48, 0x86, 0x3d, 0x62, 0xa8, 0x57, 0x3e, 0x68, 0x4d, 0x62, 0xbe,
  0x34, 0xc3, 0x06, 0xbe, 0x20, 0x3e, 0x34, 0x3d, 0xf8, 0x71, 0xcb, 0x3d,
  0xf6, 0x82, 0x42, 0x3e, 0xc0, 0x1d, 0xed, 0xbc, 0x00, 0x76, 0x22, 0xba,
  0xc0, 0x24, 0x22, 0x3d, 0x00, 0xc0, 0x4c, 0xba, 0x90, 0xd1, 0x28, 0x3e,
  0x62, 0xc1, 0x1b, 0xbe, 0x58, 0x2c, 0x0f, 0x3e, 0xb8, 0x24, 0xfe, 0x3d,
  0x6c, 0x42, 0x2b, 0xbe, 0x99, 0x43, 0x18, 0xbe, 0x4a, 0xd1, 0xb5, 0xbd,
  0x20, 0x41, 0x53, 0x3e, 0x00, 0x45, 0xba, 0x3d, 0xb0, 0x61, 0x6f, 0xbc,
  0x28, 0xc1, 0xa4, 0xbd, 0x3e, 0x9f, 0x23, 0xbe, 0x1c, 0x71, 0x4c, 0xbe,
  0x70, 0x79, 0x4a, 0x3d, 0x0c, 0x2d, 0xed, 0x3d, 0x8e, 0x86, 0x13, 0x3e,
  0x00, 0x2d, 0x1b, 0x3e, 0xb0, 0xff, 0xe4, 0xbd, 0x20, 0x4a, 0x23, 0xbe,
  0x60, 0x40, 0xca, 0x3b, 0x66, 0xa5, 0x20, 0xbe, 0xf8, 0x69, 0x53, 0xbd,
  0x18, 0x72, 0x1b, 0x3d, 0xa8, 0x51, 0x8a, 0x3d, 0xa8, 0x8d, 0x6a, 0x3e,
  0xb0, 0xa4, 0x9a, 0x3d, 0x84, 0xf1, 0x75, 0xbe, 0x30, 0x5d, 0xc7, 0xbd,
  0x48, 0x52, 0x12, 0xbe, 0x38, 0x26, 0x06, 0x3e, 0x86, 0x5e, 0x54, 0x3e,
  0x66, 0xba, 0x47, 0x3e, 0xa0, 0x5d, 0x40, 0xbe, 0x2e, 0x37, 0x3e, 0xbe,
  0x5c, 0x99, 0xb7, 0x3d, 0x6a, 0xf4, 0x4f, 0x3e, 0xb1, 0x3e, 0x01, 0xbe,
  0x8b, 0x27, 0x6d, 0xbe, 0xf1, 0x76, 0xf7, 0xbd, 0x06, 0xd1, 0x8f, 0xbd,
  0xba, 0x55, 0x23, 0x3e, 0xb0, 0xb2, 0x17, 0x3e, 0xe4, 0x9f, 0xdc, 0x3d,
  0x64, 0x20, 0xfc, 0x3d, 0x74, 0x91, 0x10, 0x3e, 0x90, 0xcb, 0x0b, 0x3d,
  0x70, 0x29, 0x7a, 0xbd, 0x60, 0xc7, 0xa0, 0x3d, 0xa0, 0x0e, 0x20, 0x3c,
  0x38, 0x90, 0x15, 0x3e, 0xdb, 0x64, 0x68, 0xbe, 0x80, 0x6f, 0x4b, 0x3c,
  0xb8, 0x20, 0x58, 0xbe, 0x8e, 0xc6, 0x67, 0x3e, 0x66, 0xa3, 0xe4, 0xbd,
  0x04, 0x9e, 0xa7, 0xbd, 0x7c, 0x47, 0xad, 0x3d, 0xe0, 0x08, 0x68, 0x3e,
  0xf8, 0xd7, 0x64, 0xbd, 0xbc, 0xee, 0xc4, 0x3d, 0x40, 0xa9, 0xcf, 0x3c,
  0x80, 0xad, 0xcc, 0xbb, 0x32, 0x68, 0x2c, 0x3e, 0x32, 0x18, 0x8d, 0xbd,
  0x96, 0xe7, 0x3a, 0xbe, 0x4c, 0x43, 0x10, 0xbe, 0x82, 0x18, 0x29, 0x3e,
  0x2c, 0x25, 0xf8, 0xbd, 0x1c, 0x1d, 0x8a, 0xbd, 0xc4, 0xd3, 0xcc, 0xbd,
  0xa0, 0xf7, 0x6d, 0x3e, 0x7a, 0x2b, 0xe4, 0xbd, 0xd0, 0x83, 0x85, 0x3d,
  0xb4, 0xe9, 0x33, 0xbe, 0xa1, 0xca, 0x23, 0xbe, 0xe4, 0x4d, 0x4d, 0xbe,
  0x0c, 0xb6, 0xa6, 0xbd, 0x40, 0x77, 0xbb, 0x3d, 0x54, 0x6e, 0x5d, 0xbd,
  0x28, 0x35, 0x00, 0x3e, 0x20, 0x12, 0xc3, 0x3d, 0xb0, 0x33, 0xec, 0xbc,
  0xd2, 0x2e, 0x0d, 0x3e, 0xb6, 0x6b, 0x08, 0x3e, 0xda, 0x94, 0x43, 0x3e,
  0xf4, 0x79, 0xbf, 0xbd, 0x44, 0xb2, 0x57, 0x3e, 0xdc, 0xcd, 0x71, 0xbd,
  0xe4, 0x64, 0x4d, 0x3e, 0xc0, 0xa0, 0xec, 0x3c, 0xa2, 0xad, 0x53, 0x3e,
  0x88, 0x03, 0x43, 0xbd, 0x04, 0xdf, 0x2d, 0x3e, 0x10, 0x21, 0x9f, 0x3c,
  0xd4, 0x37, 0x24, 0xbe, 0x21, 0xd5, 0x5f, 0xbe, 0xd0, 0xf9, 0x6a, 0x3d,
  0x11, 0x05, 0x1a, 0x3e, 0x21, 0x4f, 0x04, 0xbe, 0x70, 0x60, 0xd0, 0x3d,
  0xf5, 0xd4, 0xa2, 0xbd, 0x8c, 0xed, 0x2a, 0xbe, 0x8e, 0x21, 0x69, 0x3c,
  0x80, 0x72, 0xa9, 0x3a, 0x18, 0x73, 0x54, 0xbd, 0x77, 0xaf, 0x5d, 0xbe,
  0x02, 0xf3, 0xa7, 0xbd, 0x53, 0x22, 0x54, 0xbe, 0x26, 0xc8, 0xd0, 0xbd,
  0xda, 0xe9, 0x1f, 0xbe, 0x24, 0x5a, 0x35, 0x3e, 0x0a, 0x84, 0xee, 0xba,
  0x40, 0x92, 0x25, 0x3c, 0xf9, 0x1f, 0x39, 0xbb, 0xd8, 0xaf, 0x4d, 0xbd,
  0x02, 0x6a, 0x2b, 0xbe, 0xab, 0x23, 0x3d, 0x3e, 0xde, 0x3c, 0xba, 0xbd,
  0xfa, 0x3c, 0xb5, 0xbd, 0xd2, 0x8b, 0x9d, 0xbd, 0x60, 0xd7, 0xba, 0x3c,
  0xf8, 0x56, 0x82, 0x3d, 0xa0, 0x55, 0x34, 0xbe, 0xe6, 0x8d, 0xc0, 0xbd,
  0x18, 0x32, 0x9e, 0xbc, 0x24, 0x23, 0x32, 0x3e, 0xa6, 0x4c, 0x22, 0x3e,
  0x12, 0xe3, 0x3d, 0xbc, 0xf5, 0x08, 0x36, 0x3e, 0x86, 0xf2, 0x0b, 0xbe,
  0x62, 0x0d, 0x58, 0x3e, 0xb0, 0x50, 0xc8, 0xbc, 0xfe, 0x96, 0xbf, 0xbd,
  0x36, 0x7c, 0x97, 0xbd, 0x7f, 0x71, 0x51, 0xbe, 0x00, 0x04, 0x34, 0x3c,
  0xa5, 0x8d, 0x55, 0xbe, 0xa0, 0x66, 0x33, 0x3d, 0x90, 0x89, 0x66, 0x3d,
  0xc2, 0x74, 0xb5, 0xbd, 0xb8, 0xe4, 0x6e, 0x3d, 0x38, 0xfa, 0x2e, 0x3e,
  0x44, 0x0b, 0x5c, 0x3e, 0x87, 0x50, 0x43, 0xbe, 0x45, 0xd5, 0xd0, 0x3d,
  0x36, 0x5c, 0xab, 0xbd, 0x34, 0xf0, 0x5e, 0xbd, 0x82, 0xdb, 0x65, 0xbe,
  0x7b, 0x0e, 0x6e, 0xbd, 0xf8, 0x42, 0xa0, 0x3d, 0x40, 0x9f, 0x67, 0x3e,
  0xfc, 0xe7, 0x86, 0x3d, 0x38, 0x89, 0x22, 0xbe, 0x65, 0xde, 0x4b, 0xbe,
  0xa7, 0xb6, 0xf9, 0xbd, 0xa2, 0x5c, 0x55, 0x3e, 0xa4, 0xf1, 0x31, 0x3e,
  0x80, 0xd9, 0xd6, 0xbc, 0x12, 0xf6, 0x43, 0xbe, 0xe9, 0xa5, 0x80, 0xbe,
  0x3a, 0x28, 0x69, 0x3e, 0xa5, 0x01, 0x77, 0xbe, 0x84, 0xad, 0x61, 0x3e,
  0xd4, 0x74, 0x3e, 0x3e, 0x86, 0x8e, 0x05, 0x3e, 0xe8, 0x7c, 0xd6, 0x3d,
  0xb2, 0x9c, 0xfc, 0xbd, 0xe8, 0x9f, 0x1a, 0x3e, 0x18, 0x1f, 0x0b, 0x3d,
  0xb6, 0xd6, 0x4a, 0x3e, 0xdc, 0x96, 0xd9, 0x3d, 0x80, 0xdb, 0x5e, 0xbb,
  0x30, 0xa4, 0x62, 0x3e, 0xe8, 0x6b, 0x1b, 0x3d, 0x7a, 0xad, 0x04, 0xbe,
  0x63, 0x7a, 0x93, 0xbd, 0xaf, 0x17, 0x25, 0x3d, 0x28, 0x2e, 0x2d, 0x3e,
  0xfe, 0x98, 0x70, 0x3e, 0x68, 0x02, 0xe0, 0x3d, 0x82, 0xc3, 0x0f, 0x3e,
  0x22, 0x91, 0x1a, 0xbe, 0xd0, 0x70, 0x58, 0xbd, 0x70, 0xff, 0x4a, 0x3e,
  0xf2, 0x96, 0xeb, 0xbd, 0xea, 0xd5, 0x3b, 0xbe, 0x3d, 0x80, 0x00, 0xbd,
  0x60, 0xbb, 0x61, 0xbd, 0xd0, 0x6e, 0x3f, 0x3e, 0xf8, 0xa1, 0x33, 0x3c,
  0x90, 0x2e, 0xb7, 0x3c, 0x92, 0x1b, 0xd9, 0x3d, 0x7a, 0x01, 0x69, 0xbe,
  0x95, 0x9e, 0xaa, 0x3c, 0x34, 0x32, 0x0b, 0x3e, 0xf8, 0xd6, 0x88, 0xbc,
  0x48, 0xe8, 0x7c, 0x3d, 0x06, 0xbf, 0x45, 0x3e, 0x71, 0x31, 0x44, 0xbe,
  0x0c, 0x5f, 0x64, 0xbe, 0xee, 0x80, 0x62, 0x3e, 0x0a, 0xbe, 0x65, 0x3e,
  0x00, 0x1f, 0x1b, 0xbe, 0xd0, 0x30, 0x17, 0x3c, 0x06, 0x33, 0x17, 0xbe,
  0xe8, 0xcc, 0x09, 0x3d, 0x72, 0x81, 0xc0, 0xbd, 0xb4, 0xe4, 0x48, 0xbe,
  0xa7, 0xa2, 0x15, 0xbe, 0x4c, 0x6d, 0x0d, 0xbe, 0x84, 0xc2, 0x4f, 0xbe,
  0x44, 0x27, 0x54, 0x3e, 0x31, 0xe4, 0x3f, 0xbc, 0x3e, 0x54, 0x45, 0xbe,
  0xba, 0x84, 0x5e, 0xbe, 0x12, 0x06, 0x57, 0xbe, 0x26, 0x06, 0x2b, 0xbe,
  0xb8, 0xbc, 0x63, 0x3d, 0xb4, 0x9b, 0x45, 0x3e, 0x6c, 0xde, 0x3a, 0xbd,
  0xa2, 0xe1, 0xd6, 0xbd, 0xf0, 0x10, 0x6a, 0x3d, 0x04, 0x4d, 0x4d, 0x3e,
  0x4c, 0xfb, 0x1a, 0x3e, 0xea, 0x24, 0x22, 0x3e, 0x6d, 0x66, 0x30, 0x3c,
  0xc2, 0x85, 0x75, 0x3e, 0x0b, 0x44, 0x3a, 0xbe, 0x90, 0x3c, 0x72, 0xbe,
  0xf8, 0x7d, 0xf7, 0xbd, 0xae, 0xcf, 0x72, 0x3e, 0x52, 0xcd, 0x0f, 0x3e,
  0x2c, 0x87, 0x60, 0x3e, 0x7a, 0xf6, 0x4f, 0x3e, 0x23, 0x49, 0x71, 0xbd,
  0xb6, 0x45, 0xab, 0xbd, 0x24, 0xb0, 0x4e, 0xbe, 0xea, 0x4e, 0x24, 0x3e,
  0x42, 0xae, 0x32, 0x3e, 0x89, 0x29, 0x15, 0x3e, 0x01, 0x6d, 0x72, 0x3e,
  0xb8, 0xd7, 0x57, 0xbe, 0x5e, 0x35, 0x01, 0x3e, 0xb8, 0x9a, 0xf4, 0x3d,
  0x9b, 0xc7, 0x85, 0x3d, 0xc6, 0xd9, 0x2b, 0x3e, 0xea, 0xfe, 0x18, 0x3e,
  0x2a, 0xc6, 0x62, 0x3e, 0x79, 0x08, 0x50, 0xbe, 0xb0, 0xc2, 0x4e, 0xbc,
  0x0d, 0xf5, 0x25, 0xbe, 0x1c, 0x93, 0x3b, 0xbd, 0xe4, 0x26, 0xb2, 0x3d,
  0x00, 0xb3, 0xaf, 0x3d, 0x90, 0x50, 0x5c, 0xbd, 0x07, 0xaa, 0x22, 0x3e,
  0x89, 0x89, 0x11, 0x3e, 0x1b, 0xad, 0x5e, 0x3e, 0x5e, 0x60, 0x5a, 0xbe,
  0xf2, 0x7f, 0x37, 0x3e, 0x4a, 0x7d, 0xdc, 0xbd, 0xac, 0xcf, 0x34, 0x3e,
  0xa4, 0xf3, 0x0d, 0xbd, 0xb0, 0xb8, 0x83, 0x3c, 0xe6, 0x36, 0x14, 0xbe,
  0x4a, 0x9a, 0x2f, 0xbe, 0x29, 0x75, 0x26, 0xbe, 0x5c, 0x2c, 0x7f, 0xbd,
  0xae, 0x7a, 0x8b, 0xbd, 0x94, 0x06, 0x3c, 0xbd, 0xf0, 0x53, 0x0f, 0x3d,
  0x93, 0x65, 0xbc, 0x3d, 0xc9, 0x3e, 0x23, 0xbe, 0xf2, 0x0b, 0x77, 0x3d,
  0x34, 0x3b, 0xd5, 0x3d, 0xc0, 0x36, 0x74, 0x3e, 0xce, 0x3d, 0xb6, 0xbd,
  0x78, 0xdd, 0x1e, 0xbd, 0xd5, 0x58, 0x12, 0x3e, 0x80, 0x6d, 0x29, 0xbd,
  0xbc, 0x25, 0x3c, 0xbe, 0x36, 0x3b, 0x62, 0xbe, 0xb8, 0x9f, 0xdd, 0x3d,
  0x84, 0xde, 0x86, 0x3d, 0xec, 0x0a, 0x3e, 0x3e, 0x10, 0x95, 0xcf, 0x3d,
  0x00, 0x43, 0x3e, 0x3a, 0x13, 0x83, 0xc6, 0x3c, 0xd8, 0xc8, 0xf9, 0x3d,
  0x06, 0xd4, 0x37, 0x3e, 0x66, 0x22, 0xeb, 0xbd, 0x60, 0x1d, 0x96, 0x3d,
  0x0b, 0x6f, 0xda, 0x3d, 0xee, 0x90, 0xee, 0xbd, 0x99, 0x45, 0x95, 0xbb,
  0x24, 0xb1, 0x22, 0xbe, 0x60, 0x22, 0xcf, 0x3d, 0x1c, 0xf0, 0x28, 0x3e,
  0x64, 0xb8, 0x24, 0x3e, 0x46, 0x10, 0x0d, 0xbe, 0xf0, 0x87, 0x64, 0x3e,
  0x4c, 0x38, 0x48, 0xbd, 0xb8, 0x9b, 0x26, 0x3d, 0xe8, 0xcb, 0xd1, 0xbd,
  0x2c, 0xde, 0x27, 0xbd, 0x2c, 0x7e, 0xff, 0xbc, 0x90, 0xed, 0xf7, 0x3d,
  0x90, 0xab, 0x84, 0x3c, 0x16, 0xb4, 0xa3, 0xbd, 0xc8, 0x97, 0xb8, 0xbd,
  0xb3, 0x7f, 0x4e, 0xbe, 0xd4, 0x10, 0x6c, 0x3e, 0xf8, 0x24, 0x43, 0xbe,
  0xff, 0x4a, 0x25, 0xbe, 0xb8, 0x53, 0x1f, 0x3e, 0x68, 0xa4, 0x9d, 0x3d,
  0x80, 0x64, 0xf0, 0x3d, 0x54, 0xbb, 0x50, 0xbd, 0x60, 0x71, 0x2b, 0x3d,
  0x5f, 0x38, 0x28, 0xbe, 0x83, 0x3d, 0x4b, 0x3d, 0x16, 0x5e, 0x63, 0xbd,
  0x1a, 0xf8, 0x30, 0x3e, 0xc0, 0x23, 0x54, 0x3e, 0x9a, 0x38, 0x39, 0x3d,
  0xcc, 0x54, 0x36, 0xbe, 0x50, 0x65, 0xc0, 0xbd, 0x9a, 0x27, 0x11, 0x3e,
  0x2a, 0xcd, 0x4c, 0x3e, 0x5e, 0x0e, 0x72, 0x3e, 0x0c, 0x36, 0x74, 0xbe,
  0xc1, 0xf5, 0x42, 0xbe, 0x4a, 0x7d, 0x17, 0xbe, 0xca, 0x5c, 0x20, 0x3e,
  0xa6, 0x7e, 0x53, 0x3e, 0xec, 0x01, 0x89, 0xbe, 0x12, 0x0a, 0xcc, 0x3d,
  0x17, 0x44, 0x8a, 0xbd, 0x08, 0x71, 0x62, 0xbe, 0x1a, 0xc1, 0x74, 0xbe,
  0xaa, 0x08, 0x2b, 0xbd, 0xcc, 0x85, 0x27, 0xbe, 0xe2, 0x28, 0xc5, 0xbd,
  0x5a, 0x09, 0x0d, 0x3e, 0x46, 0xe7, 0xa3, 0xbd, 0x24, 0x06, 0xeb, 0xbd,
  0x19, 0xd3, 0x0f, 0xbe, 0x54, 0xf4, 0x9f, 0x3d, 0x82, 0x4f, 0x62, 0x3e,
  0x36, 0xa1, 0x29, 0xbe, 0x88, 0x8d, 0x2b, 0xbe, 0xf9, 0x76, 0x45, 0x3e,
  0xa4, 0x16, 0x44, 0xbe, 0x82, 0x71, 0xc0, 0x3c, 0xbe, 0x23, 0x9e, 0xbd,
  0x30, 0xf5, 0x6d, 0xbd, 0xf4, 0xba, 0x56, 0xbe, 0x4a, 0xca, 0x60, 0x3e,
  0x0c, 0xc9, 0x93, 0x3d, 0x16, 0x03, 0x26, 0x3e, 0x06, 0x1f, 0xa8, 0xbd,
  0x08, 0xdd, 0xf2, 0xbc, 0x18, 0x24, 0x6c, 0xbe, 0x60, 0x20, 0xec, 0x3d,
  0x70, 0xe6, 0x4c, 0xbd, 0xf8, 0xc9, 0xa5, 0x3d, 0xa2, 0x9c, 0x0c, 0x3e,
  0x15, 0x6f, 0x43, 0xbe, 0x4b, 0x29, 0x4d, 0x3e, 0x33, 0x53, 0x15, 0x3e,
  0xea, 0x65, 0x2f, 0x3e, 0xba, 0x7b, 0x18, 0x3e, 0xf7, 0x74, 0x54, 0x3d,
  0x20, 0xf5, 0x79, 0x3d, 0xf0, 0x53, 0x6c, 0xbd, 0x3e, 0xfb, 0x09, 0xbe,
  0xdc, 0xc8, 0xab, 0x3d, 0x85, 0x35, 0xfb, 0xbd, 0xb5, 0x84, 0x3f, 0x3e,
  0x84, 0x57, 0x40, 0x3e, 0xbc, 0x9c, 0xf2, 0x3d, 0x02, 0xdc, 0x5c, 0x3e,
  0x2c, 0x18, 0x67, 0x3e, 0x29, 0x0c, 0xdb, 0x3d, 0x68, 0x91, 0x30, 0x3d,
  0xf2, 0xa1, 0x47, 0xbe, 0x58, 0xd4, 0x06, 0xbd, 0xd4, 0xa8, 0x9f, 0x3d,
  0xa3, 0xa9, 0x14, 0x3e, 0xe0, 0xa5, 0xb9, 0xbd, 0x11, 0xa2, 0x0d, 0x3d,
  0xa4, 0xc7, 0x2e, 0x3e, 0x68, 0x7a, 0xc4, 0xbc, 0xbc, 0xa3, 0xe7, 0x3d,
  0x9e, 0x8c, 0x02, 0x3e, 0x0e, 0xca, 0xd5, 0xbd, 0x72, 0x38, 0x1b, 0xbe,
  0xac, 0x0c, 0xd4, 0x3d, 0x44, 0xd8, 0xf8, 0xbd, 0x4d, 0x4b, 0x9c, 0x3d,
  0x10, 0x9c, 0x37, 0xbd, 0xd4, 0xcd, 0xf2, 0x3d, 0x74, 0xa6, 0xc5, 0x3d,
  0x59, 0x2d, 0x24, 0xbe, 0xe5, 0x82, 0x82, 0xbe, 0x78, 0xc5, 0x06, 0x3e,
  0x1b, 0x24, 0x94, 0xbd, 0xb6, 0x88, 0x2b, 0xbe, 0x5a, 0x16, 0x25, 0x3e,
  0xc8, 0x06, 0xb7, 0x3d, 0xf0, 0x23, 0x72, 0x3e, 0x2a, 0x9c, 0x58, 0x3e,
  0x0c, 0xa0, 0x4c, 0x3e, 0x12, 0x72, 0x3b, 0xbe, 0x18, 0x7e, 0x3e, 0x3d,
  0xb5, 0x0b, 0x12, 0xbe, 0x6f, 0x71, 0x20, 0xbd, 0xf9, 0x2e, 0xe9, 0xbd,
  0x40, 0x31, 0xd6, 0x3d, 0x82, 0x41, 0x8f, 0xbd, 0xd7, 0x9e, 0x2d, 0xbd,
  0xc0, 0x6b, 0x3a, 0xbe, 0x7c, 0x6d, 0x73, 0xbe, 0x9d, 0x24, 0x14, 0xbe,
  0xb8, 0xe9, 0xa2, 0xbd, 0x80, 0x1d, 0x32, 0x3d, 0x57, 0x3a, 0x42, 0xbe,
  0xd4, 0xad, 0xcf, 0x3d, 0x8a, 0x5b, 0x3b, 0xbe, 0xda, 0x1c, 0x02, 0x3e,
  0x0c, 0x15, 0x65, 0x3e, 0x64, 0x24, 0x9a, 0xbd, 0x5e, 0x72, 0x62, 0x3e,
  0xf8, 0x4b, 0xb7, 0x3b, 0xfa, 0xd6, 0x50, 0x3e, 0x0c, 0xa4, 0xb9, 0x3d,
  0x1d, 0xd5, 0x5e, 0x3d, 0x67, 0x70, 0x47, 0xbe, 0x94, 0x7c, 0x4e, 0x3e,
  0x58, 0x1c, 0x07, 0xbd, 0x46, 0x4f, 0xc4, 0xbd, 0x92, 0xc5, 0x33, 0xbe,
  0x4d, 0x01, 0xea, 0x3d, 0x14, 0x43, 0x3a, 0xbd, 0xcc, 0x0e, 0x11, 0xbd,
  0xd8, 0xdd, 0x91, 0x3d, 0xb4, 0x9b, 0x30, 0x3e, 0xfc, 0x31, 0xf4, 0x3d,
  0x07, 0x74, 0x0c, 0xbe, 0x19, 0xcd, 0x46, 0x3e, 0xbf, 0x30, 0x6a, 0xbe,
  0xc5, 0xeb, 0x52, 0xbe, 0x08, 0x4d, 0xa6, 0x3d, 0xf0, 0x6f, 0xa0, 0x3c,
  0x0e, 0x47, 0xd7, 0xbd, 0x9e, 0xb9, 0x35, 0x3e, 0xf6, 0x05, 0x71, 0x3e,
  0x26, 0xf2, 0x62, 0x3e, 0x76, 0xca, 0x6f, 0x3e, 0x9c, 0xdb, 0x86, 0xbd,
  0xa4, 0x29, 0x8d, 0xbd, 0xad, 0x66, 0x44, 0xbe, 0xf0, 0xbd, 0x47, 0x3d,
  0xd9, 0x5d, 0x30, 0xbb, 0xcb, 0x49, 0xc4, 0xbd, 0xeb, 0x4f, 0xb4, 0x3d,
  0x64, 0x5c, 0x24, 0xbd, 0xf0, 0xc5, 0x0e, 0x3d, 0x2e, 0xfe, 0xb6, 0x3d,
  0x14, 0xf8, 0xdd, 0xbd, 0x2b, 0xf1, 0x05, 0xbe, 0x90, 0x18, 0x66, 0x3d,
  0x94, 0xb5, 0xb7, 0x3d, 0x22, 0x7b, 0x4d, 0x3e, 0xc8, 0x8a, 0xd5, 0xbc,
  0x40, 0xeb, 0xbc, 0x3d, 0xe6, 0xd5, 0x27, 0x3e, 0x66, 0x0e, 0x12, 0x3e,
  0x58, 0x06, 0xba, 0xbd, 0x70, 0xc8, 0x2f, 0xbd, 0x9d, 0x38, 0x69, 0xbe,
  0x3a, 0xb9, 0xa0, 0xbd, 0x50, 0x79, 0xde, 0x3c, 0x90, 0xbd, 0x72, 0x3d,
  0x00, 0x7a, 0x35, 0xbb, 0x62, 0x2a, 0x55, 0xbe, 0x70, 0x85, 0xdb, 0x3c,
  0xfe, 0xa7, 0x4f, 0xbe, 0x2c, 0xe0, 0x09, 0xbe, 0x30, 0x5e, 0xec, 0xbc,
  0x10, 0xb9, 0x2f, 0x3d, 0xc0, 0x42, 0x4c, 0xbd, 0x10, 0xa2, 0x1a, 0xbc,
  0xfe, 0xa9, 0x12, 0xbe, 0x58, 0x3d, 0xb0, 0x3d, 0xdc, 0x1c, 0x3a, 0x3e,
  0xc0, 0xf1, 0x2b, 0xbe, 0xf3, 0x68, 0x75, 0xbe, 0x9a, 0x2b, 0x42, 0x3e,
  0x28, 0x86, 0xa2, 0xbd, 0x07, 0x25, 0x3c, 0xbe, 0x9c, 0xe6, 0x87, 0x3d,
  0x84, 0x1a, 0xa2, 0x3d, 0x40, 0x7e, 0x60, 0x3b, 0x66, 0x3b, 0x49, 0x3e,
  0x38, 0xf1, 0xa0, 0x3d, 0xc4, 0x70, 0x22, 0x3e, 0xc0, 0x66, 0x4b, 0x3b,
  0x54, 0xc5, 0x3c, 0xbe, 0x60, 0x11, 0x62, 0xbc, 0x60, 0x67, 0x18, 0xbc,
  0x4e, 0xd7, 0xf0, 0xbd, 0x86, 0xe7, 0xaa, 0xbd, 0x2b, 0x4d, 0x5e, 0xbe,
  0x13, 0x30, 0x5b, 0xbe, 0xce, 0x36, 0x9e, 0xbd, 0x38, 0x99, 0x5d, 0xbe,
  0xf8, 0xcf, 0xe0, 0xbc, 0xb8, 0xa4, 0x43, 0x3e, 0x20, 0x3c, 0x61, 0x3c,
  0x20, 0x08, 0x97, 0x3c, 0x10, 0x81, 0xe7, 0x3c, 0xd6, 0xc3, 0xe1, 0xbd,
  0xde, 0x8c, 0xd5, 0xbd, 0x08, 0x27, 0x16, 0x3e, 0x40, 0xfc, 0x01, 0x3c,
  0x78, 0x58, 0xe7, 0xbd, 0x9e, 0x47, 0x37, 0x3e, 0x90, 0x41, 0xb5, 0x3d,
  0x66, 0xc0, 0xf0, 0xbd, 0xfa, 0x25, 0x9d, 0xbd, 0x84, 0x92, 0x29, 0x3e,
  0xa8, 0xb4, 0x67, 0xbe, 0x80, 0x9d, 0x03, 0x3d, 0x00, 0x0d, 0x78, 0xbb,
  0xc4, 0x3d, 0x48, 0xbd, 0xa8, 0x05, 0x03, 0x3e, 0x24, 0x79, 0xa5, 0xbd,
  0xa6, 0xd0, 0x0f, 0xbe, 0x07, 0x2f, 0x33, 0xbe, 0x94, 0x1a, 0x90, 0x3d,
  0x32, 0x9f, 0x4d, 0x3e, 0xfc, 0xd2, 0xca, 0xbd, 0x00, 0x7a, 0xff, 0x39,
  0xca, 0xdb, 0x01, 0xbe, 0xce, 0x72, 0x52, 0x3e, 0xf8, 0x57, 0x2a, 0x3e,
  0xae, 0xdb, 0x3c, 0x3e, 0xc6, 0x34, 0xb3, 0xbd, 0x3f, 0xc8, 0xef, 0xbd,
  0xfe, 0x26, 0x41, 0xbe, 0xe6, 0x7f, 0x2c, 0x3e, 0x1a, 0x5b, 0xae, 0xbd,
  0xec, 0x8d, 0xb3, 0x3d, 0x8e, 0x27, 0x35, 0x3e, 0x30, 0xcc, 0x76, 0xbc,
  0x10, 0x64, 0xae, 0x3c, 0xb4, 0x0c, 0x6f, 0x3e, 0x16, 0x40, 0x0d, 0x3e,
  0xa4, 0x71, 0xb9, 0x3d, 0x08, 0xeb, 0x57, 0x3d, 0x32, 0x63, 0x9d, 0xbd,
  0x74, 0xd5, 0x80, 0xbd, 0xa0, 0x59, 0x46, 0xbc, 0x34, 0x08, 0x49, 0xbe,
  0x3c, 0x21, 0xb7, 0x3d, 0x92, 0xf5, 0xee, 0x3d, 0xbe, 0x6b, 0x0e, 0x3e,
  0xcc, 0x34, 0x17, 0xbe, 0x88, 0x4d, 0x37, 0x3d, 0xee, 0xee, 0x10, 0xbe,
  0x00, 0x7e, 0xc2, 0x39, 0x00, 0x54, 0x9c, 0xbc, 0xc4, 0x5f, 0x94, 0x3d,
  0x82, 0xd7, 0x34, 0xbe, 0x47, 0x8c, 0x15, 0xbe, 0xf9, 0xbd, 0x36, 0xbe,
  0xb3, 0x6d, 0xd9, 0x3d, 0x84, 0x3f, 0xcb, 0x3d, 0x60, 0x2a, 0x2d, 0x3e,
  0xb4, 0x5e, 0x7d, 0xbe, 0x50, 0x88, 0xce, 0xbc, 0xfc, 0xa5, 0x04, 0x3e,
  0xa0, 0xac, 0xf5, 0x3d, 0xc8, 0xbe, 0xb8, 0xbd, 0xe8, 0x5e, 0x05, 0x3d,
  0x58, 0x81, 0xaf, 0x3d, 0x10, 0x61, 0x33, 0xbe, 0x90, 0x1f, 0x2f, 0xbe,
  0xfa, 0x42, 0x52, 0xbe, 0xc0, 0xc2, 0xaf, 0x3c, 0x00, 0xef, 0x3d, 0xbe,
  0x66, 0x8c, 0x58, 0x3e, 0x65, 0x4d, 0x08, 0x3e, 0x94, 0x4a, 0x87, 0x3d,
  0x78, 0x96, 0x58, 0x3d, 0x26, 0x9b, 0x8b, 0xbd, 0x14, 0x55, 0x3f, 0xbd,
  0x3f, 0x78, 0xfe, 0x3d, 0x60, 0x82, 0x3d, 0xbe, 0x20, 0xf5, 0xb9, 0x3b,
  0x2c, 0x15, 0xe4, 0x3d, 0xc4, 0x93, 0x6e, 0x3e, 0xfe, 0x01, 0x35, 0x3e,
  0x98, 0x40, 0x28, 0xbd, 0x80, 0x86, 0x14, 0x3b, 0x96, 0xa9, 0xb4, 0xbd,
  0xcd, 0x9c, 0x68, 0x3e, 0x10, 0x5d, 0x12, 0xbe, 0xa5, 0x97, 0xe0, 0x3c,
  0x5c, 0xcd, 0x13, 0xbd, 0x08, 0xd8, 0xc0, 0xbc, 0xaf, 0xdb, 0xcb, 0xbc,
  0xae, 0x1b, 0x08, 0xbe, 0xf8, 0xc9, 0x02, 0x3e, 0xc0, 0x14, 0x17, 0x3b,
  0x42, 0x73, 0x09, 0x3e, 0xb8, 0xa1, 0x29, 0xbe, 0x90, 0x26, 0xa0, 0xbd,
  0xc9, 0x95, 0x2a, 0xbe, 0x08, 0x66, 0x2d, 0x3e, 0x40, 0x10, 0xa9, 0x3b,
  0xee, 0x0b, 0x3b, 0xbe, 0x74, 0x7a, 0x13, 0x3e, 0xe6, 0x4e, 0x97, 0xbd,
  0x42, 0xe2, 0x7e, 0x3d, 0x86, 0x25, 0x40, 0x3e, 0x10, 0x41, 0xb0, 0xbc,
  0x58, 0x61, 0x13, 0x3e, 0xb8, 0x88, 0x23, 0x3d, 0x50, 0x14, 0x1a, 0xbd,
  0x31, 0x45, 0x74, 0xbe, 0x80, 0x90, 0x8c, 0x3c, 0xe8, 0x42, 0x05, 0xbe,
  0x3a, 0xd5, 0x1f, 0x3e, 0x20, 0x54, 0xf0, 0x3d, 0xd6, 0xc3, 0x41, 0x3e,
  0x78, 0x53, 0xa6, 0xbc, 0x48, 0x14, 0x73, 0xbd, 0x6d, 0x3c, 0x18, 0xbe,
  0x72, 0x66, 0x5d, 0x3e, 0x55, 0x9d, 0x11, 0xbe, 0x60, 0xf6, 0x03, 0x3d,
  0xf8, 0x23, 0x42, 0x3d, 0x86, 0x14, 0x51, 0xbe, 0xe0, 0x29, 0xb5, 0xbd,
  0x20, 0x14, 0x7e, 0x3d, 0x02, 0x54, 0x0c, 0x3e, 0xec, 0x26, 0x98, 0x3d,
  0x74, 0xbd, 0xe6, 0xbd, 0x34, 0x90, 0x2a, 0x3e, 0xf8, 0x27, 0xa6, 0x3d,
  0x4e, 0x14, 0x52, 0xbe, 0x62, 0xd2, 0x71, 0x3e, 0xe2, 0x9e, 0x8b, 0xbd,
  0x60, 0x7f, 0xe6, 0x3c, 0x24, 0xce, 0x5c, 0xbe, 0x24, 0xa9, 0xe0, 0x3d,
  0x60, 0x55, 0xb8, 0xbc, 0x00, 0x20, 0xb7, 0xbd, 0x6c, 0x3e, 0x7b, 0xbe,
  0xdc, 0x0c, 0x38, 0x3e, 0x56, 0xa7, 0x80, 0xbd, 0x7a, 0x1f, 0x92, 0xbd,
  0x7c, 0x6e, 0xab, 0xbd, 0xc4, 0x39, 0x6e, 0xbd, 0x09, 0xa8, 0x52, 0xbe,
  0x50, 0x42, 0x80, 0x3d, 0x90, 0x24, 0xbc, 0x3c, 0x66, 0xa6, 0x51, 0x3e,
  0x51, 0x91, 0x01, 0xbe, 0xf4, 0x41, 0x5d, 0xbd, 0xf2, 0xc5, 0x34, 0x3e,
  0x58, 0x89, 0x6d, 0xbd, 0xea, 0x92, 0x3b, 0x3e, 0x88, 0x3c, 0x0a, 0x3d,
  0xe0, 0x82, 0xc3, 0x3c, 0x2a, 0x8f, 0x36, 0x3e, 0x10, 0x4a, 0xb7, 0xbd,
  0x74, 0x6e, 0x30, 0xbe, 0x5c, 0x4d, 0x73, 0xbe, 0x30, 0xed, 0x0e, 0xbe,
  0xd0, 0xee, 0x82, 0x3c, 0x7e, 0x82, 0x38, 0xbe, 0xb0, 0x25, 0x70, 0xbc,
  0x16, 0xc6, 0x75, 0x3e, 0x3a, 0x93, 0x52, 0x3e, 0xa2, 0x7a, 0x84, 0xbd,
  0xce, 0xe1, 0x99, 0xbd, 0xc6, 0xf1, 0x3e, 0x3e, 0x24, 0x14, 0x3c, 0x3e,
  0x80, 0x22, 0xb1, 0x3c, 0x78, 0x92, 0x88, 0x3d, 0x76, 0xa3, 0x2f, 0x3e,
  0x28, 0x08, 0xd3, 0xbd, 0xc8, 0x34, 0x26, 0xbe, 0xd0, 0x9d, 0x58, 0x3e,
  0x46, 0x5d, 0x56, 0x3e, 0x94, 0xf8, 0xba, 0x3d, 0x1a, 0x2c, 0x1f, 0xbe,
  0xc8, 0x2b, 0x5a, 0x3e, 0xab, 0x93, 0x34, 0xbe, 0x54, 0x07, 0x8d, 0x3d,
  0xf4, 0x4c, 0xf0, 0x3d, 0x4c, 0x04, 0xb8, 0x3d, 0x60, 0xe3, 0x93, 0x3d,
  0xc8, 0x00, 0x22, 0x3d, 0x88, 0xee, 0xd1, 0x3d, 0x82, 0x9a, 0xc8, 0xbd,
  0x3c, 0x4a, 0x08, 0xbe, 0x5c, 0x04, 0x39, 0x3e, 0x8e, 0x03, 0x2a, 0x3e,
  0xae, 0xbd, 0x59, 0x3e, 0x18, 0x1b, 0x0f, 0xbe, 0x26, 0x69, 0x74, 0x3e,
  0xc4, 0x4a, 0x62, 0x3e, 0x15, 0x07, 0x20, 0xbe, 0x6a, 0x24, 0x37, 0xbe,
  0x60, 0x23, 0xcc, 0xbd, 0x44, 0x93, 0x05, 0xbd, 0x28, 0x22, 0xbf, 0x3d,
  0x53, 0x1a, 0x43, 0xbe, 0xae, 0x6d, 0x5f, 0x3e, 0x6c, 0xed, 0x32, 0xbe,
  0x26, 0x6b, 0x2f, 0xbe, 0xe8, 0x4e, 0xe8, 0x3d, 0xdd, 0x54, 0xfd, 0xbd,
  0x60, 0xa7, 0xb1, 0xbd, 0x34, 0x68, 0x52, 0xbe, 0x3a, 0x01, 0x18, 0xbe,
  0x76, 0xbe, 0x5a, 0x3e, 0x88, 0x33, 0xce, 0xbd, 0xf0, 0xdc, 0x8d, 0x3c,
  0x90, 0x88, 0x0a, 0xbe, 0xce, 0xf2, 0x01, 0xbe, 0xca, 0xfd, 0x15, 0xbe,
  0xe0, 0xf3, 0x88, 0x3b, 0x75, 0xb6, 0x00, 0xbe, 0x14, 0xa8, 0xf8, 0x3d,
  0xd8, 0x44, 0x10, 0xbe, 0xa4, 0xef, 0x70, 0xbe, 0xb0, 0x33, 0x84, 0x3d,
  0x78, 0x34, 0x16, 0x3e, 0x56, 0xd8, 0xa8, 0xbd, 0xf0, 0xaa, 0x24, 0xbe,
  0x7a, 0xb7, 0x87, 0xbd, 0x78, 0x34, 0x59, 0x3e, 0x1a, 0xea, 0x71, 0xbe,
  0x3e, 0x13, 0xa3, 0xbd, 0xa6, 0x85, 0xa4, 0xbd, 0xe4, 0xb8, 0x64, 0x3e,
  0x78, 0x69, 0x9d, 0xbd, 0xfe, 0x08, 0xfd, 0xbd, 0x68, 0x1c, 0x05, 0x3e,
  0x66, 0x56, 0xf1, 0xbd, 0x68, 0x98, 0xe3, 0xbc, 0x94, 0xf1, 0xe6, 0x3d,
  0xea, 0xf8, 0xff, 0xff, 0x04, 0x00, 0x00, 0x00, 0x08, 0x00, 0x00, 0x00,
  0xff, 0xff, 0xff, 0xff, 0x60, 0x00, 0x00, 0x00, 0xfe, 0xf8, 0xff, 0xff,
  0x04, 0x00, 0x00, 0x00, 0x04, 0x00, 0x00, 0x00, 0x66, 0x6d, 0x90, 0x3d,
  0x0e, 0xf9, 0xff, 0xff, 0x04, 0x00, 0x00, 0x00, 0x20, 0x00, 0x00, 0x00,
  0x69, 0x0c, 0x1c, 0x26, 0x93, 0xd0, 0x35, 0xbc, 0xa3, 0xdc, 0xb4, 0xbb,
  0x2b, 0x17, 0xe3, 0xbc, 0x83, 0x2e, 0xc6, 0xbc, 0x00, 0x00, 0x00, 0x00,
  0xaf, 0x20, 0x1d, 0xbc, 0x00, 0x00, 0x00, 0x00, 0x3a, 0xf9, 0xff, 0xff,
  0x04, 0x00, 0x00, 0x00, 0x00, 0x06, 0x00, 0x00, 0xdc, 0x36, 0x3f, 0xbd,
  0xf2, 0x95, 0x2c, 0xbe, 0xa6, 0x2e, 0x8e, 0xbe, 0xe0, 0x6e, 0x04, 0x3e,
  0x08, 0x06, 0xd6, 0x3d, 0xb4, 0x08, 0x89, 0x3d, 0xa4, 0x2f, 0xe0, 0x3d,
  0x64, 0x80, 0x67, 0xbe, 0xde, 0xa6, 0xf3, 0xbd, 0x00, 0x20, 0xc7, 0x3c,
  0x94, 0x34, 0x50, 0xbe, 0x12, 0x77, 0x53, 0x3e, 0x22, 0x0f, 0x8e, 0x3e,
  0xe0, 0x09, 0x8e, 0x3e, 0x58, 0x8a, 0xe7, 0x3d, 0xe6, 0x1d, 0xba, 0xbd,
  0x80, 0xd4, 0x92, 0x3d, 0xf0, 0x1e, 0x97, 0x3d, 0xae, 0xd9, 0xb2, 0xbd,
  0x64, 0x7e, 0x38, 0xbe, 0xe2, 0xff, 0x80, 0x3e, 0xc0, 0xf7, 0x76, 0xbe,
  0x00, 0x80, 0x4f, 0x3a, 0x88, 0x9c, 0x45, 0x3e, 0x00, 0xa3, 0xf6, 0x3c,
  0xf8, 0xa4, 0x54, 0xbe, 0x77, 0x34, 0x25, 0x3e, 0x64, 0x5e, 0x77, 0xbe,
  0xae, 0x95, 0x49, 0xbe, 0xb1, 0xaf, 0x7a, 0xbe, 0xd7, 0xdf, 0x6f, 0xbe,
  0xe6, 0x59, 0xc9, 0x3c, 0xcc, 0x9d, 0x49, 0xbe, 0x79, 0xa0, 0x1f, 0xbe,
  0x91, 0xa7, 0xce, 0x3d, 0xe1, 0x88, 0x90, 0xbe, 0xbe, 0x34, 0x38, 0xbe,
  0x09, 0x28, 0xb6, 0xbd, 0xcd, 0x13, 0x2b, 0xbe, 0xc8, 0x8e, 0x14, 0x3d,
  0x8c, 0x25, 0xaa, 0x3d, 0x0d, 0x08, 0x11, 0xbd, 0x47, 0xd0, 0x60, 0xbd,
  0xfa, 0xe5, 0x8f, 0xbe, 0xd1, 0x83, 0x8b, 0xbe, 0xa3, 0x48, 0xaf, 0xbd,
  0xec, 0xd0, 0x37, 0xbe, 0x6f, 0xea, 0x94, 0xbe, 0xe4, 0x27, 0xc7, 0x3d,
  0x48, 0xa2, 0x67, 0x3d, 0xf8, 0xde, 0x25, 0x3d, 0xe8, 0xa3, 0x29, 0xbe,
  0x62, 0x7b, 0x3b, 0x3e, 0xf5, 0xae, 0x18, 0xbe, 0x78, 0x77, 0x42, 0x3e,
  0xa0, 0x61, 0x2f, 0xbc, 0x80, 0x92, 0xc5, 0xbc, 0x70, 0xf4, 0xee, 0xbc,
  0x89, 0xec, 0x18, 0xbe, 0x68, 0xa5, 0xaf, 0xbd, 0xe8, 0xb7, 0x31, 0x3e,
  0x54, 0x9f, 0xc5, 0xbd, 0x8e, 0x7e, 0xbf, 0xbd, 0x62, 0x21, 0x1d, 0xbe,
  0x1a, 0x16, 0x13, 0x3e, 0x80, 0x5a, 0xc6, 0x3b, 0xc8, 0xc5, 0x56, 0x3d,
  0x78, 0xf2, 0x72, 0x3e, 0x1c, 0x7f, 0x6b, 0x3e, 0xaa, 0xa8, 0x6c, 0xbe,
  0xf0, 0xa3, 0xf1, 0x3d, 0x08, 0x9d, 0xbc, 0x3d, 0xd4, 0x3f, 0x44, 0x3e,
  0x69, 0x58, 0x4e, 0xbe, 0xea, 0xe7, 0x36, 0x3e, 0xda, 0x22, 0x75, 0xbe,
  0x08, 0xba, 0x88, 0xbe, 0x85, 0x05, 0x14, 0xbe, 0x46, 0xae, 0x06, 0xbe,
  0x4a, 0x1a, 0x83, 0x3e, 0x80, 0x07, 0x80, 0xbb, 0xd4, 0x9c, 0xeb, 0x3d,
  0x52, 0xc6, 0xe7, 0xbd, 0xfa, 0x7e, 0x80, 0x3e, 0xfc, 0xec, 0x77, 0x3e,
  0x88, 0x6e, 0xa2, 0xbd, 0x38, 0x5d, 0x7f, 0x3d, 0x68, 0xaa, 0x78, 0xbe,
  0xd8, 0x01, 0x54, 0x3e, 0x24, 0x82, 0x6a, 0xbe, 0x12, 0x5b, 0x11, 0xbe,
  0x80, 0x17, 0x0d, 0xbe, 0x80, 0xdc, 0x55, 0xbe, 0xf4, 0x76, 0x1a, 0xbe,
  0xd8, 0xa0, 0xbf, 0x3d, 0x60, 0x4e, 0x81, 0xbd, 0x6a, 0xd8, 0xc5, 0xbd,
  0xc4, 0x7d, 0x10, 0x3e, 0x7b, 0xda, 0x70, 0xbe, 0x60, 0x60, 0xb3, 0x3d,
  0x76, 0xa2, 0x3c, 0xbe, 0xdb, 0x3c, 0x14, 0xbe, 0x98, 0x0d, 0xa3, 0x3d,
  0x14, 0x44, 0x1e, 0x3e, 0x95, 0x8c, 0x7a, 0xbe, 0x5e, 0x71, 0x6e, 0xbe,
  0xbc, 0xa2, 0x7f, 0x3e, 0x54, 0x7f, 0xd7, 0x3d, 0x58, 0x5b, 0x45, 0xbe,
  0x50, 0x05, 0x49, 0x3d, 0x7c, 0x86, 0x8c, 0x3e, 0x70, 0x25, 0x35, 0xbe,
  0x86, 0xd7, 0x55, 0xbe, 0x4c, 0xc4, 0x29, 0x3e, 0x58, 0x17, 0x04, 0x3d,
  0xd4, 0xd2, 0x6c, 0xbe, 0x00, 0xcb, 0xeb, 0xbb, 0xd8, 0x42, 0xe2, 0x3d,
  0x30, 0x75, 0x02, 0x3d, 0x8c, 0x28, 0x89, 0xbe, 0x80, 0x34, 0xef, 0x3c,
  0xfe, 0x87, 0x87, 0x3e, 0xdb, 0x9c, 0xce, 0xbd, 0x72, 0x57, 0x76, 0x3e,
  0xc0, 0xfa, 0x6b, 0x3d, 0x4d, 0x03, 0x8b, 0xbd, 0x2e, 0x5a, 0x2a, 0xb8,
  0xcf, 0x69, 0x13, 0xbd, 0x1a, 0x97, 0x48, 0x3e, 0xf4, 0x6b, 0xa0, 0xbd,
  0x39, 0xd1, 0x69, 0x3e, 0x84, 0x1d, 0x66, 0xbe, 0xaa, 0x07, 0x88, 0xbe,
  0xe2, 0xd1, 0x4f, 0x3e, 0x0a, 0x25, 0x03, 0x3d, 0x9c, 0x7a, 0x31, 0xbb,
  0x08, 0x48, 0x6d, 0xbe, 0x0c, 0x44, 0xd8, 0xbd, 0xc4, 0xdb, 0x84, 0xbd,
  0x45, 0xdb, 0x91, 0x3d, 0x68, 0xb1, 0x2e, 0xbd, 0x62, 0xbc, 0x0e, 0xbe,
  0xcf, 0x87, 0x71, 0x3d, 0x56, 0xa3, 0x65, 0xbe, 0x50, 0x00, 0x19, 0x3d,
  0x9c, 0xd6, 0x97, 0xbd, 0xf8, 0x14, 0x03, 0x3e, 0xe0, 0x11, 0x26, 0x3e,
  0x42, 0x4d, 0xe7, 0xbd, 0x68, 0x6a, 0x14, 0xbd, 0x60, 0xb6, 0xee, 0xbc,
  0xe2, 0xa7, 0x64, 0xbe, 0x1c, 0x7f, 0xd5, 0x3d, 0x7c, 0xcf, 0x9c, 0xbd,
  0x28, 0xdb, 0x80, 0xbd, 0x08, 0x5a, 0x5e, 0x3d, 0x18, 0x93, 0x8b, 0x3d,
  0x48, 0x4b, 0x26, 0x3d, 0x60, 0xe4, 0x8a, 0x3e, 0x82, 0xaa, 0x3b, 0x3e,
  0xd2, 0x9b, 0x3e, 0x3e, 0x98, 0x48, 0x25, 0x3e, 0x48, 0x9f, 0x35, 0xbe,
  0x90, 0x9b, 0xa6, 0x3d, 0xfa, 0xba, 0x87, 0x3e, 0x90, 0xc0, 0x86, 0xbe,
  0x30, 0x30, 0x2d, 0x3e, 0x14, 0x9f, 0x95, 0xbd, 0xb8, 0x01, 0x86, 0x3e,
  0x55, 0xd2, 0x45, 0xbe, 0xba, 0x07, 0x92, 0xbe, 0x78, 0x6d, 0x07, 0xbe,
  0x78, 0x7c, 0x3d, 0x3d, 0xc0, 0x12, 0xcc, 0xbb, 0x48, 0x78, 0x88, 0x3e,
  0x43, 0x12, 0x1d, 0xbe, 0x08, 0xaf, 0xd5, 0xbd, 0xe0, 0x6e, 0xa3, 0xbd,
  0x18, 0x16, 0x12, 0x3e, 0x5b, 0xe5, 0x36, 0xbe, 0x6a, 0xfe, 0x85, 0x3e,
  0xf0, 0x3b, 0x8f, 0x3c, 0x1a, 0x1a, 0x2b, 0xbe, 0xbc, 0x3d, 0xb8, 0x3d,
  0xbb, 0xef, 0x1c, 0xbe, 0x30, 0x13, 0x72, 0xbd, 0x2c, 0x2c, 0xd2, 0x3d,
  0xe0, 0xf1, 0xf2, 0xbc, 0xa1, 0xf5, 0x69, 0xbe, 0xea, 0x16, 0xe7, 0xbd,
  0x50, 0xc8, 0x3b, 0x3e, 0x16, 0x02, 0x8d, 0xbe, 0xdc, 0x40, 0x66, 0x3e,
  0x88, 0xa5, 0x80, 0xbe, 0x09, 0x39, 0x3b, 0xbe, 0xc0, 0xb8, 0xf0, 0x3d,
  0xde, 0xeb, 0x95, 0xbd, 0x84, 0x91, 0x01, 0x3e, 0x93, 0xbe, 0x0d, 0xbe,
  0xb8, 0x77, 0x10, 0x3e, 0xae, 0x2b, 0x8d, 0xbe, 0xc5, 0x22, 0xfa, 0x3d,
  0x6b, 0x55, 0x96, 0x3d, 0x08, 0x4f, 0x9e, 0xbd, 0xf8, 0xc1, 0x5d, 0xbe,
  0x1c, 0x41, 0x3b, 0x3e, 0xd8, 0xbd, 0x30, 0x3e, 0x88, 0x6d, 0x3e, 0xbd,
  0x40, 0xd9, 0x06, 0xbe, 0x16, 0xb5, 0x28, 0xbe, 0xa7, 0x27, 0xe1, 0xbc,
  0x50, 0xe9, 0x66, 0xbd, 0x6c, 0x4e, 0x85, 0x3e, 0xf6, 0x14, 0x04, 0x3e,
  0x13, 0x3d, 0xff, 0xbd, 0x15, 0xd4, 0x7f, 0xbe, 0x2a, 0x60, 0x01, 0x3e,
  0x00, 0xe0, 0xb2, 0xb9, 0xa0, 0x05, 0xea, 0xbc, 0x3e, 0x1a, 0x25, 0x3e,
  0xe4, 0xcb, 0xae, 0xbd, 0xec, 0xb1, 0x57, 0xbe, 0xb0, 0x7d, 0x52, 0x3d,
  0x4c, 0xc5, 0x76, 0x3e, 0x98, 0x4d, 0x42, 0x3e, 0x80, 0x06, 0x7a, 0xbc,
  0x00, 0x99, 0x0e, 0xbc, 0x28, 0xd1, 0xf5, 0xbd, 0xa0, 0x78, 0x5b, 0xbd,
  0x48, 0x3d, 0x1a, 0x3d, 0x19, 0x0a, 0x5a, 0xbe, 0xa2, 0x30, 0x8a, 0xbd,
  0x9c, 0x54, 0x76, 0x3e, 0x60, 0x3b, 0x12, 0xbc, 0xd4, 0xf3, 0x8b, 0xbd,
  0x32, 0x0d, 0xb6, 0xbd, 0xc4, 0xbc, 0x35, 0xbd, 0x90, 0x86, 0xd6, 0x3d,
  0x0e, 0x85, 0xf1, 0xbd, 0xdc, 0x01, 0x8e, 0xbe, 0x20, 0xb0, 0x62, 0x3c,
  0x79, 0x99, 0x23, 0x3e, 0xd0, 0x2c, 0x92, 0x3e, 0x76, 0xe2, 0x83, 0xbe,
  0x76, 0xdd, 0x0c, 0x3e, 0x5e, 0xeb, 0x9c, 0x3e, 0xb0, 0x92, 0x7e, 0x3e,
  0xe0, 0xe9, 0x5b, 0x3e, 0xc0, 0x23, 0x1e, 0x3c, 0x92, 0x90, 0xd4, 0xbd,
  0xdc, 0x4a, 0x2a, 0xbe, 0xe7, 0x95, 0x73, 0xbd, 0x80, 0x78, 0xba, 0x3d,
  0xdf, 0x8d, 0x69, 0x3c, 0x08, 0x2e, 0xc6, 0xbd, 0x81, 0x49, 0xd9, 0xbd,
  0x50, 0x3d, 0x4e, 0x3e, 0x72, 0x49, 0x5f, 0xbe, 0xce, 0x24, 0xcc, 0xbc,
  0xe6, 0xed, 0xe9, 0x3d, 0x46, 0x13, 0x4e, 0xbe, 0x86, 0x89, 0x21, 0x3d,
  0x7c, 0xc6, 0x1a, 0x3e, 0xc3, 0x67, 0xbe, 0x3d, 0xa8, 0xb4, 0xb6, 0xbd,
  0x95, 0x7e, 0xe4, 0xbd, 0x40, 0xb2, 0x2e, 0xbe, 0x8c, 0x6c, 0xa0, 0xbc,
  0x9c, 0x7d, 0x5d, 0x3e, 0xb4, 0x33, 0x8d, 0x3e, 0x23, 0xb0, 0xfe, 0xbd,
  0x2f, 0xb3, 0x58, 0x3e, 0x6c, 0xe4, 0xe9, 0xbd, 0x26, 0x69, 0x28, 0x3e,
  0xc6, 0xfe, 0x74, 0xbe, 0xd4, 0xbe, 0x26, 0x3e, 0x7c, 0x67, 0x58, 0x3e,
  0x8e, 0x90, 0xf5, 0xbd, 0x11, 0x10, 0xb0, 0xbd, 0x8c, 0x9a, 0x28, 0x3e,
  0x2e, 0x74, 0xba, 0xbd, 0x9e, 0x5f, 0x19, 0xbe, 0xec, 0xa0, 0x21, 0x3e,
  0x60, 0xe0, 0xfc, 0x3d, 0xa7, 0x9d, 0x0c, 0x3e, 0x03, 0x30, 0x8d, 0xbe,
  0x0f, 0x17, 0x9b, 0x3d, 0xd5, 0xc6, 0x66, 0xbd, 0xe0, 0xc0, 0x53, 0xbe,
  0xcd, 0xf0, 0x39, 0xbe, 0x4b, 0x07, 0x04, 0x3e, 0xe0, 0x7c, 0x23, 0xbd,
  0xc5, 0xc5, 0x88, 0x3e, 0xab, 0x49, 0x17, 0xbe, 0x74, 0x62, 0x85, 0x3c,
  0xcd, 0x74, 0xa1, 0xbd, 0x8c, 0x20, 0x5a, 0x3e, 0x88, 0x3f, 0x83, 0xbe,
  0x46, 0x92, 0x41, 0x3e, 0x05, 0x8a, 0xca, 0xbb, 0xf5, 0xa8, 0x91, 0xbe,
  0xe0, 0x70, 0x98, 0xbe, 0xe4, 0x70, 0xaa, 0x3c, 0xef, 0xcc, 0x85, 0x3e,
  0xa0, 0xae, 0x51, 0x3c, 0x8c, 0x79, 0x43, 0xbe, 0x9c, 0xf4, 0x79, 0x3e,
  0x61, 0x89, 0x79, 0x3c, 0x90, 0xa2, 0x88, 0x3e, 0x0f, 0x87, 0x45, 0xbe,
  0x35, 0x9e, 0xf8, 0xbd, 0x40, 0x88, 0x7e, 0x3e, 0x60, 0x7e, 0x84, 0x3e,
  0x76, 0xba, 0x0e, 0xbe, 0xa8, 0xda, 0x07, 0xbd, 0x02, 0x96, 0xef, 0xbd,
  0xf0, 0x26, 0x64, 0x3e, 0xcc, 0x57, 0x63, 0x3e, 0x72, 0x3a, 0x37, 0xbe,
  0xa0, 0xf0, 0x6d, 0xbd, 0x58, 0x32, 0x8f, 0x3e, 0x0d, 0x40, 0x4b, 0xbe,
  0x12, 0xa9, 0x2f, 0x3e, 0x6b, 0xab, 0x88, 0xbe, 0x48, 0x37, 0x7f, 0x3e,
  0xd2, 0x83, 0x80, 0x3e, 0x2c, 0x84, 0x78, 0xbe, 0x5c, 0x9b, 0x87, 0xbe,
  0x31, 0x7c, 0x8a, 0xbe, 0x00, 0xd4, 0x85, 0xba, 0x4e, 0x7e, 0x89, 0xbd,
  0x80, 0xc9, 0x63, 0x3c, 0x60, 0x34, 0x0b, 0xbc, 0x30, 0x1e, 0xeb, 0xbc,
  0xb0, 0xb7, 0xf9, 0x3d, 0xd6, 0x02, 0x51, 0xbe, 0x7d, 0x09, 0x48, 0xbe,
  0x1a, 0xd7, 0x81, 0xbe, 0x16, 0x72, 0x38, 0xbe, 0xfc, 0x96, 0x39, 0xbe,
  0xf0, 0xe0, 0x8a, 0x3d, 0x1e, 0xb8, 0x8f, 0x3e, 0xca, 0xb2, 0x53, 0xbe,
  0x40, 0xad, 0x18, 0xbd, 0x23, 0xe1, 0x23, 0xbe, 0x96, 0x58, 0xc8, 0xbd,
  0x98, 0xe4, 0xe1, 0xbd, 0x50, 0xa8, 0x2c, 0x3e, 0xf8, 0x2e, 0x72, 0x3d,
  0x70, 0x61, 0xf7, 0x3d, 0xeb, 0x93, 0x3d, 0xbe, 0x00, 0x7b, 0xb0, 0x3a,
  0xd8, 0x8c, 0x6f, 0xbd, 0xc2, 0xf6, 0x85, 0x3e, 0xa0, 0x73, 0xbd, 0xbd,
  0x43, 0xfe, 0x80, 0xbe, 0x3e, 0xe1, 0xb5, 0xbd, 0xcc, 0xdf, 0x6e, 0x3e,
  0xf8, 0xc3, 0x20, 0x3d, 0xfa, 0x0a, 0xeb, 0xbd, 0x6e, 0xbc, 0x8a, 0x3e,
  0x4d, 0x21, 0x7e, 0x3e, 0x83, 0xd2, 0x3a, 0x3e, 0x53, 0x67, 0xd4, 0xbd,
  0x22, 0x67, 0x35, 0x3e, 0xe6, 0xce, 0x0e, 0xbd, 0x35, 0xe1, 0x84, 0xbc,
  0x09, 0x4a, 0x9d, 0xbd, 0x24, 0x70, 0x81, 0x3e, 0xd3, 0x1f, 0x32, 0xbe,
  0x71, 0x6c, 0x76, 0x3e, 0xaf, 0xc4, 0xa3, 0x3c, 0x4f, 0x0c, 0x71, 0xbe,
  0xa8, 0x62, 0xe7, 0xbd, 0x17, 0x0b, 0x86, 0x3c, 0xde, 0xab, 0x45, 0xbe,
  0xb0, 0x91, 0x49, 0xbd, 0xa2, 0xba, 0x34, 0xba, 0x09, 0x5f, 0x9f, 0x3d,
  0x75, 0x2f, 0xc6, 0x3c, 0xfd, 0xa5, 0x39, 0xbe, 0x7e, 0xc4, 0x20, 0x3d,
  0x6d, 0xee, 0x30, 0xbe, 0x3e, 0xaf, 0x3f, 0x3e, 0x46, 0xff, 0xff, 0xff,
  0x04, 0x00, 0x00, 0x00, 0x60, 0x00, 0x00, 0x00, 0x38, 0x85, 0x13, 0xbe,
  0x34, 0x26, 0xdb, 0xbd, 0x00, 0x68, 0x33, 0xbe, 0x5e, 0x78, 0x94, 0x3e,
  0x8a, 0xd4, 0xcd, 0xbe, 0x40, 0x3d, 0x9d, 0xbc, 0x99, 0x31, 0x95, 0x3e,
  0xca, 0xac, 0x96, 0x3e, 0xd8, 0xdf, 0xe5, 0x3d, 0x8e, 0x7e, 0xd6, 0x3e,
  0x99, 0xcc, 0xb4, 0xbe, 0x05, 0x1e, 0x8c, 0xbe, 0x05, 0xa3, 0xab, 0xbe,
  0x2a, 0x93, 0xa1, 0xbe, 0x71, 0x29, 0xa2, 0x3e, 0xc6, 0x34, 0xcc, 0xbe,
  0x27, 0x49, 0xa1, 0x3e, 0x63, 0xe1, 0xd0, 0x3e, 0x07, 0xe5, 0x9b, 0x3e,
  0xd4, 0x1a, 0x05, 0xbd, 0x80, 0x44, 0x65, 0xbe, 0xce, 0x87, 0x5f, 0x3e,
  0x23, 0x27, 0xc6, 0xbc, 0xa1, 0xed, 0x53, 0x3e, 0xb2, 0xff, 0xff, 0xff,
  0x04, 0x00, 0x00, 0x00, 0x40, 0x00, 0x00, 0x00, 0x00, 0x00, 0x00, 0x00,
  0xd4, 0x2e, 0x16, 0xbc, 0x00, 0x00, 0x00, 0x00, 0x00, 0x00, 0x00, 0x00,
  0x7a, 0x4f, 0x57, 0x2e, 0x17, 0xde, 0xde, 0xbb, 0x00, 0x00, 0x00, 0x00,
  0x00, 0x00, 0x00, 0x00, 0xb8, 0x8a, 0xc6, 0xbb, 0x00, 0x00, 0x00, 0x00,
  0xb7, 0x9b, 0xf0, 0x3c, 0xd3, 0x9e, 0x86, 0xbb, 0xf3, 0x60, 0xcb, 0xbc,
  0xf9, 0x34, 0x8b, 0x25, 0x00, 0x00, 0x00, 0x00, 0xb3, 0xff, 0x9e, 0xbc,
  0x00, 0x00, 0x06, 0x00, 0x08, 0x00, 0x04, 0x00, 0x06, 0x00, 0x00, 0x00,
  0x04, 0x00, 0x00, 0x00, 0x20, 0x00, 0x00, 0x00, 0x00, 0x00, 0x00, 0x00,
  0xbb, 0x4f, 0xb4, 0x3c, 0xd0, 0x8f, 0xc5, 0xbc, 0xd9, 0x84, 0xd4, 0xbb,
  0x43, 0x5b, 0x8c, 0xbb, 0x7e, 0x6d, 0xd3, 0x3c, 0x0f, 0x9c, 0xe2, 0x3c,
  0x64, 0x52, 0xb8, 0xbc, 0xe0, 0xf5, 0xff, 0xff, 0xe4, 0xf5, 0xff, 0xff,
  0x0f, 0x00, 0x00, 0x00, 0x4d, 0x4c, 0x49, 0x52, 0x20, 0x43, 0x6f, 0x6e,
  0x76, 0x65, 0x72, 0x74, 0x65, 0x64, 0x2e, 0x00, 0x01, 0x00, 0x00, 0x00,
  0x14, 0x00, 0x00, 0x00, 0x00, 0x00, 0x0e, 0x00, 0x18, 0x00, 0x14, 0x00,
  0x10, 0x00, 0x0c, 0x00, 0x08, 0x00, 0x04, 0x00, 0x0e, 0x00, 0x00, 0x00,
  0x14, 0x00, 0x00, 0x00, 0x1c, 0x00, 0x00, 0x00, 0x3c, 0x02, 0x00, 0x00,
  0x40, 0x02, 0x00, 0x00, 0x44, 0x02, 0x00, 0x00, 0x04, 0x00, 0x00, 0x00,
  0x6d, 0x61, 0x69, 0x6e, 0x00, 0x00, 0x00, 0x00, 0x08, 0x00, 0x00, 0x00,
  0xd4, 0x01, 0x00, 0x00, 0x70, 0x01, 0x00, 0x00, 0x1c, 0x01, 0x00, 0x00,
  0xd8, 0x00, 0x00, 0x00, 0xb0, 0x00, 0x00, 0x00, 0x60, 0x00, 0x00, 0x00,
  0x28, 0x00, 0x00, 0x00, 0x04, 0x00, 0x00, 0x00, 0x6a, 0xff, 0xff, 0xff,
  0x0c, 0x00, 0x00, 0x00, 0x10, 0x00, 0x00, 0x00, 0x04, 0x00, 0x00, 0x00,
  0x01, 0x00, 0x00, 0x00, 0x11, 0x00, 0x00, 0x00, 0x01, 0x00, 0x00, 0x00,
  0x10, 0x00, 0x00, 0x00, 0xda, 0xfe, 0xff, 0xff, 0x14, 0x00, 0x00, 0x00,
  0x00, 0x00, 0x00, 0x08, 0x10, 0x00, 0x00, 0x00, 0x14, 0x00, 0x00, 0x00,
  0x03, 0x00, 0x00, 0x00, 0x94, 0xf6, 0xff, 0xff, 0x01, 0x00, 0x00, 0x00,
  0x10, 0x00, 0x00, 0x00, 0x03, 0x00, 0x00, 0x00, 0x0f, 0x00, 0x00, 0x00,
  0x09, 0x00, 0x00, 0x00, 0x06, 0x00, 0x00, 0x00, 0x0e, 0xff, 0xff, 0xff,
  0x1c, 0x00, 0x00, 0x00, 0x00, 0x00, 0x00, 0x08, 0x1c, 0x00, 0x00, 0x00,
  0x20, 0x00, 0x00, 0x00, 0x03, 0x00, 0x00, 0x00, 0x00, 0x00, 0x06, 0x00,
  0x08, 0x00, 0x07, 0x00, 0x06, 0x00, 0x00, 0x00, 0x00, 0x00, 0x00, 0x01,
  0x01, 0x00, 0x00, 0x00, 0x0f, 0x00, 0x00, 0x00, 0x03, 0x00, 0x00, 0x00,
  0x0e, 0x00, 0x00, 0x00, 0x08, 0x00, 0x00, 0x00, 0x05, 0x00, 0x00, 0x00,
  0x00, 0x00, 0x0a, 0x00, 0x10, 0x00, 0x0c, 0x00, 0x08, 0x00, 0x04, 0x00,
  0x0a, 0x00, 0x00, 0x00, 0x0c, 0x00, 0x00, 0x00, 0x10, 0x00, 0x00, 0x00,
  0x02, 0x00, 0x00, 0x00, 0x01, 0x00, 0x00, 0x00, 0x0e, 0x00, 0x00, 0x00,
  0x02, 0x00, 0x00, 0x00, 0x0d, 0x00, 0x00, 0x00, 0x07, 0x00, 0x00, 0x00,
  0x7e, 0xff, 0xff, 0xff, 0x14, 0x00, 0x00, 0x00, 0x00, 0x00, 0x00, 0x05,
  0x24, 0x00, 0x00, 0x00, 0x28, 0x00, 0x00, 0x00, 0x01, 0x00, 0x00, 0x00,
  0x6e, 0xff, 0xff, 0xff, 0x02, 0x00, 0x00, 0x00, 0x01, 0x00, 0x00, 0x00,
  0x02, 0x00, 0x00, 0x00, 0x01, 0x00, 0x00, 0x00, 0x00, 0x00, 0x00, 0x01,
  0x01, 0x00, 0x00, 0x00, 0x0d, 0x00, 0x00, 0x00, 0x01, 0x00, 0x00, 0x00,
  0x0c, 0x00, 0x00, 0x00, 0x5e, 0xff, 0xff, 0xff, 0x10, 0x00, 0x00, 0x00,
  0x00, 0x00, 0x00, 0x01, 0x1c, 0x00, 0x00, 0x00, 0x20, 0x00, 0x00, 0x00,
  0x50, 0xff, 0xff, 0xff, 0x00, 0x00, 0x00, 0x01, 0x01, 0x00, 0x00, 0x00,
  0x01, 0x00, 0x00, 0x00, 0x00, 0x00, 0x00, 0x01, 0x01, 0x00, 0x00, 0x00,
  0x0c, 0x00, 0x00, 0x00, 0x03, 0x00, 0x00, 0x00, 0x0b, 0x00, 0x00, 0x00,
  0x04, 0x00, 0x00, 0x00, 0x02, 0x00, 0x00, 0x00, 0x00, 0x00, 0x0e, 0x00,
  0x1a, 0x00, 0x14, 0x00, 0x10, 0x00, 0x0c, 0x00, 0x0b, 0x00, 0x04, 0x00,
  0x0e, 0x00, 0x00, 0x00, 0x24, 0x00, 0x00, 0x00, 0x00, 0x00, 0x00, 0x05,
  0x34, 0x00, 0x00, 0x00, 0x38, 0x00, 0x00, 0x00, 0x01, 0x00, 0x00, 0x00,
  0x00, 0x00, 0x0e, 0x00, 0x18, 0x00, 0x17, 0x00, 0x10, 0x00, 0x0c, 0x00,
  0x08, 0x00, 0x04, 0x00, 0x0e, 0x00, 0x00, 0x00, 0x02, 0x00, 0x00, 0x00,
  0x01, 0x00, 0x00, 0x00, 0x02, 0x00, 0x00, 0x00, 0x01, 0x00, 0x00, 0x00,
  0x00, 0x00, 0x00, 0x01, 0x01, 0x00, 0x00, 0x00, 0x0b, 0x00, 0x00, 0x00,
  0x01, 0x00, 0x00, 0x00, 0x0a, 0x00, 0x00, 0x00, 0x00, 0x00, 0x0e, 0x00,
  0x14, 0x00, 0x00, 0x00, 0x10, 0x00, 0x0c, 0x00, 0x0b, 0x00, 0x04, 0x00,
  0x0e, 0x00, 0x00, 0x00, 0x1c, 0x00, 0x00, 0x00, 0x00, 0x00, 0x00, 0x01,
  0x28, 0x00, 0x00, 0x00, 0x2c, 0x00, 0x00, 0x00, 0x0c, 0x00, 0x14, 0x00,
  0x13, 0x00, 0x0c, 0x00, 0x08, 0x00, 0x07, 0x00, 0x0c, 0x00, 0x00, 0x00,
  0x00, 0x00, 0x00, 0x01, 0x01, 0x00, 0x00, 0x00, 0x01, 0x00, 0x00, 0x00,
  0x00, 0x00, 0x00, 0x01, 0x01, 0x00, 0x00, 0x00, 0x0a, 0x00, 0x00, 0x00,
  0x03, 0x00, 0x00, 0x00, 0x00, 0x00, 0x00, 0x00, 0x03, 0x00, 0x00, 0x00,
  0x01, 0x00, 0x00, 0x00, 0x01, 0x00, 0x00, 0x00, 0x11, 0x00, 0x00, 0x00,
  0x01, 0x00, 0x00, 0x00, 0x00, 0x00, 0x00, 0x00, 0x12, 0x00, 0x00, 0x00,
  0x60, 0x07, 0x00, 0x00, 0xf0, 0x06, 0x00, 0x00, 0x80, 0x06, 0x00, 0x00,
  0x2c, 0x06, 0x00, 0x00, 0xd8, 0x05, 0x00, 0x00, 0x84, 0x05, 0x00, 0x00,
  0x2c, 0x05, 0x00, 0x00, 0xe0, 0x04, 0x00, 0x00, 0x80, 0x04, 0x00, 0x00,
  0x34, 0x04, 0x00, 0x00, 0x70, 0x03, 0x00, 0x00, 0xfc, 0x02, 0x00, 0x00,
  0x30, 0x02, 0x00, 0x00, 0xbc, 0x01, 0x00, 0x00, 0x60, 0x01, 0x00, 0x00,
  0xd8, 0x00, 0x00, 0x00, 0x60, 0x00, 0x00, 0x00, 0x04, 0x00, 0x00, 0x00,
  0xfe, 0xf8, 0xff, 0xff, 0x00, 0x00, 0x00, 0x01, 0x14, 0x00, 0x00, 0x00,
  0x1c, 0x00, 0x00, 0x00, 0x1c, 0x00, 0x00, 0x00, 0x12, 0x00, 0x00, 0x00,
  0x34, 0x00, 0x00, 0x00, 0x02, 0x00, 0x00, 0x00, 0xff, 0xff, 0xff, 0xff,
  0x01, 0x00, 0x00, 0x00, 0xe0, 0xf8, 0xff, 0xff, 0x19, 0x00, 0x00, 0x00,
  0x53, 0x74, 0x61, 0x74, 0x65, 0x66, 0x75, 0x6c, 0x50, 0x61, 0x72, 0x74,
  0x69, 0x74, 0x69, 0x6f, 0x6e, 0x65, 0x64, 0x43, 0x61, 0x6c, 0x6c, 0x3a,
  0x30, 0x00, 0x00, 0x00, 0x02, 0x00, 0x00, 0x00, 0x01, 0x00, 0x00, 0x00,
  0x01, 0x00, 0x00, 0x00, 0x56, 0xf9, 0xff, 0xff, 0x00, 0x00, 0x00, 0x01,
  0x14, 0x00, 0x00, 0x00, 0x1c, 0x00, 0x00, 0x00, 0x1c, 0x00, 0x00, 0x00,
  0x11, 0x00, 0x00, 0x00, 0x50, 0x00, 0x00, 0x00, 0x02, 0x00, 0x00, 0x00,
  0xff, 0xff, 0xff, 0xff, 0x01, 0x00, 0x00, 0x00, 0x38, 0xf9, 0xff, 0xff,
  0x34, 0x00, 0x00, 0x00, 0x73, 0x65, 0x71, 0x75, 0x65, 0x6e, 0x74, 0x69,
  0x61, 0x6c, 0x2f, 0x64, 0x65, 0x6e, 0x73, 0x65, 0x5f, 0x31, 0x2f, 0x4d,
  0x61, 0x74, 0x4d, 0x75, 0x6c, 0x3b, 0x73, 0x65, 0x71, 0x75, 0x65, 0x6e,
  0x74, 0x69, 0x61, 0x6c, 0x2f, 0x64, 0x65, 0x6e, 0x73, 0x65, 0x5f, 0x31,
  0x2f, 0x42, 0x69, 0x61, 0x73, 0x41, 0x64, 0x64, 0x00, 0x00, 0x00, 0x00,
  0x02, 0x00, 0x00, 0x00, 0x01, 0x00, 0x00, 0x00, 0x01, 0x00, 0x00, 0x00,
  0xca, 0xf9, 0xff, 0xff, 0x00, 0x00, 0x00, 0x01, 0x14, 0x00, 0x00, 0x00,
  0x1c, 0x00, 0x00, 0x00, 0x1c, 0x00, 0x00, 0x00, 0x10, 0x00, 0x00, 0x00,
  0x60, 0x00, 0x00, 0x00, 0x02, 0x00, 0x00, 0x00, 0xff, 0xff, 0xff, 0xff,
  0x08, 0x00, 0x00, 0x00, 0xac, 0xf9, 0xff, 0xff, 0x46, 0x00, 0x00, 0x00,
  0x73, 0x65, 0x71, 0x75, 0x65, 0x6e, 0x74, 0x69, 0x61, 0x6c, 0x2f, 0x64,
  0x65, 0x6e, 0x73, 0x65, 0x2f, 0x4d, 0x61, 0x74, 0x4d, 0x75, 0x6c, 0x3b,
  0x73, 0x65, 0x71, 0x75, 0x65, 0x6e, 0x74, 0x69, 0x61, 0x6c, 0x2f, 0x64,
  0x65, 0x6e, 0x73, 0x65, 0x2f, 0x52, 0x65, 0x6c, 0x75, 0x3b, 0x73, 0x65,
  0x71, 0x75, 0x65, 0x6e, 0x74, 0x69, 0x61, 0x6c, 0x2f, 0x64, 0x65, 0x6e,
  0x73, 0x65, 0x2f, 0x42, 0x69, 0x61, 0x73, 0x41, 0x64, 0x64, 0x00, 0x00,
  0x02, 0x00, 0x00, 0x00, 0x01, 0x00, 0x00, 0x00, 0x08, 0x00, 0x00, 0x00,
  0x4e, 0xfa, 0xff, 0xff, 0x00, 0x00, 0x00, 0x01, 0x14, 0x00, 0x00, 0x00,
  0x1c, 0x00, 0x00, 0x00, 0x1c, 0x00, 0x00, 0x00, 0x0f, 0x00, 0x00, 0x00,
  0x34, 0x00, 0x00, 0x00, 0x02, 0x00, 0x00, 0x00, 0xff, 0xff, 0xff, 0xff,
  0x60, 0x00, 0x00, 0x00, 0x30, 0xfa, 0xff, 0xff, 0x1a, 0x00, 0x00, 0x00,
  0x73, 0x65, 0x71, 0x75, 0x65, 0x6e, 0x74, 0x69, 0x61, 0x6c, 0x2f, 0x66,
  0x6c, 0x61, 0x74, 0x74, 0x65, 0x6e, 0x2f, 0x52, 0x65, 0x73, 0x68, 0x61,
  0x70, 0x65, 0x00, 0x00, 0x02, 0x00, 0x00, 0x00, 0x01, 0x00, 0x00, 0x00,
  0x60, 0x00, 0x00, 0x00, 0xa6, 0xfa, 0xff, 0xff, 0x00, 0x00, 0x00, 0x01,
  0x14, 0x00, 0x00, 0x00, 0x24, 0x00, 0x00, 0x00, 0x24, 0x00, 0x00, 0x00,
  0x0e, 0x00, 0x00, 0x00, 0x44, 0x00, 0x00, 0x00, 0x04, 0x00, 0x00, 0x00,
  0xff, 0xff, 0xff, 0xff, 0x06, 0x00, 0x00, 0x00, 0x01, 0x00, 0x00, 0x00,
  0x10, 0x00, 0x00, 0x00, 0x90, 0xfa, 0xff, 0xff, 0x22, 0x00, 0x00, 0x00,
  0x73, 0x65, 0x71, 0x75, 0x65, 0x6e, 0x74, 0x69, 0x61, 0x6c, 0x2f, 0x6d,
  0x61, 0x78, 0x5f, 0x70, 0x6f, 0x6f, 0x6c, 0x69, 0x6e, 0x67, 0x32, 0x64,
  0x5f, 0x31, 0x2f, 0x4d, 0x61, 0x78, 0x50, 0x6f, 0x6f, 0x6c, 0x00, 0x00,
  0x04, 0x00, 0x00, 0x00, 0x01, 0x00, 0x00, 0x00, 0x06, 0x00, 0x00, 0x00,
  0x01, 0x00, 0x00, 0x00, 0x10, 0x00, 0x00, 0x00, 0x16, 0xfb, 0xff, 0xff,
  0x00, 0x00, 0x00, 0x01, 0x14, 0x00, 0x00, 0x00, 0x24, 0x00, 0x00, 0x00,
  0x24, 0x00, 0x00, 0x00, 0x0d, 0x00, 0x00, 0x00, 0x9c, 0x00, 0x00, 0x00,
  0x04, 0x00, 0x00, 0x00, 0xff, 0xff, 0xff, 0xff, 0x0c, 0x00, 0x00, 0x00,
  0x01, 0x00, 0x00, 0x00, 0x10, 0x00, 0x00, 0x00, 0x00, 0xfb, 0xff, 0xff,
  0x7a, 0x00, 0x00, 0x00, 0x73, 0x65, 0x71, 0x75, 0x65, 0x6e, 0x74, 0x69,
  0x61, 0x6c, 0x2f, 0x63, 0x6f, 0x6e, 0x76, 0x32, 0x64, 0x5f, 0x31, 0x2f,
  0x52, 0x65, 0x6c, 0x75, 0x3b, 0x73, 0x65, 0x71, 0x75, 0x65, 0x6e, 0x74,
  0x69, 0x61, 0x6c, 0x2f, 0x63, 0x6f, 0x6e, 0x76, 0x32, 0x64, 0x5f, 0x31,
  0x2f, 0x42, 0x69, 0x61, 0x73, 0x41, 0x64, 0x64, 0x3b, 0x73, 0x65, 0x71,
  0x75, 0x65, 0x6e, 0x74, 0x69, 0x61, 0x6c, 0x2f, 0x63, 0x6f, 0x6e, 0x76,
  0x32, 0x64, 0x5f, 0x31, 0x2f, 0x43, 0x6f, 0x6e, 0x76, 0x32, 0x44, 0x3b,
  0x73, 0x65, 0x71, 0x75, 0x65, 0x6e, 0x74, 0x69, 0x61, 0x6c, 0x2f, 0x63,
  0x6f, 0x6e, 0x76, 0x32, 0x64, 0x5f, 0x31, 0x2f, 0x42, 0x69, 0x61, 0x73,
  0x41, 0x64, 0x64, 0x2f, 0x52, 0x65, 0x61, 0x64, 0x56, 0x61, 0x72, 0x69,
  0x61, 0x62, 0x6c, 0x65, 0x4f, 0x70, 0x00, 0x00, 0x04, 0x00, 0x00, 0x00,
  0x01, 0x00, 0x00, 0x00, 0x0c, 0x00, 0x00, 0x00, 0x01, 0x00, 0x00, 0x00,
  0x10, 0x00, 0x00, 0x00, 0xde, 0xfb, 0xff, 0xff, 0x00, 0x00, 0x00, 0x01,
  0x14, 0x00, 0x00, 0x00, 0x24, 0x00, 0x00, 0x00, 0x24, 0x00, 0x00, 0x00,
  0x0c, 0x00, 0x00, 0x00, 0x44, 0x00, 0x00, 0x00, 0x04, 0x00, 0x00, 0x00,
  0xff, 0xff, 0xff, 0xff, 0x0e, 0x00, 0x00, 0x00, 0x01, 0x00, 0x00, 0x00,
  0x08, 0x00, 0x00, 0x00, 0xc8, 0xfb, 0xff, 0xff, 0x20, 0x00, 0x00, 0x00,
  0x73, 0x65, 0x71, 0x75, 0x65, 0x6e, 0x74, 0x69, 0x61, 0x6c, 0x2f, 0x6d,
  0x61, 0x78, 0x5f, 0x70, 0x6f, 0x6f, 0x6c, 0x69, 0x6e, 0x67, 0x32, 0x64,
  0x2f, 0x4d, 0x61, 0x78, 0x50, 0x6f, 0x6f, 0x6c, 0x00, 0x00, 0x00, 0x00,
  0x04, 0x00, 0x00, 0x00, 0x01, 0x00, 0x00, 0x00, 0x0e, 0x00, 0x00, 0x00,
  0x01, 0x00, 0x00, 0x00, 0x08, 0x00, 0x00, 0x00, 0x4e, 0xfc, 0xff, 0xff,
  0x00, 0x00, 0x00, 0x01, 0x14, 0x00, 0x00, 0x00, 0x24, 0x00, 0x00, 0x00,
  0x24, 0x00, 0x00, 0x00, 0x0b, 0x00, 0x00, 0x00, 0x94, 0x00, 0x00, 0x00,
  0x04, 0x00, 0x00, 0x00, 0xff, 0xff, 0xff, 0xff, 0x1c, 0x00, 0x00, 0x00,
  0x01, 0x00, 0x00, 0x00, 0x08, 0x00, 0x00, 0x00, 0x38, 0xfc, 0xff, 0xff,
  0x72, 0x00, 0x00, 0x00, 0x73, 0x65, 0x71, 0x75, 0x65, 0x6e, 0x74, 0x69,
  0x61, 0x6c, 0x2f, 0x63, 0x6f, 0x6e, 0x76, 0x32, 0x64, 0x2f, 0x52, 0x65,
  0x6c, 0x75, 0x3b, 0x73, 0x65, 0x71, 0x75, 0x65, 0x6e, 0x74, 0x69, 0x61,
  0x6c, 0x2f, 0x63, 0x6f, 0x6e, 0x76, 0x32, 0x64, 0x2f, 0x42, 0x69, 0x61,
  0x73, 0x41, 0x64, 0x64, 0x3b, 0x73, 0x65, 0x71, 0x75, 0x65, 0x6e, 0x74,
  0x69, 0x61, 0x6c, 0x2f, 0x63, 0x6f, 0x6e, 0x76, 0x32, 0x64, 0x2f, 0x43,
  0x6f, 0x6e, 0x76, 0x32, 0x44, 0x3b, 0x73, 0x65, 0x71, 0x75, 0x65, 0x6e,
  0x74, 0x69, 0x61, 0x6c, 0x2f, 0x63, 0x6f, 0x6e, 0x76, 0x32, 0x64, 0x2f,
  0x42, 0x69, 0x61, 0x73, 0x41, 0x64, 0x64, 0x2f, 0x52, 0x65, 0x61, 0x64,
  0x56, 0x61, 0x72, 0x69, 0x61, 0x62, 0x6c, 0x65, 0x4f, 0x70, 0x00, 0x00,
  0x04, 0x00, 0x00, 0x00, 0x01, 0x00, 0x00, 0x00, 0x1c, 0x00, 0x00, 0x00,
  0x01, 0x00, 0x00, 0x00, 0x08, 0x00, 0x00, 0x00, 0x7a, 0xfd, 0xff, 0xff,
  0x00, 0x00, 0x00, 0x01, 0x10, 0x00, 0x00, 0x00, 0x10, 0x00, 0x00, 0x00,
  0x0a, 0x00, 0x00, 0x00, 0x28, 0x00, 0x00, 0x00, 0xe0, 0xfc, 0xff, 0xff,
  0x19, 0x00, 0x00, 0x00, 0x73, 0x65, 0x71, 0x75, 0x65, 0x6e, 0x74, 0x69,
  0x61, 0x6c, 0x2f, 0x64, 0x65, 0x6e, 0x73, 0x65, 0x5f, 0x31, 0x2f, 0x4d,
  0x61, 0x74, 0x4d, 0x75, 0x6c, 0x00, 0x00, 0x00, 0x02, 0x00, 0x00, 0x00,
  0x01, 0x00, 0x00, 0x00, 0x08, 0x00, 0x00, 0x00, 0xc2, 0xfd, 0xff, 0xff,
  0x00, 0x00, 0x00, 0x01, 0x10, 0x00, 0x00, 0x00, 0x10, 0x00, 0x00, 0x00,
  0x09, 0x00, 0x00, 0x00, 0x24, 0x00, 0x00, 0x00, 0x28, 0xfd, 0xff, 0xff,
  0x17, 0x00, 0x00, 0x00, 0x73, 0x65, 0x71, 0x75, 0x65, 0x6e, 0x74, 0x69,
  0x61, 0x6c, 0x2f, 0x64, 0x65, 0x6e, 0x73, 0x65, 0x2f, 0x4d, 0x61, 0x74,
  0x4d, 0x75, 0x6c, 0x00, 0x02, 0x00, 0x00, 0x00, 0x08, 0x00, 0x00, 0x00,
  0x60, 0x00, 0x00, 0x00, 0x00, 0x00, 0x16, 0x00, 0x1c, 0x00, 0x18, 0x00,
  0x17, 0x00, 0x10, 0x00, 0x0c, 0x00, 0x08, 0x00, 0x00, 0x00, 0x00, 0x00,
  0x00, 0x00, 0x07, 0x00, 0x16, 0x00, 0x00, 0x00, 0x00, 0x00, 0x00, 0x01,
  0x14, 0x00, 0x00, 0x00, 0x14, 0x00, 0x00, 0x00, 0x08, 0x00, 0x00, 0x00,
  0x00, 0x00, 0x00, 0x02, 0x28, 0x00, 0x00, 0x00, 0x88, 0xfd, 0xff, 0xff,
  0x18, 0x00, 0x00, 0x00, 0x73, 0x65, 0x71, 0x75, 0x65, 0x6e, 0x74, 0x69,
  0x61, 0x6c, 0x2f, 0x66, 0x6c, 0x61, 0x74, 0x74, 0x65, 0x6e, 0x2f, 0x43,
  0x6f, 0x6e, 0x73, 0x74, 0x00, 0x00, 0x00, 0x00, 0x01, 0x00, 0x00, 0x00,
  0x02, 0x00, 0x00, 0x00, 0x66, 0xfe, 0xff, 0xff, 0x00, 0x00, 0x00, 0x01,
  0x10, 0x00, 0x00, 0x00, 0x10, 0x00, 0x00, 0x00, 0x07, 0x00, 0x00, 0x00,
  0x38, 0x00, 0x00, 0x00, 0xcc, 0xfd, 0xff, 0xff, 0x29, 0x00, 0x00, 0x00,
  0x73, 0x65, 0x71, 0x75, 0x65, 0x6e, 0x74, 0x69, 0x61, 0x6c, 0x2f, 0x64,
  0x65, 0x6e, 0x73, 0x65, 0x5f, 0x31, 0x2f, 0x42, 0x69, 0x61, 0x73, 0x41,
  0x64, 0x64, 0x2f, 0x52, 0x65, 0x61, 0x64, 0x56, 0x61, 0x72, 0x69, 0x61,
  0x62, 0x6c, 0x65, 0x4f, 0x70, 0x00, 0x00, 0x00, 0x01, 0x00, 0x00, 0x00,
  0x01, 0x00, 0x00, 0x00, 0xba, 0xfe, 0xff, 0xff, 0x00, 0x00, 0x00, 0x01,
  0x10, 0x00, 0x00, 0x00, 0x10, 0x00, 0x00, 0x00, 0x06, 0x00, 0x00, 0x00,
  0x34, 0x00, 0x00, 0x00, 0x20, 0xfe, 0xff, 0xff, 0x27, 0x00, 0x00, 0x00,
  0x73, 0x65, 0x71, 0x75, 0x65, 0x6e, 0x74, 0x69, 0x61, 0x6c, 0x2f, 0x64,
  0x65, 0x6e, 0x73, 0x65, 0x2f, 0x42, 0x69, 0x61, 0x73, 0x41, 0x64, 0x64,
  0x2f, 0x52, 0x65, 0x61, 0x64, 0x56, 0x61, 0x72, 0x69, 0x61, 0x62, 0x6c,
  0x65, 0x4f, 0x70, 0x00, 0x01, 0x00, 0x00, 0x00, 0x08, 0x00, 0x00, 0x00,
  0x0a, 0xff, 0xff, 0xff, 0x00, 0x00, 0x00, 0x01, 0x10, 0x00, 0x00, 0x00,
  0x10, 0x00, 0x00, 0x00, 0x05, 0x00, 0x00, 0x00, 0x28, 0x00, 0x00, 0x00,
  0x70, 0xfe, 0xff, 0xff, 0x1a, 0x00, 0x00, 0x00, 0x73, 0x65, 0x71, 0x75,
  0x65, 0x6e, 0x74, 0x69, 0x61, 0x6c, 0x2f, 0x63, 0x6f, 0x6e, 0x76, 0x32,
  0x64, 0x5f, 0x31, 0x2f, 0x43, 0x6f, 0x6e, 0x76, 0x32, 0x44, 0x00, 0x00,
  0x04, 0x00, 0x00, 0x00, 0x10, 0x00, 0x00, 0x00, 0x03, 0x00, 0x00, 0x00,
  0x01, 0x00, 0x00, 0x00, 0x08, 0x00, 0x00, 0x00, 0x5a, 0xff, 0xff, 0xff,
  0x00, 0x00, 0x00, 0x01, 0x10, 0x00, 0x00, 0x00, 0x10, 0x00, 0x00, 0x00,
  0x04, 0x00, 0x00, 0x00, 0x28, 0x00, 0x00, 0x00, 0xc0, 0xfe, 0xff, 0xff,
  0x18, 0x00, 0x00, 0x00, 0x73, 0x65, 0x71, 0x75, 0x65, 0x6e, 0x74, 0x69,
  0x61, 0x6c, 0x2f, 0x63, 0x6f, 0x6e, 0x76, 0x32, 0x64, 0x2f, 0x43, 0x6f,
  0x6e, 0x76, 0x32, 0x44, 0x00, 0x00, 0x00, 0x00, 0x04, 0x00, 0x00, 0x00,
  0x08, 0x00, 0x00, 0x00, 0x03, 0x00, 0x00, 0x00, 0x01, 0x00, 0x00, 0x00,
  0x01, 0x00, 0x00, 0x00, 0xaa, 0xff, 0xff, 0xff, 0x00, 0x00, 0x00, 0x01,
  0x10, 0x00, 0x00, 0x00, 0x10, 0x00, 0x00, 0x00, 0x03, 0x00, 0x00, 0x00,
  0x38, 0x00, 0x00, 0x00, 0x10, 0xff, 0xff, 0xff, 0x2a, 0x00, 0x00, 0x00,
  0x73, 0x65, 0x71, 0x75, 0x65, 0x6e, 0x74, 0x69, 0x61, 0x6c, 0x2f, 0x63,
  0x6f, 0x6e, 0x76, 0x32, 0x64, 0x5f, 0x31, 0x2f, 0x42, 0x69, 0x61, 0x73,
  0x41, 0x64, 0x64, 0x2f, 0x52, 0x65, 0x61, 0x64, 0x56, 0x61, 0x72, 0x69,
  0x61, 0x62, 0x6c, 0x65, 0x4f, 0x70, 0x00, 0x00, 0x01, 0x00, 0x00, 0x00,
  0x10, 0x00, 0x00, 0x00, 0x00, 0x00, 0x16, 0x00, 0x18, 0x00, 0x14, 0x00,
  0x00, 0x00, 0x10, 0x00, 0x0c, 0x00, 0x08, 0x00, 0x00, 0x00, 0x00, 0x00,
  0x00, 0x00, 0x07, 0x00, 0x16, 0x00, 0x00, 0x00, 0x00, 0x00, 0x00, 0x01,
  0x10, 0x00, 0x00, 0x00, 0x10, 0x00, 0x00, 0x00, 0x02, 0x00, 0x00, 0x00,
  0x38, 0x00, 0x00, 0x00, 0x7c, 0xff, 0xff, 0xff, 0x28, 0x00, 0x00, 0x00,
  0x73, 0x65, 0x71, 0x75, 0x65, 0x6e, 0x74, 0x69, 0x61, 0x6c, 0x2f, 0x63,
  0x6f, 0x6e, 0x76, 0x32, 0x64, 0x2f, 0x42, 0x69, 0x61, 0x73, 0x41, 0x64,
  0x64, 0x2f, 0x52, 0x65, 0x61, 0x64, 0x56, 0x61, 0x72, 0x69, 0x61, 0x62,
  0x6c, 0x65, 0x4f, 0x70, 0x00, 0x00, 0x00, 0x00, 0x01, 0x00, 0x00, 0x00,
  0x08, 0x00, 0x00, 0x00, 0x00, 0x00, 0x16, 0x00, 0x1c, 0x00, 0x18, 0x00,
  0x00, 0x00, 0x14, 0x00, 0x10, 0x00, 0x0c, 0x00, 0x00, 0x00, 0x00, 0x00,
  0x08, 0x00, 0x07, 0x00, 0x16, 0x00, 0x00, 0x00, 0x00, 0x00, 0x00, 0x01,
  0x14, 0x00, 0x00, 0x00, 0x28, 0x00, 0x00, 0x00, 0x28, 0x00, 0x00, 0x00,
  0x01, 0x00, 0x00, 0x00, 0x44, 0x00, 0x00, 0x00, 0x04, 0x00, 0x00, 0x00,
  0xff, 0xff, 0xff, 0xff, 0x1e, 0x00, 0x00, 0x00, 0x01, 0x00, 0x00, 0x00,
  0x01, 0x00, 0x00, 0x00, 0x04, 0x00, 0x04, 0x00, 0x04, 0x00, 0x00, 0x00,
  0x1e, 0x00, 0x00, 0x00, 0x73, 0x65, 0x72, 0x76, 0x69, 0x6e, 0x67, 0x5f,
  0x64, 0x65, 0x66, 0x61, 0x75, 0x6c, 0x74, 0x5f, 0x63, 0x6f, 0x6e, 0x76,
  0x32, 0x64, 0x5f, 0x69, 0x6e, 0x70, 0x75, 0x74, 0x3a, 0x30, 0x00, 0x00,
  0x04, 0x00, 0x00, 0x00, 0x01, 0x00, 0x00, 0x00, 0x1e, 0x00, 0x00, 0x00,
  0x01, 0x00, 0x00, 0x00, 0x01, 0x00, 0x00, 0x00, 0x05, 0x00, 0x00, 0x00,
  0x50, 0x00, 0x00, 0x00, 0x34, 0x00, 0x00, 0x00, 0x24, 0x00, 0x00, 0x00,
  0x14, 0x00, 0x00, 0x00, 0x04, 0x00, 0x00, 0x00, 0xd0, 0xff, 0xff, 0xff,
  0x0e, 0x00, 0x00, 0x00, 0x00, 0x00, 0x00, 0x0e, 0xdc, 0xff, 0xff, 0xff,
  0x09, 0x00, 0x00, 0x00, 0x00, 0x00, 0x00, 0x09, 0xe8, 0xff, 0xff, 0xff,
  0x16, 0x00, 0x00, 0x00, 0x00, 0x00, 0x00, 0x16, 0xf4, 0xff, 0xff, 0xff,
  0x11, 0x00, 0x00, 0x00, 0x00, 0x00, 0x00, 0x11, 0x0c, 0x00, 0x0c, 0x00,
  0x0b, 0x00, 0x00, 0x00, 0x00, 0x00, 0x04, 0x00, 0x0c, 0x00, 0x00, 0x00,
  0x03, 0x00, 0x00, 0x00, 0x00, 0x00, 0x00, 0x03
};
unsigned int model_tflite_len = 8252;
