unsigned char pose_tflite[] = {
  0x1c, 0x00, 0x00, 0x00, 0x54, 0x46, 0x4c, 0x33, 0x14, 0x00, 0x20, 0x00,
  0x1c, 0x00, 0x18, 0x00, 0x14, 0x00, 0x10, 0x00, 0x0c, 0x00, 0x00, 0x00,
  0x08, 0x00, 0x04, 0x00, 0x14, 0x00, 0x00, 0x00, 0x1c, 0x00, 0x00, 0x00,
  0x8c, 0x00, 0x00, 0x00, 0xe4, 0x00, 0x00, 0x00, 0x14, 0x2a, 0x00, 0x00,
  0x24, 0x2a, 0x00, 0x00, 0x20, 0x31, 0x00, 0x00, 0x03, 0x00, 0x00, 0x00,
  0x01, 0x00, 0x00, 0x00, 0x10, 0x00, 0x00, 0x00, 0x00, 0x00, 0x0a, 0x00,
  0x10, 0x00, 0x0c, 0x00, 0x08, 0x00, 0x04, 0x00, 0x0a, 0x00, 0x00, 0x00,
  0x0c, 0x00, 0x00, 0x00, 0x1c, 0x00, 0x00, 0x00, 0x38, 0x00, 0x00, 0x00,
  0x0f, 0x00, 0x00, 0x00, 0x73, 0x65, 0x72, 0x76, 0x69, 0x6e, 0x67, 0x5f,
  0x64, 0x65, 0x66, 0x61, 0x75, 0x6c, 0x74, 0x00, 0x01, 0x00, 0x00, 0x00,
  0x04, 0x00, 0x00, 0x00, 0x9c, 0xff, 0xff, 0xff, 0x09, 0x00, 0x00, 0x00,
  0x04, 0x00, 0x00, 0x00, 0x07, 0x00, 0x00, 0x00, 0x64, 0x65, 0x6e, 0x73,
  0x65, 0x5f, 0x32, 0x00, 0x01, 0x00, 0x00, 0x00, 0x04, 0x00, 0x00, 0x00,
  0x76, 0xd8, 0xff, 0xff, 0x04, 0x00, 0x00, 0x00, 0x07, 0x00, 0x00, 0x00,
  0x69, 0x6e, 0x70, 0x75, 0x74, 0x5f, 0x31, 0x00, 0x02, 0x00, 0x00, 0x00,
  0x34, 0x00, 0x00, 0x00, 0x04, 0x00, 0x00, 0x00, 0xdc, 0xff, 0xff, 0xff,
  0x0c, 0x00, 0x00, 0x00, 0x04, 0x00, 0x00, 0x00, 0x13, 0x00, 0x00, 0x00,
  0x43, 0x4f, 0x4e, 0x56, 0x45, 0x52, 0x53, 0x49, 0x4f, 0x4e, 0x5f, 0x4d,
  0x45, 0x54, 0x41, 0x44, 0x41, 0x54, 0x41, 0x00, 0x08, 0x00, 0x0c, 0x00,
  0x08, 0x00, 0x04, 0x00, 0x08, 0x00, 0x00, 0x00, 0x0b, 0x00, 0x00, 0x00,
  0x04, 0x00, 0x00, 0x00, 0x13, 0x00, 0x00, 0x00, 0x6d, 0x69, 0x6e, 0x5f,
  0x72, 0x75, 0x6e, 0x74, 0x69, 0x6d, 0x65, 0x5f, 0x76, 0x65, 0x72, 0x73,
  0x69, 0x6f, 0x6e, 0x00, 0x0d, 0x00, 0x00, 0x00, 0x2c, 0x29, 0x00, 0x00,
  0x24, 0x29, 0x00, 0x00, 0x14, 0x27, 0x00, 0x00, 0xfc, 0x25, 0x00, 0x00,
  0xec, 0x05, 0x00, 0x00, 0xdc, 0x03, 0x00, 0x00, 0xcc, 0x00, 0x00, 0x00,
  0xa4, 0x00, 0x00, 0x00, 0x9c, 0x00, 0x00, 0x00, 0x94, 0x00, 0x00, 0x00,
  0x8c, 0x00, 0x00, 0x00, 0x6c, 0x00, 0x00, 0x00, 0x04, 0x00, 0x00, 0x00,
  0x1e, 0xd9, 0xff, 0xff, 0x04, 0x00, 0x00, 0x00, 0x58, 0x00, 0x00, 0x00,
  0x0c, 0x00, 0x00, 0x00, 0x08, 0x00, 0x0e, 0x00, 0x08, 0x00, 0x04, 0x00,
  0x08, 0x00, 0x00, 0x00, 0x10, 0x00, 0x00, 0x00, 0x28, 0x00, 0x00, 0x00,
  0x00, 0x00, 0x06, 0x00, 0x08, 0x00, 0x04, 0x00, 0x06, 0x00, 0x00, 0x00,
  0x04, 0x00, 0x00, 0x00, 0x01, 0x00, 0x00, 0x00, 0xeb, 0x03, 0x00, 0x00,
  0x00, 0x00, 0x0a, 0x00, 0x10, 0x00, 0x0c, 0x00, 0x08, 0x00, 0x04, 0x00,
  0x0a, 0x00, 0x00, 0x00, 0x02, 0x00, 0x00, 0x00, 0x02, 0x00, 0x00, 0x00,
  0x04, 0x00, 0x00, 0x00, 0x05, 0x00, 0x00, 0x00, 0x32, 0x2e, 0x39, 0x2e,
  0x30, 0x00, 0x00, 0x00, 0x82, 0xd9, 0xff, 0xff, 0x04, 0x00, 0x00, 0x00,
  0x10, 0x00, 0x00, 0x00, 0x31, 0x2e, 0x31, 0x34, 0x2e, 0x30, 0x00, 0x00,
  0x00, 0x00, 0x00, 0x00, 0x00, 0x00, 0x00, 0x00, 0x10, 0xd7, 0xff, 0xff,
  0x14, 0xd7, 0xff, 0xff, 0x18, 0xd7, 0xff, 0xff, 0xaa, 0xd9, 0xff, 0xff,
  0x04, 0x00, 0x00, 0x00, 0x18, 0x00, 0x00, 0x00, 0xf3, 0x05, 0x00, 0x00,
  0xee, 0xfb, 0xff, 0xff, 0xa0, 0x04, 0x00, 0x00, 0x39, 0xfc, 0xff, 0xff,
  0x3b, 0xfd, 0xff, 0xff, 0x97, 0xfb, 0xff, 0xff, 0xce, 0xd9, 0xff, 0xff,
  0x04, 0x00, 0x00, 0x00, 0x00, 0x03, 0x00, 0x00, 0x46, 0x37, 0xc5, 0x64,
  0xe1, 0x54, 0xa5, 0xcf, 0x54, 0xfe, 0xd9, 0x46, 0xc1, 0xc3, 0x47, 0x27,
  0xa4, 0x34, 0xe0, 0xe9, 0x20, 0x50, 0x27, 0xd8, 0xc7, 0x6e, 0x8a, 0xf6,
  0xd6, 0x18, 0xac, 0x39, 0xda, 0x1a, 0xc7, 0xe2, 0xae, 0xe3, 0xb0, 0x11,
  0x43, 0xd4, 0xfe, 0xd5, 0x20, 0x2f, 0xb8, 0x1f, 0x69, 0x35, 0xe8, 0x97,
  0xc3, 0xcf, 0xcb, 0xf0, 0x8e, 0x0d, 0xe6, 0x0e, 0xc0, 0x4a, 0x30, 0xe1,
  0x9d, 0x8e, 0x2f, 0x00, 0xf6, 0xc7, 0x03, 0x5b, 0x19, 0x9b, 0x0a, 0xa0,
  0xbc, 0xb9, 0xa3, 0xfe, 0xe8, 0x44, 0x46, 0xfa, 0x49, 0x31, 0xc1, 0x94,
  0x41, 0x46, 0x1b, 0xd8, 0x64, 0xbf, 0x4d, 0x29, 0x06, 0xeb, 0x66, 0xc2,
  0x5d, 0xec, 0xb9, 0x12, 0x16, 0x69, 0xaf, 0xa0, 0x6b, 0xf8, 0x15, 0xbf,
  0xf5, 0xdf, 0x13, 0x15, 0xae, 0xa0, 0xfa, 0xfd, 0x13, 0xbc, 0xfa, 0xff,
  0x23, 0x20, 0x17, 0x4d, 0xfd, 0xef, 0x06, 0xe2, 0x40, 0xe0, 0xe7, 0x3a,
  0x9f, 0xf3, 0x54, 0x25, 0xb4, 0x4c, 0x2e, 0xef, 0xf8, 0xf1, 0xdd, 0x11,
  0xf3, 0x98, 0x22, 0x48, 0xf8, 0x0e, 0x10, 0x97, 0x38, 0x37, 0xcd, 0x30,
  0x58, 0x01, 0x9b, 0xb7, 0xf1, 0xbd, 0xb3, 0x02, 0xc5, 0x2e, 0x13, 0xd6,
  0xff, 0x0e, 0x62, 0xd6, 0x16, 0xb1, 0xbb, 0x66, 0x41, 0xaf, 0x1f, 0x52,
  0xae, 0xb7, 0x2d, 0xa8, 0xf5, 0x1e, 0xfe, 0x96, 0x47, 0x32, 0xc1, 0xd9,
  0x24, 0x1c, 0x03, 0xfe, 0x14, 0x2d, 0x52, 0xf9, 0x39, 0xc3, 0x2c, 0x66,
  0x34, 0xc2, 0xd7, 0x4d, 0xb4, 0xdd, 0xff, 0x15, 0x41, 0xcf, 0x51, 0xf7,
  0x92, 0x8f, 0xf9, 0xcf, 0x24, 0xba, 0x2c, 0xfd, 0x2e, 0x9f, 0xab, 0x39,
  0xdf, 0x0c, 0x52, 0x04, 0xe6, 0xb0, 0xd9, 0xf0, 0x32, 0xd4, 0xe6, 0x20,
  0x3c, 0x12, 0x22, 0x43, 0xd9, 0x14, 0x53, 0x20, 0x2f, 0x85, 0xce, 0xae,
  0xab, 0xdb, 0xf4, 0xc9, 0x50, 0xc0, 0x2c, 0x56, 0xf7, 0x3b, 0xe4, 0x21,
  0xef, 0xb6, 0xea, 0x35, 0xef, 0xd0, 0xb6, 0x91, 0x08, 0x5d, 0x15, 0xf6,
  0xad, 0xdd, 0xe1, 0x35, 0xe3, 0x16, 0xd2, 0xae, 0x99, 0x50, 0x1a, 0xe4,
  0x66, 0x5e, 0x43, 0xc1, 0xe1, 0xf3, 0xf8, 0x67, 0x9d, 0x85, 0x36, 0x2b,
  0x81, 0x60, 0x0a, 0xf6, 0xfd, 0x19, 0xc8, 0xb8, 0x06, 0xf3, 0x97, 0xab,
  0xfb, 0xe2, 0xc9, 0x6c, 0xf4, 0xc6, 0x2b, 0x50, 0xd1, 0xd5, 0x3a, 0x11,
  0x5e, 0xf6, 0xd6, 0x42, 0xf2, 0xb4, 0xd6, 0x27, 0xc4, 0xef, 0xea, 0xa4,
  0x5d, 0x20, 0x61, 0xa8, 0x47, 0xbd, 0x1f, 0xd7, 0xb9, 0x53, 0xcb, 0x46,
  0x2e, 0xd1, 0x4b, 0x33, 0xd1, 0x27, 0x08, 0x1b, 0xae, 0x0d, 0xde, 0xad,
  0xcf, 0x24, 0xc0, 0x04, 0xcc, 0xe1, 0x3d, 0x4e, 0xdf, 0x54, 0xcc, 0xb2,
  0x01, 0x1c, 0x38, 0xaa, 0xa6, 0x1d, 0x16, 0xb9, 0x03, 0x43, 0xea, 0xe4,
  0xdd, 0xf1, 0x55, 0x0a, 0xb6, 0x1c, 0xdc, 0x05, 0x09, 0x10, 0xb9, 0xb5,
  0x1a, 0x24, 0x4b, 0xb5, 0xf4, 0x46, 0x09, 0xd2, 0x53, 0xc0, 0x43, 0xa0,
  0xf3, 0x01, 0x30, 0x32, 0x42, 0xfc, 0x45, 0x35, 0xd0, 0xd3, 0x4a, 0x21,
  0xa9, 0x54, 0xa4, 0x23, 0x42, 0x38, 0x98, 0xdd, 0xec, 0xad, 0x07, 0x19,
  0x2f, 0xb4, 0x38, 0xd8, 0xf1, 0x99, 0xe4, 0xa9, 0xd5, 0xee, 0xc2, 0xe1,
  0xf1, 0x1e, 0x4e, 0x01, 0xdc, 0x59, 0x3d, 0xd4, 0x31, 0xa8, 0x33, 0xb1,
  0x3d, 0x57, 0xde, 0xa3, 0xbc, 0x00, 0xab, 0x04, 0xcd, 0x40, 0xf1, 0x21,
  0xf2, 0x17, 0x05, 0x1d, 0x55, 0x34, 0x26, 0xba, 0x4b, 0x26, 0x0b, 0x4c,
  0xa6, 0xa7, 0xa2, 0xea, 0xae, 0xce, 0x3d, 0x24, 0xcd, 0xe8, 0xe5, 0x45,
  0xe5, 0x5b, 0xf2, 0x12, 0x9c, 0x05, 0x23, 0x1f, 0x43, 0xfb, 0xfe, 0x3a,
  0xa3, 0x48, 0x37, 0x46, 0xb3, 0x04, 0x29, 0xea, 0xd6, 0x5a, 0xad, 0xee,
  0xaf, 0xbc, 0x55, 0x11, 0x3c, 0xbd, 0x4a, 0x5b, 0x1f, 0x89, 0xbf, 0x97,
  0xa9, 0xd1, 0x20, 0x0a, 0x36, 0x97, 0xe6, 0x04, 0x92, 0x12, 0xcb, 0xa3,
  0xcb, 0xcb, 0x0c, 0x10, 0xf3, 0x10, 0xd0, 0x30, 0x0d, 0xeb, 0x40, 0x57,
  0xf0, 0xd7, 0x24, 0x2a, 0xf0, 0xba, 0x0c, 0xa9, 0x1a, 0x9f, 0x53, 0x42,
  0x25, 0x15, 0xae, 0xed, 0xcd, 0x2b, 0x61, 0x0b, 0xae, 0x54, 0x14, 0x3c,
  0x0d, 0x07, 0x23, 0x3c, 0x97, 0x07, 0xda, 0x23, 0x24, 0xf4, 0x38, 0xb1,
  0xfc, 0x1e, 0xcf, 0x00, 0xbb, 0xdd, 0xe4, 0x20, 0x48, 0x28, 0xfd, 0x1e,
  0xb0, 0x0f, 0xf3, 0x0b, 0xe8, 0x41, 0xe2, 0xa2, 0x48, 0xcb, 0x4f, 0xd6,
  0x18, 0x9e, 0x29, 0x4b, 0x46, 0xc6, 0x29, 0xd9, 0xe6, 0x4d, 0x5b, 0x12,
  0x11, 0x36, 0x04, 0xc0, 0x26, 0xf2, 0xdf, 0xeb, 0x30, 0x27, 0xcd, 0xe0,
  0xd3, 0xc2, 0x56, 0x58, 0xa8, 0x08, 0xf9, 0xbf, 0x1d, 0x41, 0x11, 0xb6,
  0x5c, 0x40, 0xce, 0xb7, 0x57, 0xcb, 0xc3, 0x0e, 0x0f, 0x18, 0xa3, 0x43,
  0x42, 0x1c, 0xf3, 0x28, 0xae, 0x90, 0x3d, 0x0e, 0xda, 0x41, 0x15, 0xdb,
  0x42, 0xb7, 0xef, 0xc4, 0x26, 0xff, 0xb6, 0xd2, 0x43, 0xc7, 0x4e, 0x09,
  0xaf, 0x49, 0xb9, 0xf4, 0xaf, 0x53, 0x17, 0x0a, 0x8b, 0x50, 0xb9, 0x58,
  0x0b, 0x4d, 0xdc, 0x42, 0x31, 0x0a, 0xf8, 0x9b, 0xce, 0xe6, 0xa3, 0xe3,
  0x69, 0xff, 0xf2, 0xd9, 0x4f, 0x12, 0xf6, 0xa0, 0x60, 0x1b, 0xa1, 0xdf,
  0x0a, 0xe7, 0xa8, 0x1e, 0x33, 0x1c, 0x34, 0xcd, 0x1a, 0xef, 0x0b, 0x31,
  0x01, 0xcb, 0x2f, 0x44, 0xa2, 0x54, 0x20, 0x54, 0x58, 0x05, 0xf4, 0x3d,
  0xb6, 0x3e, 0xc3, 0x11, 0x18, 0x2f, 0xa5, 0x58, 0xce, 0x16, 0xd1, 0xcc,
  0xae, 0xde, 0xb4, 0x5c, 0x0d, 0x09, 0xca, 0xff, 0xda, 0xdc, 0xff, 0xff,
  0x04, 0x00, 0x00, 0x00, 0x00, 0x02, 0x00, 0x00, 0xde, 0x6f, 0x00, 0x00,
  0x91, 0x22, 0x00, 0x00, 0xd4, 0xc5, 0xff, 0xff, 0x9d, 0xe9, 0xff, 0xff,
  0x8c, 0xf5, 0xff, 0xff, 0x63, 0xfd, 0xff, 0xff, 0x48, 0xb1, 0xff, 0xff,
  0x87, 0x00, 0x00, 0x00, 0xc7, 0x58, 0x00, 0x00, 0x10, 0xca, 0xff, 0xff,
  0x55, 0x90, 0xff, 0xff, 0xd0, 0x5e, 0x00, 0x00, 0x7a, 0xc4, 0xff, 0xff,
  0x5e, 0x10, 0x00, 0x00, 0xdf, 0x47, 0x00, 0x00, 0xf7, 0x1d, 0x00, 0x00,
  0x01, 0xc1, 0xff, 0xff, 0x9a, 0xf1, 0xff, 0xff, 0x54, 0xcc, 0xff, 0xff,
  0x6d, 0x22, 0x00, 0x00, 0x23, 0x40, 0x00, 0x00, 0xd3, 0x2b, 0x00, 0x00,
  0x4b, 0x51, 0x00, 0x00, 0xfe, 0xe2, 0xff, 0xff, 0xd3, 0xe6, 0xff, 0xff,
  0x64, 0x3e, 0x00, 0x00, 0x17, 0x19, 0x00, 0x00, 0x3d, 0xfe, 0xff, 0xff,
  0xe4, 0xe7, 0xff, 0xff, 0xce, 0x3b, 0x00, 0x00, 0x0e, 0xfe, 0xff, 0xff,
  0xfe, 0x13, 0x00, 0x00, 0x58, 0xf5, 0xff, 0xff, 0x1c, 0x03, 0x00, 0x00,
  0xd0, 0x10, 0x00, 0x00, 0xe6, 0x16, 0x00, 0x00, 0x66, 0xf7, 0xff, 0xff,
  0x73, 0x18, 0x00, 0x00, 0x87, 0x1f, 0x00, 0x00, 0x19, 0xfa, 0xff, 0xff,
  0x07, 0x0a, 0x00, 0x00, 0x03, 0xe6, 0xff, 0xff, 0x2f, 0xb2, 0xff, 0xff,
  0xa4, 0xfd, 0xff, 0xff, 0x84, 0xf1, 0xff, 0xff, 0x3d, 0x3d, 0x00, 0x00,
  0x0c, 0xf0, 0xff, 0xff, 0x6e, 0xfd, 0xff, 0xff, 0x92, 0x45, 0x00, 0x00,
  0x4d, 0x45, 0x00, 0x00, 0x9c, 0x01, 0x00, 0x00, 0x67, 0x0c, 0x00, 0x00,
  0xb0, 0x0c, 0x00, 0x00, 0xa4, 0xe5, 0xff, 0xff, 0x82, 0x0d, 0x00, 0x00,
  0xdb, 0xec, 0xff, 0xff, 0x83, 0xec, 0xff, 0xff, 0xa1, 0x0b, 0x00, 0x00,
  0xa1, 0x17, 0x00, 0x00, 0xeb, 0x38, 0x00, 0x00, 0xe6, 0xfe, 0xff, 0xff,
  0x07, 0x15, 0x00, 0x00, 0x79, 0xbb, 0xff, 0xff, 0x91, 0xf5, 0xff, 0xff,
  0xb5, 0x06, 0x00, 0x00, 0xe5, 0xf7, 0xff, 0xff, 0x8d, 0x20, 0x00, 0x00,
  0x1d, 0x2c, 0x00, 0x00, 0x13, 0xf2, 0xff, 0xff, 0x95, 0xd6, 0xff, 0xff,
  0x6c, 0xef, 0xff, 0xff, 0x43, 0xa2, 0x00, 0x00, 0x4a, 0x06, 0x00, 0x00,
  0xe7, 0xc4, 0xff, 0xff, 0xa8, 0xea, 0xff, 0xff, 0xc7, 0x11, 0x00, 0x00,
  0x0b, 0xdf, 0xff, 0xff, 0xf7, 0xdc, 0xff, 0xff, 0xee, 0xf5, 0xff, 0xff,
  0x95, 0x65, 0x00, 0x00, 0xd9, 0xb0, 0xff, 0xff, 0x65, 0x3a, 0x00, 0x00,
  0x23, 0x5f, 0x00, 0x00, 0xe4, 0xbc, 0xff, 0xff, 0x3b, 0x3c, 0x00, 0x00,
  0x33, 0x0b, 0x00, 0x00, 0x71, 0x11, 0x00, 0x00, 0x3f, 0xc6, 0xff, 0xff,
  0x02, 0xf0, 0xff, 0xff, 0xdf, 0x1c, 0x00, 0x00, 0xc3, 0x06, 0x00, 0x00,
  0x2b, 0xec, 0xff, 0xff, 0x96, 0x4d, 0x00, 0x00, 0x19, 0xf7, 0xff, 0xff,
  0xe1, 0x46, 0x00, 0x00, 0x79, 0x06, 0x00, 0x00, 0xcc, 0x37, 0x00, 0x00,
  0x12, 0x17, 0x00, 0x00, 0x1d, 0x7c, 0x00, 0x00, 0xb8, 0xe3, 0xff, 0xff,
  0x93, 0x0d, 0x00, 0x00, 0xd0, 0xff, 0xff, 0xff, 0xa9, 0x12, 0x00, 0x00,
  0x13, 0xcf, 0xff, 0xff, 0x74, 0x21, 0x00, 0x00, 0xa5, 0x61, 0x00, 0x00,
  0xec, 0xee, 0xff, 0xff, 0xac, 0xeb, 0xff, 0xff, 0xaf, 0x2b, 0x00, 0x00,
  0xfa, 0x17, 0x00, 0x00, 0x23, 0x9d, 0xff, 0xff, 0x3f, 0xac, 0xff, 0xff,
  0xcf, 0xde, 0xff, 0xff, 0x13, 0xcf, 0xff, 0xff, 0x29, 0xd7, 0xff, 0xff,
  0x1e, 0xd0, 0xff, 0xff, 0xe1, 0x6e, 0xff, 0xff, 0x10, 0xb5, 0xff, 0xff,
  0x51, 0xf2, 0xff, 0xff, 0xa4, 0x12, 0x00, 0x00, 0x9b, 0x31, 0x00, 0x00,
  0x4e, 0xf8, 0xff, 0xff, 0x0a, 0x0e, 0x00, 0x00, 0xb8, 0xd5, 0xff, 0xff,
  0xb9, 0xf8, 0xff, 0xff, 0x21, 0x11, 0x00, 0x00, 0x5e, 0x0f, 0x00, 0x00,
  0x28, 0x42, 0x00, 0x00, 0xe6, 0xde, 0xff, 0xff, 0x04, 0x00, 0x00, 0x00,
  0x00, 0x20, 0x00, 0x00, 0xf9, 0xdc, 0xef, 0xbf, 0x74, 0xed, 0x1d, 0x2a,
  0xd7, 0x02, 0xe9, 0xd8, 0x2e, 0xf6, 0x03, 0xb6, 0xd0, 0x0c, 0x8f, 0xe8,
  0x06, 0xe2, 0x07, 0x35, 0x20, 0x39, 0x05, 0xa1, 0xfb, 0x29, 0x2c, 0xfc,
  0xd3, 0x0d, 0x1f, 0x9e, 0x2f, 0xf6, 0xe8, 0xf9, 0xb5, 0xfa, 0x99, 0xba,
  0x51, 0xc6, 0x1a, 0x0b, 0xd7, 0x20, 0xcc, 0xcf, 0x45, 0xc9, 0xf1, 0xf7,
  0xed, 0xb3, 0xf1, 0x18, 0xa7, 0xec, 0xb9, 0x4e, 0xf9, 0xe0, 0xb9, 0xd7,
  0x4b, 0xe6, 0xe4, 0xd9, 0xf2, 0xcc, 0x28, 0xd7, 0x4b, 0xdb, 0xdd, 0x03,
  0xcc, 0x16, 0xce, 0xe0, 0x3b, 0xd9, 0xca, 0xd6, 0xbc, 0xcd, 0x10, 0xde,
  0x14, 0x25, 0x2c, 0x3b, 0xfd, 0xde, 0x44, 0x0c, 0x2d, 0xe6, 0xe1, 0xe7,
  0xb6, 0x19, 0xeb, 0xe3, 0x55, 0xe4, 0xde, 0x24, 0x1e, 0x47, 0xfd, 0x04,
  0xd2, 0xcc, 0x40, 0x11, 0x16, 0x35, 0x0c, 0x43, 0x11, 0xf6, 0xcb, 0xed,
  0x2a, 0x3c, 0xd8, 0x24, 0x22, 0xf3, 0x39, 0xf4, 0x42, 0x14, 0x1e, 0xd8,
  0xe3, 0x2f, 0xf6, 0x08, 0xdf, 0xe4, 0x16, 0xd6, 0xd7, 0xe0, 0xf6, 0x2b,
  0xd2, 0x28, 0xf5, 0x1e, 0x2a, 0x36, 0xf2, 0x0a, 0x33, 0x13, 0x22, 0xf5,
  0xff, 0x2b, 0xe1, 0xef, 0xec, 0xef, 0xe8, 0x34, 0xd9, 0x25, 0x0f, 0x17,
  0xd3, 0x00, 0x35, 0x01, 0x00, 0xe9, 0xe3, 0x1b, 0xfd, 0x38, 0xdd, 0xf1,
  0x26, 0x2b, 0x0b, 0xe8, 0xe6, 0x33, 0x0f, 0xf7, 0x0e, 0xed, 0xce, 0x0b,
  0x49, 0x35, 0x42, 0xfd, 0xd4, 0x3d, 0xcd, 0x4f, 0xd9, 0x12, 0xfe, 0xb6,
  0xf6, 0x4e, 0xe7, 0x40, 0xf1, 0xfd, 0xe4, 0xc5, 0xf9, 0x3e, 0x3f, 0x2b,
  0x10, 0x35, 0x14, 0xcf, 0xec, 0x07, 0xc1, 0x1b, 0x19, 0x28, 0xfc, 0x0f,
  0x33, 0x0f, 0x14, 0xe0, 0xb6, 0xde, 0x11, 0x0f, 0x06, 0x25, 0xda, 0xc9,
  0xfd, 0x18, 0xd4, 0x23, 0x0b, 0xe5, 0xeb, 0xcb, 0x23, 0x4a, 0x18, 0x0b,
  0x0a, 0xa3, 0xec, 0xee, 0x0d, 0x12, 0x50, 0xb2, 0x37, 0xb3, 0x0f, 0x40,
  0x45, 0x30, 0x4f, 0xc9, 0xeb, 0xc8, 0x13, 0xa1, 0xf2, 0xb5, 0x04, 0x17,
  0x30, 0xbf, 0xdf, 0xb0, 0x2b, 0x13, 0xfb, 0xfe, 0xcc, 0x45, 0x10, 0xfe,
  0x14, 0xfb, 0x03, 0x34, 0x4b, 0xee, 0xfc, 0x39, 0xa5, 0x1f, 0x9d, 0xf9,
  0xc4, 0x41, 0x11, 0x28, 0xa4, 0x3f, 0x26, 0x08, 0x73, 0xa2, 0x21, 0xec,
  0xe3, 0x2a, 0xeb, 0x35, 0x4f, 0x23, 0xd5, 0x3e, 0x30, 0x24, 0x0e, 0x1c,
  0xf1, 0x13, 0xa5, 0xb5, 0x46, 0xb0, 0x1e, 0xda, 0xbe, 0xb1, 0xda, 0x4f,
  0xf0, 0x3a, 0xb8, 0x17, 0x27, 0xbe, 0x40, 0xc1, 0x00, 0x57, 0x22, 0x3d,
  0x14, 0x1a, 0x34, 0x2b, 0x06, 0x0c, 0x02, 0xea, 0xb4, 0x17, 0x14, 0xe8,
  0x4a, 0xdb, 0xf2, 0xb9, 0x2d, 0xdd, 0x3b, 0xe8, 0x31, 0xc5, 0xf8, 0xd9,
  0xc0, 0xdf, 0x0a, 0xf0, 0x06, 0x49, 0xd8, 0xe0, 0xc2, 0x19, 0xcd, 0x21,
  0xcd, 0x25, 0xe4, 0xab, 0x3e, 0x3c, 0x3c, 0xc6, 0xcc, 0x2f, 0xcf, 0x49,
  0x41, 0x20, 0xde, 0x2d, 0xf8, 0x29, 0x08, 0x05, 0x45, 0x22, 0x16, 0x47,
  0x30, 0x22, 0xbd, 0x0b, 0x0e, 0xe8, 0x42, 0xcf, 0xd2, 0xf7, 0x2d, 0x27,
  0x01, 0x30, 0xb2, 0x01, 0x16, 0x21, 0x31, 0x40, 0xc2, 0x34, 0x17, 0xf9,
  0x28, 0x2f, 0xd2, 0x22, 0x1a, 0xd3, 0x2e, 0xe0, 0x28, 0x3c, 0xc4, 0x1f,
  0x04, 0xeb, 0xe5, 0x3c, 0xb8, 0xce, 0xb7, 0xee, 0x03, 0xf4, 0x1f, 0xff,
  0x1d, 0x3e, 0x05, 0x30, 0xfd, 0xf9, 0xfd, 0x23, 0xe3, 0xe1, 0x0c, 0x14,
  0xda, 0xe7, 0x3d, 0xe2, 0xfb, 0xee, 0xf2, 0xd4, 0x0a, 0xc2, 0x03, 0x0e,
  0x29, 0x3e, 0x05, 0xfc, 0xf2, 0xee, 0xe8, 0xe2, 0x47, 0xde, 0x26, 0x2d,
  0xcc, 0x2f, 0xe0, 0xf8, 0xff, 0x02, 0x07, 0x20, 0x24, 0xb9, 0xca, 0x30,
  0x06, 0x0f, 0x28, 0x10, 0x30, 0x15, 0xf7, 0xda, 0xfb, 0xcc, 0xcf, 0xd8,
  0xd1, 0xf7, 0xd8, 0x13, 0x26, 0xcb, 0x0c, 0x1b, 0xdf, 0x24, 0xfc, 0xfd,
  0xf5, 0xdc, 0x0f, 0xde, 0x09, 0xe8, 0x00, 0xf3, 0x02, 0xda, 0xec, 0xea,
  0xd9, 0x2a, 0xc4, 0x17, 0xea, 0xf4, 0xea, 0x00, 0xe9, 0x26, 0x13, 0x12,
  0xe0, 0xfb, 0xd7, 0xdc, 0x19, 0xe0, 0xfa, 0xec, 0xea, 0xd6, 0x20, 0xdc,
  0x10, 0x05, 0xd8, 0xee, 0x02, 0x1a, 0xcd, 0xfc, 0x48, 0x55, 0x0f, 0xfe,
  0xa4, 0x0d, 0x3e, 0xa3, 0x5a, 0xf5, 0x61, 0xbc, 0x3e, 0x2b, 0x0f, 0x31,
  0xe8, 0x5d, 0x2c, 0xf0, 0x70, 0xb7, 0x04, 0xf5, 0x17, 0xd6, 0xde, 0x34,
  0x14, 0x91, 0x3d, 0xc9, 0xa5, 0xd2, 0xe0, 0x5f, 0x01, 0x08, 0xdf, 0x29,
  0xd3, 0xb4, 0xdd, 0x1f, 0xea, 0x47, 0x62, 0x5b, 0xd9, 0x3e, 0x5d, 0xfa,
  0xfc, 0xfc, 0xe1, 0x59, 0x97, 0x4e, 0xaa, 0x17, 0x14, 0x2b, 0x23, 0x34,
  0x07, 0x11, 0x2a, 0xe2, 0xf3, 0x14, 0xfc, 0x20, 0x58, 0xd8, 0x03, 0x1c,
  0x02, 0xdb, 0x40, 0x42, 0xcf, 0xfa, 0x2d, 0x45, 0x39, 0xe5, 0xd7, 0x52,
  0xef, 0xf5, 0xfd, 0xcc, 0xf3, 0x08, 0x29, 0xdf, 0x07, 0xca, 0x0d, 0xc5,
  0x0e, 0xfe, 0xf8, 0xfd, 0x32, 0x13, 0x38, 0x06, 0x1d, 0x20, 0x10, 0x31,
  0x40, 0xe6, 0x06, 0x3d, 0x0c, 0xc4, 0x40, 0x28, 0xb3, 0x3b, 0x31, 0x07,
  0xf5, 0xc3, 0x00, 0x1c, 0xe4, 0x1a, 0xb8, 0x0c, 0x14, 0x2e, 0xce, 0xe2,
  0x04, 0xc3, 0xdf, 0xc7, 0x2c, 0xc6, 0xcd, 0x2e, 0xdb, 0x00, 0xcc, 0xfd,
  0x0c, 0x22, 0xc6, 0xf4, 0x04, 0xda, 0xc4, 0xf9, 0xec, 0xc7, 0x26, 0x07,
  0xe1, 0x09, 0x10, 0xd6, 0xf6, 0xd0, 0x2c, 0x09, 0xd2, 0x15, 0xd2, 0xf6,
  0x44, 0x09, 0x42, 0xd2, 0x07, 0xdf, 0xee, 0x25, 0xc3, 0xd1, 0xec, 0x3d,
  0xeb, 0x25, 0xc4, 0x42, 0xd0, 0x3a, 0xe9, 0x15, 0xe4, 0xcc, 0x21, 0xe3,
  0x2a, 0x1c, 0x2a, 0xc9, 0x09, 0x4e, 0xdd, 0x32, 0x23, 0x1a, 0x2d, 0x4e,
  0x53, 0x3e, 0x2a, 0x48, 0x3a, 0xc8, 0x09, 0xd8, 0x26, 0x52, 0xef, 0xff,
  0xf3, 0x02, 0x1c, 0x11, 0xb3, 0x4f, 0xee, 0x46, 0x40, 0xf9, 0xba, 0x0c,
  0xad, 0x3b, 0xa8, 0xf4, 0x08, 0xf3, 0xee, 0xbe, 0x0a, 0x2e, 0x0f, 0x38,
  0xb7, 0x10, 0x08, 0xde, 0xc1, 0x01, 0x2c, 0xe7, 0xf4, 0xfa, 0xed, 0x00,
  0x20, 0x14, 0x50, 0xf0, 0xde, 0x23, 0xda, 0xea, 0xcd, 0x40, 0x11, 0xfd,
  0xe4, 0xd3, 0xe5, 0xcc, 0x2b, 0xf0, 0x30, 0xec, 0x45, 0xef, 0x08, 0x06,
  0xb6, 0xe5, 0xc5, 0xe3, 0xe6, 0xb8, 0x12, 0x0b, 0x45, 0x00, 0x3a, 0x53,
  0xea, 0xd1, 0x00, 0x28, 0x2a, 0x17, 0xfd, 0xe0, 0xd2, 0x0b, 0xcf, 0x31,
  0xe1, 0x05, 0x41, 0xf0, 0xc9, 0x2e, 0xfc, 0xd2, 0x40, 0x2a, 0xd9, 0xca,
  0xa6, 0xd3, 0x5c, 0x28, 0xc1, 0x23, 0xd8, 0x17, 0x00, 0x12, 0xee, 0x21,
  0xe5, 0x3c, 0xcd, 0x22, 0x12, 0xe9, 0xcb, 0xca, 0xb4, 0xfd, 0xfd, 0x58,
  0xf3, 0x02, 0x1a, 0x9c, 0xb2, 0xb4, 0xcf, 0x39, 0xfb, 0x46, 0x0c, 0xcd,
  0xc7, 0xdf, 0x2a, 0xf2, 0x25, 0xdd, 0x40, 0x46, 0xcd, 0xf9, 0xd5, 0xcc,
  0xcc, 0xfa, 0x01, 0xf5, 0x16, 0x22, 0xd4, 0x27, 0xfd, 0x0f, 0x09, 0xab,
  0xeb, 0xea, 0x0e, 0xff, 0xe0, 0xfd, 0xe0, 0x26, 0xc8, 0xdf, 0xc8, 0xf0,
  0xd1, 0xf5, 0x18, 0xe0, 0x10, 0xc0, 0x02, 0xe5, 0xde, 0xff, 0xe7, 0xf0,
  0xd8, 0x1c, 0x17, 0x1f, 0x27, 0x19, 0x15, 0xe4, 0xcb, 0x2d, 0xf9, 0xd2,
  0x07, 0x2b, 0x3e, 0x27, 0xd8, 0x0f, 0xf3, 0xef, 0xdd, 0x03, 0x24, 0x13,
  0xbb, 0x0c, 0x0d, 0x10, 0xf1, 0xd4, 0x32, 0x20, 0x48, 0xf1, 0xcf, 0x2f,
  0x40, 0x2f, 0xcd, 0xb7, 0xe6, 0x16, 0x0d, 0x0e, 0x46, 0x35, 0x10, 0xe4,
  0xc9, 0x46, 0x13, 0xdc, 0x33, 0x14, 0xe5, 0xe6, 0xe1, 0xd3, 0x0d, 0x07,
  0x4c, 0xd6, 0xff, 0x20, 0x33, 0x12, 0x41, 0xf7, 0xdf, 0x30, 0x24, 0xd9,
  0x09, 0x54, 0xbf, 0xf9, 0xf9, 0x03, 0xda, 0xfb, 0xc7, 0x20, 0xe8, 0x5e,
  0xfb, 0x0d, 0xe1, 0x2e, 0x1b, 0xff, 0x0c, 0xfb, 0xb8, 0x15, 0x04, 0x27,
  0x1a, 0xc7, 0xca, 0x10, 0x38, 0xf0, 0x1e, 0xdb, 0x0f, 0x43, 0x37, 0x28,
  0xee, 0xfd, 0xc9, 0x25, 0x03, 0xfc, 0xed, 0xf4, 0xe3, 0xdd, 0xfc, 0xdb,
  0xf0, 0x1e, 0x25, 0x08, 0xe3, 0x28, 0xe5, 0xf2, 0x10, 0x17, 0xe3, 0xe8,
  0x0a, 0x1d, 0x0b, 0xd7, 0x21, 0x17, 0xf4, 0x07, 0xde, 0x0a, 0x02, 0xfd,
  0x2f, 0x15, 0xe1, 0xf8, 0x1a, 0xf1, 0x1c, 0xf6, 0x3b, 0xfd, 0x09, 0x39,
  0xe5, 0x08, 0xea, 0x20, 0xf1, 0x17, 0x20, 0x10, 0xe8, 0x26, 0x13, 0x1c,
  0xd7, 0xed, 0x16, 0x1f, 0x3d, 0x09, 0xe2, 0x2c, 0x06, 0xec, 0xd1, 0x15,
  0xfe, 0xf0, 0x05, 0xf1, 0x1d, 0x4e, 0xd7, 0x06, 0xca, 0x3e, 0x1c, 0xf5,
  0x01, 0xe0, 0xa2, 0xe5, 0x20, 0x17, 0x31, 0x51, 0x2c, 0xe2, 0xc2, 0x26,
  0x47, 0x14, 0x54, 0xde, 0x24, 0x4f, 0xfa, 0x20, 0xf0, 0x30, 0xf6, 0x27,
  0x4e, 0xca, 0x1c, 0x35, 0xd4, 0xfb, 0x2b, 0x1f, 0x29, 0xb9, 0xe7, 0xeb,
  0xeb, 0xaa, 0xc9, 0x1f, 0xd6, 0xdb, 0x16, 0x17, 0x0f, 0x15, 0x03, 0x1e,
  0xee, 0x27, 0x1b, 0x14, 0x1b, 0xe0, 0xda, 0xe0, 0xd2, 0xd5, 0x32, 0x1d,
  0x1f, 0x2e, 0x0d, 0x20, 0x1e, 0xdd, 0x03, 0x35, 0xd5, 0xe4, 0xf3, 0xfa,
  0xe0, 0x33, 0xe0, 0xfa, 0x08, 0xc4, 0xd9, 0xf5, 0x11, 0x07, 0xe0, 0x04,
  0xe8, 0x05, 0xee, 0xde, 0x24, 0xc9, 0x0b, 0xc4, 0xda, 0x02, 0xf1, 0x10,
  0xca, 0xc1, 0x16, 0xdd, 0xd4, 0xde, 0x14, 0xe6, 0xd4, 0x34, 0x3e, 0x10,
  0xe7, 0x12, 0x03, 0xfd, 0x40, 0xff, 0x01, 0xa8, 0x20, 0x2e, 0xec, 0x28,
  0xf4, 0xc1, 0x32, 0x2c, 0xda, 0xbf, 0x03, 0xfd, 0x1d, 0xfb, 0x05, 0xed,
  0xeb, 0xf2, 0x33, 0xc6, 0xe9, 0x20, 0x14, 0xac, 0xe7, 0xe4, 0x4b, 0xcb,
  0x02, 0x39, 0xca, 0xce, 0xd8, 0xca, 0x11, 0x05, 0xd4, 0x04, 0xe5, 0xea,
  0xda, 0x10, 0xe3, 0xcd, 0x00, 0xc4, 0xdc, 0x26, 0x0a, 0xeb, 0xef, 0xc2,
  0x59, 0x04, 0x45, 0x14, 0x25, 0x04, 0x14, 0x00, 0x25, 0x1e, 0xb8, 0xd6,
  0xbd, 0x25, 0xe5, 0xfc, 0xed, 0x01, 0xfb, 0x3c, 0x06, 0xeb, 0x13, 0x2f,
  0x10, 0x28, 0x1d, 0xe2, 0xed, 0xd7, 0x35, 0xf5, 0x40, 0xec, 0x1d, 0x06,
  0x26, 0xe2, 0x20, 0x32, 0x2b, 0xdd, 0x21, 0x1a, 0xd4, 0xf8, 0xc5, 0xe4,
  0xf3, 0xe7, 0xc4, 0xf9, 0x2b, 0xc1, 0xf6, 0xf8, 0xd7, 0xdf, 0xfd, 0x1d,
  0x25, 0xb9, 0xcd, 0xc6, 0xd5, 0xaf, 0x11, 0xed, 0x1e, 0xdc, 0xd9, 0x11,
  0xff, 0x2a, 0xe2, 0x42, 0x0c, 0x47, 0xd6, 0xde, 0x23, 0x05, 0xd8, 0x02,
  0x3e, 0xc2, 0xc6, 0xae, 0x2e, 0xe9, 0x34, 0xb4, 0xef, 0xb9, 0x30, 0xdb,
  0xef, 0xca, 0x00, 0xe5, 0xc6, 0x49, 0xc6, 0xca, 0x2c, 0xcb, 0xda, 0xe7,
  0x54, 0x23, 0x36, 0x32, 0xda, 0xf7, 0x03, 0xd4, 0xd2, 0x1a, 0xc2, 0xb1,
  0x1a, 0xb3, 0x0a, 0x53, 0x28, 0xd0, 0xe9, 0xd8, 0xc5, 0xe2, 0xf2, 0xf5,
  0xf1, 0x13, 0x2d, 0xe0, 0x25, 0xf2, 0x31, 0xfb, 0x09, 0x1a, 0x22, 0x2c,
  0xee, 0x18, 0x02, 0xe4, 0xda, 0x11, 0xdd, 0x06, 0xe6, 0xf2, 0xcc, 0x01,
  0xe7, 0x1c, 0xd0, 0x23, 0xf0, 0xf2, 0xdb, 0xf2, 0x37, 0x03, 0x09, 0xcc,
  0x35, 0xf5, 0xf8, 0x0e, 0xdc, 0xff, 0xd9, 0x17, 0xd4, 0x29, 0xf6, 0xfa,
  0xf8, 0x1b, 0x45, 0xf5, 0x1c, 0x1b, 0xf3, 0x21, 0xc7, 0x1e, 0x25, 0x02,
  0x22, 0x04, 0x15, 0x2b, 0x19, 0x2b, 0xe7, 0xfc, 0x11, 0xed, 0x32, 0x1f,
  0xfc, 0xe4, 0x1c, 0x24, 0xdb, 0xed, 0xdb, 0x34, 0x20, 0x0c, 0xdf, 0x2f,
  0xf4, 0xd9, 0x1f, 0xf5, 0xe9, 0x19, 0x2f, 0xd2, 0xe9, 0xfd, 0xe0, 0x38,
  0x2b, 0xf0, 0x04, 0x0f, 0x23, 0x2a, 0x24, 0x08, 0xf8, 0xfe, 0x1a, 0xf9,
  0x33, 0xe2, 0x06, 0xe0, 0x04, 0xdb, 0x07, 0xc9, 0xd5, 0xcc, 0x16, 0x01,
  0xe1, 0xfc, 0x00, 0x1d, 0x27, 0xf2, 0xf4, 0x15, 0xd2, 0xce, 0xb4, 0xf1,
  0xcf, 0x03, 0x55, 0x10, 0x35, 0xff, 0xf1, 0xfe, 0x41, 0xc1, 0xba, 0xe7,
  0x0d, 0xa6, 0xfb, 0xd8, 0xb2, 0xd3, 0xc6, 0x02, 0xd2, 0x1e, 0xd5, 0x1c,
  0x3d, 0x4b, 0x16, 0xe5, 0x31, 0xcd, 0x27, 0x11, 0xe7, 0x5f, 0x04, 0x10,
  0x38, 0xca, 0x40, 0x3c, 0xdf, 0xcc, 0x0f, 0xd1, 0x10, 0x16, 0xce, 0xd9,
  0xb1, 0xea, 0xfb, 0x0d, 0x44, 0xad, 0xc3, 0x18, 0xaf, 0xfa, 0x38, 0x0f,
  0x09, 0x1b, 0x0f, 0x05, 0xeb, 0xe4, 0x26, 0x00, 0xe1, 0x20, 0xcd, 0xdd,
  0x0b, 0x34, 0xf6, 0xde, 0xe6, 0x1f, 0x10, 0x1f, 0xda, 0x0f, 0x20, 0xcd,
  0x20, 0xe7, 0xc9, 0x18, 0xfb, 0x18, 0xe4, 0x3e, 0xdf, 0xea, 0xed, 0x01,
  0xf8, 0xfb, 0x15, 0x38, 0xfb, 0xf8, 0x27, 0xee, 0xfc, 0xfc, 0xd3, 0xe5,
  0xce, 0x05, 0xd0, 0x16, 0xf3, 0xcf, 0xe2, 0xfc, 0xf8, 0xda, 0xfd, 0x10,
  0x0c, 0x05, 0x2d, 0x10, 0xf0, 0x2d, 0xee, 0x14, 0x14, 0x48, 0x28, 0x0f,
  0xd7, 0xf9, 0xc4, 0xfd, 0x07, 0x29, 0xcc, 0x14, 0x0e, 0xe5, 0x1a, 0xd6,
  0xf0, 0xdb, 0xf2, 0xdb, 0xe2, 0xf5, 0x20, 0x01, 0x35, 0xda, 0x42, 0x1c,
  0xe9, 0xc3, 0xe7, 0x38, 0x26, 0xd2, 0x0b, 0xef, 0xce, 0x11, 0xd9, 0xfc,
  0xc0, 0xd4, 0x1a, 0xdf, 0xe9, 0x09, 0xe5, 0x17, 0x0d, 0x2a, 0x31, 0x26,
  0x05, 0x21, 0xb9, 0x0d, 0x42, 0x26, 0x39, 0xe0, 0xc0, 0xe1, 0x1b, 0x32,
  0x07, 0xdd, 0xe2, 0xfd, 0x2a, 0xfb, 0xbc, 0x19, 0xc9, 0x06, 0x2a, 0x07,
  0xc8, 0xf7, 0xfd, 0xfb, 0xd5, 0xef, 0x23, 0x0c, 0xfe, 0x12, 0xef, 0xf4,
  0xdd, 0xb9, 0x08, 0x19, 0x1e, 0x02, 0x10, 0xfa, 0x15, 0xfa, 0x26, 0x20,
  0x35, 0xe0, 0x21, 0xeb, 0x35, 0x2b, 0x37, 0xdb, 0xf6, 0x50, 0x1e, 0x20,
  0xd2, 0xee, 0xda, 0xc8, 0x33, 0x23, 0x2a, 0x0c, 0xea, 0x30, 0x04, 0x19,
  0x31, 0x1a, 0x43, 0x09, 0xec, 0x31, 0xc3, 0x37, 0xdc, 0xc2, 0x08, 0x16,
  0x26, 0xb2, 0xbe, 0xfa, 0x40, 0xcb, 0xa8, 0x26, 0xb3, 0xd0, 0xd3, 0x11,
  0xa0, 0xaa, 0x37, 0x07, 0xc3, 0xfe, 0xde, 0xac, 0x4e, 0x51, 0x1f, 0x40,
  0xdc, 0xe5, 0x00, 0x25, 0xc4, 0xb2, 0x0c, 0x31, 0x37, 0x23, 0xae, 0xce,
  0x22, 0x18, 0xc7, 0x0b, 0x24, 0x22, 0xc2, 0xe0, 0xb8, 0x16, 0xe5, 0x17,
  0xb5, 0xf6, 0xd5, 0x5c, 0xea, 0x11, 0xe5, 0x03, 0x37, 0xe2, 0xdc, 0x14,
  0x1a, 0xd5, 0x2a, 0x25, 0xbc, 0x03, 0x35, 0x08, 0xf6, 0xf3, 0xd5, 0xd6,
  0x05, 0xec, 0x1d, 0xd2, 0xfa, 0x0e, 0x1a, 0x47, 0x00, 0x1e, 0x34, 0xc2,
  0xf9, 0x2c, 0x1f, 0xd6, 0xfc, 0xe8, 0xd4, 0x0d, 0xfc, 0xe5, 0xf6, 0xec,
  0x0a, 0x09, 0xf1, 0x13, 0x03, 0x14, 0x34, 0xd8, 0x00, 0x1f, 0x11, 0xed,
  0x13, 0x0b, 0xe0, 0xef, 0x34, 0x06, 0xd5, 0xcd, 0xd3, 0xf2, 0xd4, 0xcd,
  0xdc, 0x18, 0xd9, 0x25, 0xce, 0xf5, 0xfe, 0x27, 0xc4, 0x07, 0xf5, 0xe5,
  0xeb, 0xc2, 0xcd, 0x15, 0xba, 0x10, 0xf0, 0x28, 0x2e, 0xdc, 0xfe, 0xea,
  0xfc, 0x00, 0x09, 0x0c, 0x32, 0xe3, 0xd5, 0xfd, 0xeb, 0x06, 0x1c, 0xee,
  0x19, 0x27, 0xdd, 0x07, 0xee, 0xdf, 0x14, 0xfc, 0x2d, 0x0d, 0xfc, 0xce,
  0x3e, 0x1c, 0x27, 0x13, 0x3e, 0xc7, 0xd9, 0x17, 0x1c, 0x43, 0x2e, 0x3d,
  0xed, 0xee, 0xf0, 0xe2, 0x07, 0x17, 0x0b, 0xce, 0x22, 0xd9, 0x28, 0x22,
  0xf4, 0xe6, 0x27, 0xea, 0xea, 0x2e, 0xdb, 0x22, 0xdd, 0xec, 0x15, 0xfb,
  0x0b, 0xe6, 0xe9, 0x0f, 0x1a, 0x10, 0x08, 0xfd, 0xe3, 0x1f, 0x1c, 0xd4,
  0x3a, 0xd2, 0x1b, 0xfe, 0xef, 0xff, 0x17, 0x01, 0x26, 0x18, 0xfc, 0x20,
  0xe8, 0x2a, 0x09, 0xdd, 0xfb, 0x1a, 0xd8, 0x1f, 0xe8, 0xc5, 0xf6, 0x20,
  0xe5, 0x03, 0x21, 0x2d, 0x25, 0xf1, 0xd2, 0x2f, 0xf6, 0x1c, 0xc8, 0x36,
  0x3c, 0x12, 0xf2, 0x15, 0xf9, 0xcd, 0x0d, 0x18, 0xeb, 0xd6, 0xda, 0x41,
  0x0b, 0x30, 0x00, 0xcf, 0x24, 0x12, 0x0f, 0x18, 0x4b, 0x1d, 0x2b, 0xce,
  0x2b, 0xcb, 0xe9, 0xd6, 0xf6, 0xd1, 0xce, 0xfc, 0x05, 0xe8, 0xe8, 0x1b,
  0x14, 0x12, 0x24, 0xd6, 0x35, 0xf1, 0x00, 0xfd, 0x0f, 0xcd, 0x25, 0xe5,
  0x2e, 0xef, 0xd9, 0x38, 0xed, 0xc7, 0x1b, 0xbd, 0xfa, 0xfb, 0x1c, 0x52,
  0xbb, 0x11, 0xe0, 0x47, 0xdc, 0xce, 0xb8, 0xde, 0xc8, 0x54, 0x2b, 0x2d,
  0xdd, 0x07, 0x25, 0xc3, 0x0d, 0x12, 0x05, 0xe8, 0xef, 0xd9, 0x0b, 0x2a,
  0x05, 0x22, 0xcd, 0xdd, 0xc4, 0x23, 0xeb, 0xd0, 0x22, 0xc3, 0x12, 0xcc,
  0xbc, 0xce, 0xd0, 0x11, 0x0f, 0xe0, 0xcf, 0xfd, 0xc9, 0xe6, 0x32, 0x50,
  0x17, 0x1f, 0xe9, 0x30, 0x04, 0x47, 0xf9, 0x0e, 0xfa, 0x27, 0x0e, 0x0d,
  0xc2, 0xde, 0x0e, 0xe7, 0x32, 0xb8, 0xc6, 0x01, 0x41, 0x0a, 0x34, 0x50,
  0x36, 0x0a, 0xc4, 0xca, 0x32, 0xed, 0x33, 0xd6, 0xd5, 0xfd, 0x3c, 0x00,
  0x09, 0x18, 0xe2, 0x07, 0x0c, 0xd8, 0x1c, 0x1a, 0x24, 0x30, 0xc7, 0x06,
  0xe0, 0x21, 0xd9, 0xc1, 0xe8, 0xd2, 0x0f, 0x1d, 0x34, 0xc0, 0xe1, 0x37,
  0xd5, 0xee, 0xe4, 0xfb, 0x08, 0xf2, 0xee, 0xf2, 0x1d, 0x32, 0xd4, 0xc8,
  0x36, 0xfb, 0xd2, 0x02, 0xce, 0xc7, 0xcf, 0x1b, 0x37, 0xd9, 0x40, 0x11,
  0xc9, 0xf1, 0x18, 0xd1, 0xff, 0xdb, 0xff, 0xfa, 0x38, 0x4c, 0x32, 0x23,
  0x19, 0x0c, 0x24, 0x1a, 0xba, 0xda, 0x31, 0x32, 0x04, 0xd3, 0x23, 0xd5,
  0xec, 0xaa, 0x9e, 0xb4, 0xc5, 0x19, 0x2e, 0x63, 0xe8, 0x08, 0x2a, 0xe6,
  0xfc, 0xf0, 0x95, 0x2d, 0x1c, 0xf5, 0x39, 0x5f, 0xd5, 0x08, 0xde, 0x2f,
  0xfc, 0x13, 0xc9, 0x21, 0xc9, 0x47, 0x57, 0xc8, 0x1d, 0xef, 0x02, 0x0b,
  0xf4, 0xd5, 0xf1, 0xe3, 0xd9, 0x0b, 0x08, 0xd5, 0xfc, 0x07, 0xe3, 0xc8,
  0x15, 0x28, 0xdc, 0x2d, 0xf5, 0xcf, 0x10, 0x1f, 0x26, 0xf3, 0x37, 0x1c,
  0xe4, 0x2c, 0x14, 0xea, 0x22, 0xcf, 0xd0, 0x2f, 0xf1, 0xfd, 0xfd, 0xda,
  0xe2, 0xdd, 0x0c, 0x20, 0xf5, 0x44, 0xdc, 0xd4, 0x18, 0x11, 0xf2, 0x37,
  0x0c, 0x4d, 0xdb, 0x01, 0xf9, 0xec, 0x2e, 0xe5, 0xf3, 0x11, 0xdf, 0xc2,
  0x08, 0x33, 0x04, 0x15, 0x13, 0x1d, 0x16, 0xe7, 0xdf, 0xf4, 0xe9, 0x00,
  0x00, 0x1d, 0x22, 0xd1, 0xe0, 0x1e, 0x15, 0xe4, 0x3b, 0x25, 0xde, 0xa8,
  0x32, 0x0f, 0x16, 0xec, 0x51, 0x23, 0xcc, 0x1a, 0x12, 0x3a, 0x26, 0x15,
  0xc8, 0x03, 0x1b, 0x14, 0xb7, 0xcd, 0xfd, 0x1a, 0xda, 0xe6, 0xbf, 0xde,
  0xe4, 0x0a, 0xfc, 0x2a, 0xd1, 0x0e, 0xcf, 0xec, 0xc2, 0xe7, 0x36, 0xfd,
  0x0f, 0x09, 0xb3, 0xc7, 0x1f, 0x10, 0xfa, 0x2e, 0xee, 0xda, 0xda, 0xdf,
  0xf1, 0xf6, 0xf8, 0xda, 0xfe, 0xde, 0x14, 0xe9, 0x30, 0x05, 0xf8, 0xea,
  0xdd, 0x1b, 0x05, 0xe4, 0xe6, 0xcd, 0xe4, 0xce, 0x29, 0x28, 0x1a, 0xe1,
  0x17, 0xe4, 0x20, 0x4b, 0xe6, 0x15, 0x3d, 0x15, 0xe5, 0xf6, 0xe7, 0x2f,
  0xdf, 0x1b, 0x04, 0x44, 0x21, 0x17, 0x11, 0x2d, 0x16, 0xce, 0x18, 0xe1,
  0x00, 0xe7, 0xf4, 0xe6, 0x1b, 0xf8, 0xf1, 0x27, 0xcd, 0xf4, 0x2e, 0x0c,
  0x3f, 0x1a, 0x4e, 0x02, 0xd4, 0xcf, 0x0b, 0x2f, 0x29, 0x39, 0x25, 0xdf,
  0xef, 0x09, 0xe3, 0x56, 0xf1, 0xd1, 0x39, 0x54, 0x29, 0xc5, 0xe7, 0xe5,
  0xd5, 0xe9, 0x2c, 0xe9, 0xe8, 0x2d, 0x1e, 0xbf, 0xe0, 0x0d, 0xd9, 0xd2,
  0xd3, 0xff, 0xd1, 0x36, 0xf3, 0x43, 0xcc, 0xcc, 0xa6, 0xdb, 0x41, 0x1b,
  0x36, 0x18, 0x18, 0xd1, 0x04, 0x04, 0xf2, 0xe2, 0xec, 0xf5, 0xe0, 0xec,
  0x1a, 0x33, 0x22, 0xd9, 0xf1, 0xf9, 0x2f, 0x2e, 0x40, 0x1d, 0xce, 0x13,
  0xd3, 0xfe, 0xf1, 0xf7, 0xdb, 0xe6, 0xcc, 0x21, 0xe1, 0x0f, 0x11, 0xfd,
  0x28, 0xd8, 0x16, 0x1a, 0x0b, 0xff, 0xc6, 0x07, 0xe7, 0xf8, 0x12, 0x12,
  0x07, 0x1e, 0x22, 0x24, 0x21, 0x0c, 0xd6, 0x20, 0x0c, 0x17, 0xdc, 0x2d,
  0xfc, 0x09, 0xf7, 0xd5, 0x34, 0xf6, 0x29, 0xef, 0xc2, 0x09, 0x29, 0xd7,
  0xe0, 0xe0, 0xf6, 0x23, 0x3f, 0x45, 0x56, 0x27, 0xbd, 0xfc, 0xf0, 0x22,
  0xf3, 0x26, 0xd2, 0x22, 0x16, 0xef, 0x17, 0xff, 0x10, 0xb2, 0x69, 0xee,
  0xb5, 0x38, 0x39, 0xf6, 0xbe, 0xfd, 0x0f, 0xe4, 0x09, 0x0d, 0x11, 0xe2,
  0x40, 0x28, 0x2b, 0x38, 0x00, 0xde, 0x03, 0x08, 0x30, 0x06, 0x44, 0x19,
  0xfa, 0xc3, 0x33, 0x26, 0x3d, 0xd5, 0xff, 0xea, 0xf1, 0xd3, 0x1d, 0x5e,
  0x2a, 0x1a, 0x00, 0xae, 0x05, 0xcb, 0xf1, 0x48, 0xe4, 0x40, 0xdb, 0x20,
  0x13, 0xdb, 0x17, 0x09, 0xac, 0x33, 0x0d, 0x34, 0x50, 0xfc, 0xad, 0x08,
  0x06, 0xda, 0xff, 0xc1, 0x1d, 0xa5, 0x29, 0xb2, 0x17, 0x5e, 0x60, 0x06,
  0x3d, 0x1f, 0xf1, 0x4f, 0x1e, 0x15, 0x2a, 0xde, 0xc0, 0xce, 0xd9, 0x3a,
  0x2a, 0xcf, 0x24, 0x13, 0x21, 0xfa, 0x29, 0xa9, 0xbb, 0x26, 0x47, 0xeb,
  0x2f, 0x20, 0xdd, 0xea, 0xd3, 0xe5, 0xd2, 0xe8, 0xd2, 0x2d, 0xe8, 0xe6,
  0xf4, 0x30, 0xc1, 0x31, 0x28, 0xf6, 0x25, 0xc7, 0xf0, 0xea, 0x15, 0xbe,
  0xff, 0x4d, 0x2d, 0x14, 0x31, 0xdb, 0x2b, 0x35, 0xbf, 0x36, 0xf7, 0x01,
  0x39, 0x24, 0xcb, 0x1e, 0xe2, 0xc2, 0xfa, 0x14, 0x11, 0x20, 0x16, 0x1c,
  0xd9, 0x04, 0x30, 0xfc, 0x06, 0xbd, 0xf1, 0xdc, 0xf7, 0xf7, 0x20, 0x1f,
  0xd3, 0x03, 0x04, 0xef, 0x05, 0xb3, 0x44, 0x23, 0x0c, 0xc5, 0xe1, 0x16,
  0x00, 0x00, 0x11, 0xef, 0xb7, 0xe5, 0x2e, 0xc7, 0xfa, 0x15, 0x01, 0x25,
  0xcc, 0xf5, 0x3c, 0xe6, 0xbd, 0xce, 0xd2, 0x0b, 0x17, 0x0a, 0xe2, 0xad,
  0xde, 0xbf, 0x04, 0x03, 0xd1, 0xcb, 0xd7, 0xb1, 0x04, 0xea, 0xe2, 0xb6,
  0x07, 0x49, 0x21, 0x51, 0x34, 0xe1, 0xc0, 0xdc, 0x1b, 0x06, 0xb3, 0x0e,
  0xd9, 0xed, 0x02, 0x42, 0x33, 0x39, 0x06, 0xcc, 0xf8, 0x22, 0xea, 0x21,
  0xcc, 0xae, 0x36, 0x47, 0x34, 0x3a, 0x2a, 0xc1, 0x45, 0x17, 0xd4, 0x3c,
  0x26, 0xfa, 0xc5, 0x01, 0x52, 0x34, 0xd7, 0xd7, 0xfa, 0xe5, 0xba, 0xf9,
  0xdf, 0x3a, 0xe9, 0xd5, 0xa5, 0x0b, 0xc8, 0x2b, 0x27, 0x16, 0x3c, 0xc2,
  0xa4, 0x14, 0xb1, 0xd0, 0x05, 0xaf, 0x07, 0xb9, 0x14, 0x1f, 0xe8, 0x46,
  0x11, 0x1e, 0x4c, 0xf4, 0xff, 0xd5, 0x0f, 0x14, 0x41, 0x2e, 0xc0, 0x04,
  0x02, 0x32, 0xd3, 0xe1, 0xf9, 0x48, 0x26, 0x2f, 0x20, 0x5a, 0x42, 0xd9,
  0xf8, 0xf2, 0x23, 0x09, 0x09, 0x1a, 0x1f, 0xf3, 0xdf, 0xe3, 0xdc, 0x1b,
  0x34, 0xf3, 0xe7, 0x13, 0x33, 0x14, 0xef, 0x1e, 0xf3, 0xf0, 0xed, 0xe3,
  0x1a, 0xef, 0x1d, 0xf2, 0x36, 0xf7, 0xe6, 0xfc, 0xd1, 0x14, 0xf7, 0x29,
  0x13, 0xef, 0xcc, 0xde, 0xc2, 0x17, 0xdc, 0x28, 0x19, 0x2d, 0x15, 0xd0,
  0x26, 0xd6, 0x1e, 0x1b, 0x27, 0x31, 0xe2, 0xfa, 0xfd, 0xda, 0x18, 0xd8,
  0xe7, 0x2a, 0xf3, 0x03, 0xe1, 0xee, 0x43, 0x25, 0xc0, 0x2a, 0x06, 0xd0,
  0x16, 0xea, 0x34, 0xaa, 0xf0, 0xd1, 0x0c, 0xd4, 0x10, 0xdf, 0x05, 0x02,
  0xbf, 0xc9, 0x32, 0x4b, 0x32, 0xb2, 0x19, 0xd1, 0xe4, 0xf0, 0xe0, 0x32,
  0xdc, 0x3d, 0xad, 0xe5, 0x33, 0x1e, 0x34, 0xea, 0xc6, 0xac, 0xd4, 0x3e,
  0x33, 0xa6, 0x05, 0xf5, 0x14, 0x17, 0x1a, 0xd1, 0x67, 0x15, 0xb2, 0x1f,
  0xe9, 0xf8, 0xb8, 0xcd, 0xf1, 0xea, 0x19, 0xd6, 0x24, 0xe2, 0x05, 0xe9,
  0x02, 0xeb, 0xd3, 0x1d, 0x0b, 0x27, 0x21, 0x1b, 0x27, 0x25, 0xc5, 0x36,
  0xdb, 0xc5, 0xf9, 0xda, 0x34, 0x26, 0xd0, 0xd8, 0xe8, 0xe2, 0xe8, 0xc2,
  0x05, 0x04, 0xd9, 0x18, 0x25, 0x00, 0xd2, 0xe5, 0xc0, 0x15, 0xc5, 0x13,
  0xdd, 0xee, 0xc4, 0xe5, 0xd3, 0xe7, 0xdb, 0xda, 0x0f, 0x11, 0x0a, 0xf9,
  0xd2, 0xf7, 0x0d, 0xd9, 0x21, 0x0b, 0x06, 0xec, 0x23, 0xff, 0x21, 0x17,
  0x02, 0xe1, 0x16, 0x29, 0xd3, 0xc2, 0xe9, 0x30, 0xc0, 0x09, 0x18, 0x21,
  0x3a, 0x19, 0xcf, 0x03, 0xfe, 0x27, 0xc7, 0x2a, 0xfc, 0xc6, 0x0c, 0xe8,
  0xe0, 0x46, 0x0e, 0x20, 0xf1, 0x26, 0xf2, 0x1f, 0xf9, 0xde, 0xf4, 0x1b,
  0xf4, 0xee, 0xf3, 0xd0, 0xd8, 0xdb, 0x0c, 0x12, 0x0a, 0x25, 0xf4, 0xea,
  0x11, 0xfb, 0x43, 0xe6, 0x22, 0xd7, 0x15, 0x27, 0xf7, 0x06, 0xc8, 0x1c,
  0x1b, 0xc8, 0x0c, 0x2e, 0xf4, 0x32, 0xdf, 0x01, 0xf5, 0xf9, 0xd5, 0xf8,
  0x0c, 0x07, 0x21, 0x1d, 0x2a, 0x00, 0xcf, 0x1b, 0xd9, 0x51, 0x1c, 0xfd,
  0xba, 0xe5, 0xe7, 0xb1, 0x21, 0xd4, 0xf6, 0xd2, 0xd1, 0x1c, 0xf6, 0x1e,
  0x20, 0x22, 0xdc, 0xb5, 0x05, 0x00, 0x21, 0x2a, 0x06, 0x22, 0x20, 0x4b,
  0x0b, 0x02, 0x09, 0x2a, 0x0c, 0x24, 0xeb, 0x06, 0xc8, 0xe2, 0x0b, 0x06,
  0xe2, 0xb7, 0xf9, 0x09, 0xe2, 0x47, 0x01, 0xe2, 0x05, 0xf3, 0x2b, 0x16,
  0xc2, 0x0a, 0xf5, 0x17, 0x2d, 0x0f, 0xbb, 0xc3, 0xd6, 0x18, 0x29, 0x36,
  0x24, 0x16, 0xda, 0x01, 0xee, 0x26, 0x2a, 0xaa, 0xea, 0xf5, 0x30, 0x13,
  0xb9, 0xd3, 0xf8, 0xec, 0xb9, 0xdb, 0x1c, 0x2f, 0xee, 0x09, 0x07, 0x33,
  0x14, 0xf5, 0xd0, 0xed, 0x00, 0x34, 0xe0, 0x06, 0xf5, 0x30, 0xeb, 0xd9,
  0x31, 0x1b, 0xea, 0x16, 0xbb, 0xfe, 0xe9, 0x04, 0xfd, 0x40, 0xf1, 0x03,
  0xe1, 0x0d, 0x00, 0x24, 0xd2, 0xf4, 0x1c, 0xd8, 0x2e, 0x02, 0xef, 0x0a,
  0xc8, 0xd9, 0xde, 0x1f, 0x41, 0xe1, 0xed, 0x1e, 0x28, 0x35, 0xe2, 0x2a,
  0x39, 0x41, 0x36, 0xe0, 0x49, 0x30, 0x0a, 0x19, 0xdf, 0xd9, 0xe4, 0xe7,
  0xc3, 0xe7, 0x21, 0x1d, 0x26, 0x05, 0x28, 0xc1, 0xe8, 0x17, 0xd1, 0xcd,
  0x1a, 0x26, 0xf0, 0x09, 0x05, 0xee, 0x04, 0x00, 0xee, 0x08, 0x1e, 0x12,
  0x19, 0x3d, 0xfe, 0xe7, 0x1d, 0xcd, 0xfe, 0xbd, 0x52, 0xcb, 0x5c, 0xe3,
  0xe1, 0x3e, 0xbc, 0x17, 0x02, 0x03, 0x24, 0x3b, 0x06, 0xbc, 0xbf, 0x3e,
  0xec, 0x34, 0x41, 0xe3, 0x2e, 0x1e, 0xee, 0x52, 0xde, 0x1f, 0x2a, 0x2b,
  0x99, 0xcf, 0x26, 0x5e, 0x78, 0xe7, 0xb9, 0xdb, 0x05, 0x26, 0x44, 0xf4,
  0x30, 0xf8, 0x33, 0xc4, 0x13, 0xd9, 0x01, 0x91, 0x20, 0x1f, 0x3e, 0xf3,
  0x99, 0xb5, 0xa4, 0xef, 0xc3, 0xf9, 0xc7, 0xcc, 0x17, 0x34, 0x2f, 0xe7,
  0x34, 0xd5, 0xc3, 0xdf, 0xd7, 0xd7, 0xde, 0x03, 0x4d, 0x17, 0x15, 0xcc,
  0x36, 0xc8, 0x3f, 0x0f, 0xe0, 0x19, 0x2b, 0x15, 0x05, 0xf7, 0xd7, 0x17,
  0x2c, 0x14, 0xe6, 0x09, 0x2e, 0xf9, 0xfb, 0xbe, 0x41, 0x32, 0xfb, 0x3b,
  0xd1, 0xda, 0x08, 0xf3, 0xf7, 0xd3, 0x04, 0x42, 0x04, 0x02, 0xd6, 0xf6,
  0x17, 0xf4, 0xf2, 0x45, 0xe7, 0x23, 0x39, 0xc5, 0xe1, 0xf2, 0xfc, 0x1b,
  0x0f, 0x28, 0xe3, 0x39, 0xda, 0x12, 0xd1, 0x0c, 0xe1, 0xdb, 0x2b, 0x18,
  0xf5, 0x10, 0xfb, 0xd8, 0xf1, 0x29, 0x3f, 0xe8, 0x31, 0xf4, 0x34, 0xf1,
  0x09, 0x2f, 0xef, 0x21, 0xfb, 0x2f, 0x2f, 0xf0, 0xda, 0x3c, 0x26, 0x0d,
  0x20, 0xe6, 0xc4, 0x0f, 0xf1, 0xd0, 0x3c, 0xcd, 0x0a, 0x09, 0x23, 0xdc,
  0x19, 0xda, 0x20, 0xf8, 0x01, 0x2b, 0x05, 0xeb, 0xc4, 0xe8, 0xe4, 0x20,
  0xe2, 0xf5, 0xfa, 0xde, 0x40, 0x22, 0xe0, 0xef, 0x21, 0xf8, 0xfd, 0xcf,
  0xef, 0xdf, 0xd0, 0xe0, 0x07, 0xe2, 0x23, 0x4d, 0x05, 0xfb, 0x2d, 0x06,
  0x1e, 0x15, 0xd2, 0x15, 0x11, 0x0b, 0xc9, 0xfc, 0x19, 0xd6, 0x2d, 0xf1,
  0xcd, 0xf9, 0xdb, 0xe8, 0xfd, 0x04, 0x37, 0xf0, 0xf9, 0xe6, 0x0d, 0xf0,
  0xdb, 0x0c, 0x12, 0xec, 0x25, 0xe1, 0x37, 0xfc, 0x0a, 0x16, 0xfb, 0xe4,
  0x02, 0xd1, 0xdc, 0xe6, 0x14, 0x3d, 0x18, 0xe8, 0xde, 0xf3, 0xcb, 0x14,
  0x1c, 0x06, 0x05, 0xc7, 0xfe, 0xc9, 0x14, 0xf1, 0x14, 0xe9, 0x21, 0xef,
  0xd5, 0xf2, 0x1a, 0x0f, 0xda, 0xfa, 0x3f, 0x10, 0x0c, 0xfb, 0xd1, 0xfc,
  0xff, 0xf5, 0x15, 0x0e, 0xe3, 0xe7, 0xf2, 0xde, 0x37, 0x18, 0x19, 0x38,
  0xf9, 0xe7, 0x2e, 0x03, 0x17, 0x03, 0x15, 0x2c, 0x01, 0xf8, 0xdb, 0x15,
  0xda, 0xd1, 0xe6, 0xea, 0x10, 0xd9, 0xf9, 0x13, 0xeb, 0xdf, 0xd4, 0x41,
  0xd8, 0x10, 0xeb, 0xf5, 0xf3, 0x21, 0x00, 0xdb, 0x39, 0x07, 0x42, 0xcd,
  0x30, 0xf1, 0xed, 0x34, 0x19, 0xe2, 0xe8, 0x04, 0x14, 0xef, 0x01, 0x00,
  0xe9, 0xf9, 0xee, 0x03, 0xe6, 0x3d, 0xdb, 0x1a, 0xe3, 0xce, 0x3b, 0xc9,
  0xd6, 0xfe, 0xf2, 0x06, 0xd9, 0x23, 0xb4, 0xc2, 0xf5, 0xf4, 0xd4, 0xcc,
  0xe1, 0xd1, 0xe7, 0xe0, 0xf8, 0xeb, 0xde, 0xd4, 0x32, 0x23, 0x1e, 0x20,
  0xf9, 0xef, 0x09, 0x2d, 0x32, 0xd4, 0x2e, 0x45, 0xdc, 0xf1, 0x1e, 0x4f,
  0x35, 0xe2, 0xc2, 0x34, 0x11, 0xfb, 0xf7, 0x16, 0x3f, 0x53, 0xd0, 0xe1,
  0x28, 0xe0, 0x19, 0x19, 0xe1, 0xc3, 0x10, 0xd0, 0x32, 0x22, 0xd3, 0x10,
  0xc2, 0x07, 0xe0, 0xf8, 0x30, 0xf0, 0xc8, 0xce, 0xfb, 0xfc, 0x25, 0xe4,
  0xea, 0xc6, 0xfc, 0x22, 0xc0, 0xc0, 0x23, 0x31, 0xf5, 0x07, 0xff, 0xec,
  0x28, 0xc4, 0x04, 0x2e, 0xaf, 0xc0, 0x24, 0xe7, 0x21, 0x26, 0xd7, 0x12,
  0x15, 0xf4, 0x1d, 0xe2, 0xe1, 0x0d, 0xf1, 0x22, 0xd9, 0xf7, 0xe1, 0x2b,
  0xd0, 0xe3, 0xd0, 0xf7, 0xfa, 0x13, 0x19, 0x22, 0x19, 0xea, 0xf8, 0x1a,
  0x18, 0xe3, 0xeb, 0x01, 0x20, 0xd9, 0x07, 0xe9, 0x21, 0x1f, 0xda, 0xe7,
  0x01, 0xec, 0xf5, 0xf7, 0xe3, 0xfa, 0x15, 0x1a, 0x18, 0x2a, 0xd7, 0xe6,
  0xe5, 0x0f, 0x1d, 0xcf, 0x19, 0xc8, 0xd0, 0xf5, 0x19, 0x05, 0x02, 0x1a,
  0xcd, 0xcb, 0x4f, 0x0f, 0x0a, 0x2d, 0x2d, 0x3c, 0x4a, 0x33, 0x04, 0xd2,
  0x31, 0xef, 0xb5, 0xb6, 0x0b, 0x29, 0x22, 0x42, 0x23, 0xd3, 0x69, 0x1f,
  0xb8, 0xba, 0x04, 0x57, 0x09, 0xae, 0x3c, 0xda, 0xd1, 0x3e, 0xc5, 0x66,
  0x5e, 0xfb, 0x37, 0x35, 0x08, 0x3d, 0xff, 0x34, 0x30, 0x39, 0xb8, 0xba,
  0x58, 0x06, 0xe8, 0x3c, 0xe8, 0xf7, 0xe9, 0x03, 0xe4, 0xd6, 0xac, 0xa4,
  0x3c, 0xa4, 0x4b, 0xcb, 0xfb, 0x01, 0xf3, 0x39, 0xe4, 0xc6, 0xdc, 0x74,
  0xf2, 0xfb, 0xc3, 0xb7, 0xf3, 0xcc, 0xfe, 0x09, 0x77, 0x18, 0x16, 0xe1,
  0x40, 0xca, 0xe0, 0x1b, 0x3d, 0xe3, 0x2b, 0x28, 0x35, 0x38, 0xfc, 0x40,
  0xbd, 0x91, 0x08, 0x22, 0xcb, 0xae, 0x2d, 0x3a, 0xd7, 0xf1, 0xee, 0xdb,
  0xc6, 0x24, 0xeb, 0xfb, 0xd6, 0xcd, 0xeb, 0x00, 0xeb, 0x5f, 0xb9, 0xdf,
  0x00, 0x23, 0xdb, 0x16, 0x5b, 0x36, 0x72, 0xfa, 0x54, 0xf6, 0x1f, 0x24,
  0xc2, 0x4a, 0xd4, 0xcb, 0xfa, 0x16, 0x43, 0xdd, 0x09, 0x49, 0x19, 0x08,
  0x02, 0x2b, 0x20, 0xfd, 0xe5, 0xd0, 0xfb, 0xc9, 0xd7, 0xda, 0x17, 0xc9,
  0xdd, 0x1f, 0xf7, 0x10, 0x24, 0xc9, 0xe5, 0xe1, 0x22, 0x2d, 0x5a, 0x5f,
  0x03, 0x0b, 0xe3, 0x23, 0xbc, 0xe8, 0xcf, 0x02, 0x08, 0x2f, 0xd1, 0xf4,
  0x0b, 0xfc, 0x0c, 0x12, 0xdd, 0x05, 0x24, 0xa8, 0xde, 0xfd, 0xe2, 0xeb,
  0xfc, 0xf2, 0xe5, 0x1f, 0x13, 0xf2, 0xf8, 0x19, 0x18, 0xdb, 0x1f, 0x19,
  0x17, 0x02, 0x0f, 0x21, 0xd6, 0x08, 0xd2, 0xf3, 0xd7, 0x06, 0x2f, 0x1c,
  0xce, 0x27, 0xde, 0x2d, 0xca, 0xd6, 0xfc, 0x11, 0x08, 0x44, 0xdf, 0xe5,
  0x03, 0xd8, 0x36, 0xe5, 0x31, 0x30, 0xf4, 0xfc, 0xf0, 0xfc, 0xf3, 0x24,
  0xf2, 0xf0, 0x30, 0xee, 0x2d, 0x18, 0xee, 0x24, 0xd0, 0xd3, 0x15, 0xf4,
  0xce, 0x34, 0x04, 0xe2, 0x2e, 0xf0, 0x04, 0xc3, 0x0f, 0x0b, 0x25, 0xef,
  0x10, 0xf7, 0xc8, 0xcf, 0x15, 0x1f, 0xf1, 0xce, 0xe7, 0xb6, 0xf3, 0xd5,
  0x43, 0x34, 0x05, 0x12, 0x38, 0xef, 0x0f, 0x05, 0x48, 0xc4, 0xdf, 0xdb,
  0xdb, 0x36, 0x07, 0xfd, 0x2c, 0xe9, 0xe7, 0xef, 0xea, 0xec, 0x0e, 0xca,
  0xdb, 0xd9, 0xf7, 0x1e, 0x19, 0x10, 0xf9, 0xdb, 0x2b, 0x2d, 0x2a, 0xce,
  0xe3, 0x24, 0xfe, 0xf9, 0x27, 0xd2, 0xed, 0xd9, 0xaa, 0xc5, 0x0b, 0x16,
  0x0e, 0x05, 0xd1, 0x25, 0xf9, 0x39, 0xc4, 0xda, 0xf6, 0x1e, 0x0b, 0xfd,
  0xcc, 0xf1, 0x10, 0x30, 0xe0, 0x30, 0x03, 0x03, 0xe1, 0xd8, 0xf4, 0x02,
  0xee, 0xb3, 0x4b, 0x4a, 0x19, 0xdc, 0x35, 0xe5, 0xb3, 0xb4, 0xbe, 0xca,
  0xf9, 0x52, 0x06, 0x0c, 0x48, 0x48, 0xf1, 0xcd, 0x5b, 0xde, 0xf7, 0x54,
  0x1d, 0xd7, 0xc3, 0xed, 0xe2, 0x58, 0xb8, 0xf5, 0x23, 0x9b, 0x4e, 0xa8,
  0xd9, 0xee, 0x09, 0xfe, 0xd8, 0xf2, 0xdc, 0x17, 0xfc, 0xde, 0x29, 0xdf,
  0x24, 0x16, 0x2c, 0xfb, 0x13, 0x24, 0x06, 0xdc, 0x05, 0xdc, 0xed, 0x12,
  0xd3, 0xec, 0xe1, 0x02, 0xdd, 0xd9, 0x23, 0x07, 0xce, 0x11, 0x0c, 0xcf,
  0x36, 0x06, 0x41, 0xfe, 0x0d, 0x26, 0x13, 0xe8, 0x01, 0xf8, 0x3a, 0x08,
  0xf0, 0x29, 0x17, 0xd1, 0x2a, 0x3a, 0x1a, 0xf8, 0x09, 0xf9, 0xef, 0xf0,
  0xfc, 0xf9, 0xf4, 0x1c, 0xf4, 0x40, 0xd4, 0xec, 0xe8, 0x1b, 0xe9, 0x35,
  0xee, 0x0a, 0xc1, 0x2c, 0x03, 0x40, 0x28, 0xfe, 0xeb, 0xf3, 0xd5, 0xff,
  0x33, 0x20, 0x33, 0xe7, 0x07, 0x2e, 0x3a, 0xe1, 0x01, 0x31, 0xe1, 0xe6,
  0xe1, 0xfa, 0xd8, 0xfa, 0x18, 0x10, 0x01, 0x1b, 0x16, 0x2f, 0x32, 0xdc,
  0x19, 0x0c, 0xea, 0x03, 0xdd, 0xf2, 0xdf, 0xcf, 0xf6, 0xee, 0xe3, 0x18,
  0x15, 0xf5, 0x14, 0x3c, 0xdf, 0x03, 0x21, 0x3e, 0xed, 0x41, 0x19, 0x26,
  0x16, 0xad, 0x41, 0xed, 0x08, 0x22, 0xfa, 0xab, 0xd6, 0xe4, 0xf3, 0xf2,
  0x08, 0x55, 0xfe, 0x3b, 0xdd, 0xdf, 0xe4, 0xea, 0x32, 0xdb, 0x4d, 0xe9,
  0x19, 0x43, 0x1e, 0x1c, 0x21, 0xf0, 0xfd, 0x41, 0xc5, 0xcf, 0xfe, 0xfd,
  0xaf, 0xba, 0x58, 0xab, 0x30, 0x26, 0x2a, 0xce, 0x3b, 0x22, 0xcb, 0x49,
  0x14, 0x0f, 0xa7, 0x77, 0xdf, 0x53, 0x3a, 0x02, 0xa5, 0x02, 0xc3, 0x13,
  0xbe, 0x09, 0x6c, 0x0d, 0xe7, 0xea, 0x34, 0x09, 0x98, 0xa8, 0xba, 0x24,
  0xbe, 0xf3, 0x9d, 0x09, 0xcd, 0x13, 0xb3, 0xc2, 0x9b, 0xb6, 0xde, 0xd3,
  0x0a, 0x1f, 0x10, 0xd3, 0x17, 0x24, 0xba, 0x87, 0xf7, 0xca, 0xf9, 0xf4,
  0x20, 0xfb, 0x22, 0xa4, 0x1b, 0x36, 0xc1, 0x47, 0xd3, 0x50, 0xba, 0x05,
  0x14, 0xdc, 0x3e, 0xa1, 0xca, 0xc5, 0xdb, 0xdc, 0xca, 0xac, 0x41, 0xd8,
  0xde, 0x2e, 0x25, 0xf3, 0x47, 0xd0, 0xcd, 0xcf, 0xf1, 0xc2, 0x11, 0xda,
  0xca, 0x44, 0x44, 0x27, 0xf5, 0x35, 0x46, 0xc0, 0xf0, 0xbf, 0x2e, 0x2d,
  0x40, 0x41, 0xfa, 0x04, 0xd4, 0xe1, 0xfd, 0xe4, 0x26, 0x23, 0x60, 0x32,
  0x1b, 0xc7, 0xa5, 0xf6, 0xda, 0xd3, 0x1d, 0xbc, 0xff, 0xa9, 0xbe, 0xda,
  0x1c, 0xd0, 0x29, 0xe1, 0x42, 0x3d, 0x33, 0xdd, 0x16, 0x07, 0x06, 0xe3,
  0xbd, 0x30, 0x26, 0x4a, 0x61, 0x20, 0xe5, 0xbe, 0xe6, 0x34, 0x2f, 0xe4,
  0xd8, 0x1d, 0x3d, 0x24, 0xf1, 0xe4, 0xdf, 0xe2, 0xdd, 0x2f, 0x21, 0xf9,
  0x10, 0x14, 0xdf, 0xd3, 0xec, 0x0d, 0xdc, 0x0d, 0x21, 0xe8, 0xee, 0x11,
  0x02, 0x2a, 0x0d, 0x31, 0xe6, 0x16, 0x0d, 0xbe, 0xe4, 0xf1, 0x1a, 0xdd,
  0x5a, 0x2e, 0x2f, 0x27, 0xef, 0x29, 0x14, 0x0d, 0x42, 0x15, 0xbb, 0xe3,
  0xe3, 0x0a, 0xe3, 0xfa, 0x2b, 0x15, 0x40, 0x28, 0xc5, 0xff, 0x4f, 0xfe,
  0x0e, 0x19, 0xd5, 0xd9, 0xed, 0x10, 0x00, 0xcc, 0xec, 0xdd, 0xe3, 0x44,
  0x26, 0x24, 0x12, 0xc8, 0x0e, 0x1b, 0xd8, 0xee, 0xef, 0xe4, 0x22, 0x1b,
  0x0c, 0xe6, 0xd4, 0xe4, 0x26, 0xf3, 0x1f, 0xfd, 0x14, 0xea, 0xd2, 0xdc,
  0x0e, 0x00, 0x00, 0xdf, 0x2c, 0xfc, 0x23, 0x20, 0x47, 0x00, 0x0a, 0x34,
  0x20, 0x0d, 0xfc, 0xdc, 0xe0, 0x03, 0x2e, 0x30, 0x21, 0x19, 0x41, 0x15,
  0xd7, 0xe5, 0xee, 0x25, 0xf1, 0x1a, 0xe0, 0x03, 0x20, 0x0d, 0xde, 0x0f,
  0xe2, 0xee, 0x0d, 0xe3, 0x34, 0x27, 0xe2, 0xf1, 0x0c, 0x2b, 0x3a, 0xe6,
  0x03, 0x16, 0xe5, 0xc9, 0xe0, 0xef, 0xf5, 0x2b, 0x1d, 0x19, 0x27, 0xf2,
  0xd2, 0x1c, 0x0f, 0x17, 0x0d, 0xfc, 0x00, 0xe8, 0x17, 0x12, 0xdc, 0xee,
  0xc7, 0xeb, 0x20, 0x1c, 0x23, 0xe2, 0xde, 0x1d, 0x0a, 0x23, 0xf3, 0x2f,
  0xdf, 0xd8, 0x10, 0xcb, 0x04, 0xbc, 0x13, 0xdd, 0x04, 0x14, 0x1e, 0xd9,
  0x28, 0x1c, 0x15, 0x03, 0x45, 0x2b, 0x33, 0xd4, 0xf1, 0x20, 0x14, 0x14,
  0x26, 0x1a, 0x01, 0xe4, 0xbe, 0x17, 0x38, 0xe4, 0x32, 0x41, 0x11, 0xe8,
  0x1d, 0x16, 0xca, 0xd7, 0xfa, 0x37, 0x24, 0xef, 0x44, 0xff, 0xe7, 0xd9,
  0x25, 0xfa, 0xda, 0x01, 0x34, 0xc7, 0xe6, 0xd0, 0xdf, 0xd1, 0x22, 0xd9,
  0xc0, 0xe9, 0xf5, 0x1c, 0xbd, 0x3e, 0xde, 0x07, 0x1a, 0x57, 0xdf, 0x0f,
  0xd2, 0x40, 0x0f, 0xcb, 0xc6, 0x33, 0x2d, 0xdc, 0x26, 0xf9, 0x26, 0x16,
  0x2a, 0x3c, 0x22, 0x05, 0x14, 0xd9, 0xf2, 0x0b, 0xf3, 0x32, 0xbd, 0xe7,
  0x12, 0xe4, 0x3d, 0x08, 0x00, 0xea, 0x09, 0x43, 0x24, 0xfc, 0xea, 0x27,
  0xc6, 0xf2, 0x2a, 0xec, 0x01, 0xd9, 0xe0, 0xdc, 0x2e, 0x39, 0xc6, 0x3b,
  0x00, 0x1a, 0x15, 0xdf, 0xfa, 0xe4, 0xf3, 0xe3, 0xe0, 0x27, 0xff, 0x30,
  0x31, 0xec, 0xe3, 0xff, 0x02, 0xcb, 0x3f, 0x50, 0xe7, 0x03, 0xe1, 0x0b,
  0x19, 0xe3, 0x0f, 0x43, 0x19, 0xdc, 0x00, 0x1a, 0xe1, 0xdc, 0x1b, 0x0a,
  0xfc, 0xe4, 0x21, 0xe7, 0x27, 0xe2, 0x23, 0x24, 0xac, 0xbb, 0x05, 0xd6,
  0x16, 0x38, 0xe9, 0xfa, 0x41, 0xfe, 0xfa, 0xdc, 0xcf, 0xd4, 0x4a, 0x3c,
  0x11, 0x1e, 0xf4, 0x12, 0xe6, 0xf9, 0xeb, 0xfd, 0x01, 0x41, 0x12, 0xd0,
  0xf0, 0xf3, 0x0d, 0xff, 0xcc, 0x20, 0xd9, 0xfe, 0x97, 0xd2, 0xde, 0xa3,
  0x36, 0xd2, 0x84, 0xa2, 0x16, 0x43, 0x3f, 0xca, 0x22, 0xf1, 0xf3, 0xa7,
  0xee, 0x4d, 0xa2, 0x1a, 0x14, 0xe6, 0x50, 0x27, 0x5c, 0x22, 0xd7, 0xe9,
  0x1b, 0x98, 0xab, 0xa6, 0xe8, 0xb5, 0xd0, 0xb4, 0xbc, 0x08, 0x2c, 0x17,
  0x0f, 0x1e, 0xe2, 0xfa, 0xf9, 0xe0, 0xb6, 0x1d, 0xf3, 0x71, 0x15, 0x3b,
  0xb7, 0x03, 0x29, 0x56, 0xaf, 0x1a, 0xbc, 0x97, 0x70, 0x22, 0x28, 0xdc,
  0x3e, 0x0e, 0x00, 0xcd, 0x16, 0x24, 0x43, 0x1d, 0xd6, 0x34, 0xf9, 0x07,
  0x15, 0x3f, 0x33, 0x44, 0x1b, 0xfb, 0x30, 0xf9, 0x12, 0x2c, 0xfb, 0xef,
  0xf6, 0xdc, 0xeb, 0xea, 0x25, 0x20, 0x1d, 0x29, 0xf7, 0x07, 0xcf, 0xc0,
  0x0e, 0xc6, 0x0c, 0xfc, 0x42, 0xde, 0x26, 0xd2, 0x09, 0x0b, 0xd8, 0x21,
  0x1a, 0xde, 0x06, 0x48, 0xe7, 0xd5, 0x16, 0xc8, 0xf1, 0x27, 0x3c, 0xec,
  0x28, 0x0f, 0x5a, 0xec, 0xd7, 0xb7, 0x09, 0xeb, 0x32, 0x18, 0x2b, 0xcf,
  0x29, 0xce, 0xbb, 0x12, 0xc0, 0x30, 0xde, 0xf9, 0x53, 0x9e, 0xc6, 0xd8,
  0xbf, 0x28, 0xe8, 0x35, 0xf8, 0x32, 0xcd, 0x23, 0x02, 0xaf, 0x1f, 0xc5,
  0xc8, 0xd3, 0x06, 0x0d, 0xc0, 0x56, 0x15, 0x2c, 0xce, 0x1e, 0x35, 0xa6,
  0xb0, 0x17, 0x20, 0xcb, 0x01, 0xc3, 0xa7, 0x44, 0x53, 0x0b, 0x53, 0xc3,
  0x4a, 0xdf, 0xcd, 0xda, 0x0c, 0xc6, 0x37, 0x55, 0xb7, 0xe7, 0x33, 0xc5,
  0xf9, 0x2e, 0xdc, 0xd5, 0xc0, 0x0b, 0x2e, 0xd7, 0xbb, 0x93, 0x1d, 0x0b,
  0xd3, 0xdf, 0xb8, 0xe3, 0x2e, 0xd9, 0xf8, 0xdd, 0x0a, 0x13, 0xcc, 0xc2,
  0x1f, 0x2b, 0xc3, 0xba, 0xbd, 0x06, 0xd5, 0x28, 0xda, 0x32, 0x9f, 0xf2,
  0x26, 0xbb, 0xf9, 0xc9, 0xf3, 0xc9, 0xff, 0xb1, 0x20, 0x02, 0xe8, 0x27,
  0x52, 0x17, 0x11, 0x13, 0x2d, 0x3b, 0xfd, 0x18, 0x31, 0xe1, 0x20, 0x0e,
  0xfe, 0xe9, 0x23, 0x01, 0xa3, 0x07, 0x22, 0xd4, 0xf4, 0xcc, 0x11, 0x4d,
  0x3c, 0x21, 0x00, 0x12, 0xd4, 0x41, 0x06, 0xd1, 0xce, 0x1a, 0x28, 0x28,
  0x00, 0x0a, 0x28, 0xd4, 0xbd, 0xed, 0x37, 0xc8, 0x12, 0xe9, 0x05, 0x25,
  0x27, 0x3a, 0x10, 0xf7, 0x33, 0x27, 0xe6, 0x6f, 0x21, 0x39, 0x10, 0x0c,
  0xcf, 0x50, 0x22, 0xf2, 0x17, 0xf1, 0x04, 0x2b, 0x16, 0xf8, 0xec, 0xf7,
  0xd3, 0x3f, 0xf6, 0xe4, 0xb3, 0xfe, 0xd0, 0xba, 0x07, 0xde, 0x13, 0x1d,
  0x16, 0xed, 0x1f, 0xb9, 0x01, 0x05, 0xb4, 0x0e, 0xf0, 0xfe, 0xde, 0xb2,
  0x38, 0xfa, 0xed, 0x08, 0xc5, 0x3f, 0xda, 0xd4, 0x4a, 0x04, 0xfb, 0x32,
  0x49, 0xb1, 0xb1, 0x32, 0x20, 0xf3, 0xdb, 0x12, 0x04, 0xd6, 0x23, 0x04,
  0xe3, 0x42, 0xbe, 0xd8, 0x4c, 0xeb, 0xec, 0x2d, 0x05, 0x01, 0xdf, 0x34,
  0x12, 0x10, 0xd2, 0x3c, 0xdc, 0xc5, 0xeb, 0xd8, 0x00, 0xfd, 0xdc, 0xf5,
  0xdb, 0x11, 0xb0, 0x1d, 0xe0, 0x11, 0xc0, 0x10, 0xbb, 0x27, 0xf1, 0x17,
  0xdc, 0xfb, 0x09, 0x3f, 0x37, 0xf0, 0xe1, 0xa1, 0x49, 0xcd, 0x31, 0xcf,
  0x2a, 0x23, 0xdf, 0x4d, 0x1d, 0xfe, 0x42, 0x3b, 0x0b, 0x44, 0xe2, 0x21,
  0xf7, 0x2b, 0xb2, 0x35, 0xf7, 0xca, 0xeb, 0xad, 0xab, 0x3f, 0x1c, 0xf1,
  0x2f, 0x3b, 0x26, 0xce, 0xf0, 0xde, 0x30, 0xdc, 0xf4, 0xf5, 0x1e, 0xfb,
  0xf7, 0x24, 0xfe, 0xe8, 0xd3, 0xc5, 0xe1, 0x00, 0xec, 0xd5, 0xb8, 0xed,
  0x31, 0xee, 0xe5, 0x0c, 0xe2, 0xfe, 0xeb, 0xf3, 0x08, 0xf4, 0x0d, 0x21,
  0xe0, 0x0e, 0x49, 0x2d, 0x10, 0xd5, 0x06, 0xfa, 0x2d, 0xc7, 0xde, 0x28,
  0x00, 0x33, 0xec, 0xe8, 0xda, 0x26, 0x2f, 0xd7, 0xf7, 0xee, 0xdd, 0x0f,
  0x06, 0xce, 0x41, 0x2b, 0xf9, 0xd8, 0xf5, 0x31, 0xe6, 0x29, 0x1a, 0xd2,
  0x3b, 0x0a, 0x29, 0xe3, 0x36, 0x2e, 0xf4, 0x0e, 0x04, 0xe3, 0x07, 0xc3,
  0xe7, 0x01, 0x06, 0x07, 0x00, 0x33, 0x31, 0x18, 0xf7, 0x09, 0x0f, 0xe6,
  0x07, 0xd8, 0x3b, 0xf4, 0xcb, 0x0c, 0x2f, 0xd5, 0xe2, 0x1b, 0x09, 0x16,
  0x1f, 0x3c, 0xe0, 0xe6, 0xe4, 0x28, 0x23, 0xf8, 0x32, 0x27, 0x14, 0xfc,
  0xe5, 0x0d, 0x1f, 0x0c, 0xfe, 0xfb, 0x0e, 0xd6, 0xd8, 0x1d, 0x34, 0x18,
  0x33, 0xfd, 0xc8, 0x1e, 0x12, 0xed, 0x19, 0x08, 0xb8, 0x30, 0x3e, 0x23,
  0xf2, 0x11, 0xd0, 0xd7, 0xe5, 0x0b, 0x0d, 0x1c, 0x54, 0xdc, 0x32, 0xb9,
  0x30, 0x22, 0x45, 0xf2, 0xca, 0x29, 0x2a, 0x3c, 0xd2, 0xd3, 0xf4, 0x21,
  0x10, 0x01, 0x45, 0x31, 0x28, 0xc0, 0xc1, 0x32, 0xe8, 0xb6, 0x0c, 0xe4,
  0xe4, 0x16, 0x2f, 0xdb, 0x2d, 0xc7, 0xe5, 0xcc, 0x35, 0x0f, 0xef, 0xdb,
  0x00, 0xe5, 0xb2, 0xfc, 0xfe, 0x2d, 0x4e, 0x07, 0x1e, 0x14, 0x23, 0xf3,
  0xdd, 0x14, 0xe4, 0xe0, 0x17, 0xd8, 0xdd, 0x20, 0xe5, 0x2b, 0x1f, 0xe0,
  0x16, 0xda, 0x06, 0x1d, 0x0a, 0x1d, 0xd1, 0x04, 0x16, 0x1f, 0x34, 0x34,
  0x11, 0xde, 0xdf, 0xf7, 0x07, 0xfb, 0xed, 0x06, 0xf3, 0xe7, 0x10, 0x07,
  0xda, 0x26, 0x13, 0x1d, 0x0d, 0xde, 0xd4, 0xf6, 0xfa, 0xe6, 0xde, 0xda,
  0x02, 0xce, 0xf9, 0xd8, 0x28, 0xc2, 0xe5, 0xf0, 0x03, 0x1c, 0xd8, 0x25,
  0x06, 0x04, 0x29, 0x01, 0xfd, 0x11, 0xcf, 0xab, 0x12, 0x1f, 0x19, 0xe1,
  0xdc, 0xc6, 0xd5, 0x12, 0xe8, 0xe1, 0xe0, 0x3b, 0x1c, 0x42, 0xd5, 0x10,
  0x20, 0x09, 0x24, 0xda, 0x18, 0xe5, 0xc5, 0xd4, 0x0b, 0x10, 0x25, 0xc4,
  0xf5, 0xd2, 0xfa, 0xe1, 0x10, 0xcc, 0x39, 0xec, 0x4b, 0xfd, 0xee, 0x39,
  0xfa, 0x0d, 0x30, 0x2d, 0x2d, 0x33, 0xc5, 0x0b, 0xee, 0x24, 0xed, 0xfe,
  0x06, 0xba, 0x2d, 0xf8, 0x05, 0x1c, 0x48, 0xe2, 0x1f, 0xe3, 0x07, 0xdb,
  0x0b, 0x0e, 0xe5, 0xef, 0x23, 0x1f, 0x0a, 0x1c, 0xf5, 0x39, 0x1c, 0xe8,
  0x0e, 0xfc, 0x23, 0x05, 0xdc, 0x1f, 0x39, 0x21, 0xe4, 0x13, 0x11, 0xe6,
  0x06, 0xf9, 0xcf, 0xf5, 0xf6, 0x14, 0x32, 0xf0, 0xf8, 0x18, 0x07, 0xf4,
  0x1b, 0x19, 0x15, 0xed, 0x27, 0xd5, 0x34, 0xd4, 0xe6, 0x23, 0xf7, 0xdb,
  0x01, 0xe9, 0xd5, 0x0d, 0x09, 0x34, 0xd9, 0x09, 0xe7, 0xcf, 0x15, 0xef,
  0xbb, 0x08, 0xd2, 0x08, 0x29, 0x34, 0xbb, 0x22, 0x19, 0x43, 0xe7, 0x3a,
  0xb7, 0xe1, 0x40, 0x4d, 0x09, 0xe4, 0xc3, 0x12, 0xcd, 0xe0, 0xfb, 0xf7,
  0xd7, 0x05, 0x21, 0xd1, 0xe1, 0x39, 0xbe, 0x06, 0xb8, 0x50, 0xdf, 0xd2,
  0x07, 0x1c, 0xb1, 0xdb, 0xcc, 0xc1, 0x37, 0xcb, 0x41, 0x25, 0xcc, 0x21,
  0xa9, 0xe8, 0x38, 0xc2, 0x27, 0xb3, 0xea, 0xb3, 0xe7, 0x07, 0x36, 0x56,
  0x33, 0xf9, 0xac, 0xc0, 0x02, 0xfc, 0xef, 0x13, 0x04, 0xfa, 0xf3, 0xce,
  0xed, 0x3b, 0xdd, 0x33, 0x17, 0x23, 0x2e, 0x00, 0x12, 0x2c, 0xd5, 0x31,
  0x51, 0xf5, 0xe8, 0xf4, 0x33, 0x4a, 0x08, 0x41, 0x0b, 0x15, 0x24, 0x47,
  0xce, 0xf7, 0x32, 0x13, 0x22, 0x13, 0x24, 0xdd, 0xb7, 0x24, 0x20, 0xd6,
  0x05, 0xb3, 0xcc, 0xd3, 0x28, 0xe9, 0xd2, 0xdd, 0xcf, 0x12, 0xce, 0x2a,
  0xd1, 0xda, 0x13, 0x1a, 0xdf, 0x04, 0xf8, 0xa6, 0xe5, 0xee, 0xc4, 0x3f,
  0x01, 0x1c, 0x26, 0xfb, 0xc7, 0xed, 0x2a, 0x10, 0xc5, 0xdb, 0x2d, 0xd3,
  0xc0, 0xc8, 0x27, 0xfb, 0xcd, 0xd9, 0x1d, 0x30, 0x0a, 0xbf, 0x02, 0x05,
  0x2a, 0xc4, 0xf7, 0x30, 0x21, 0x1c, 0x4c, 0xcc, 0x2c, 0x53, 0xd6, 0xc6,
  0xe9, 0xd4, 0xb5, 0xea, 0xe8, 0xea, 0xcb, 0x23, 0xf9, 0xe4, 0x29, 0xbf,
  0x01, 0xc5, 0x0b, 0xf5, 0x0e, 0xe5, 0x23, 0xee, 0xd0, 0xdd, 0xc7, 0x58,
  0xf6, 0x25, 0xef, 0x11, 0xe8, 0xde, 0x26, 0x51, 0x0f, 0xe8, 0x11, 0x31,
  0xd2, 0x09, 0x21, 0x02, 0xfa, 0xd7, 0x24, 0x31, 0x44, 0x27, 0x07, 0x22,
  0x0e, 0x13, 0xf5, 0xd2, 0x10, 0xec, 0xd8, 0x15, 0xc9, 0xe8, 0xcc, 0xd5,
  0xb8, 0x18, 0x0d, 0x33, 0xfc, 0x35, 0xe1, 0xbf, 0xe7, 0x09, 0xdb, 0xed,
  0x01, 0x1f, 0x0c, 0x3a, 0x10, 0xdb, 0xda, 0xe8, 0x25, 0xd4, 0xd5, 0x14,
  0x23, 0xfe, 0xeb, 0xb8, 0xe9, 0xdf, 0xaf, 0xad, 0x2f, 0xf4, 0x1d, 0x26,
  0x05, 0x3e, 0x0e, 0xfe, 0x04, 0x02, 0x3c, 0x39, 0x1b, 0xb2, 0x2b, 0x01,
  0xb7, 0x0d, 0xd2, 0xa2, 0x14, 0x44, 0xf7, 0xbf, 0xde, 0x1f, 0xbe, 0xf8,
  0xfb, 0x2e, 0x45, 0x05, 0xce, 0xa1, 0xd5, 0x09, 0x07, 0xd9, 0x05, 0xb3,
  0x48, 0x48, 0xd5, 0xb7, 0xd2, 0x19, 0x03, 0xdd, 0x3e, 0xf6, 0x14, 0x1a,
  0xd4, 0xd6, 0x45, 0x35, 0xfe, 0xc2, 0xe6, 0xd7, 0xc2, 0xf7, 0x03, 0xe0,
  0xa5, 0x15, 0x30, 0x40, 0xf7, 0xea, 0xb7, 0xdb, 0x47, 0xf1, 0xe5, 0xcc,
  0x12, 0xb7, 0xd6, 0x05, 0xaf, 0xb9, 0x15, 0x25, 0xdf, 0x96, 0xf4, 0x2b,
  0x05, 0xec, 0x30, 0xd6, 0x29, 0x35, 0x76, 0xdf, 0x17, 0x50, 0xcc, 0xfa,
  0x27, 0xac, 0x21, 0xa6, 0x4a, 0xda, 0xcc, 0x38, 0xb8, 0x00, 0x21, 0x1c,
  0x10, 0x50, 0x39, 0x05, 0xec, 0x46, 0x37, 0x0f, 0xef, 0xce, 0x13, 0xc6,
  0xff, 0x06, 0xbd, 0xbe, 0xf2, 0xd7, 0xc8, 0xe1, 0xec, 0xce, 0x06, 0xf3,
  0x08, 0xad, 0xf2, 0x12, 0x1d, 0xd6, 0x25, 0xd3, 0xcd, 0xdb, 0xf3, 0xeb,
  0x30, 0xe4, 0xcb, 0xad, 0xe8, 0x25, 0xc8, 0xf3, 0xe2, 0x19, 0xed, 0x1a,
  0xce, 0xe4, 0xdb, 0x0c, 0x1c, 0x0e, 0xd0, 0x38, 0x2f, 0x14, 0xc6, 0xc0,
  0x25, 0xfa, 0xe9, 0x1d, 0xc5, 0x36, 0x1f, 0xdc, 0x29, 0x1e, 0x0d, 0x0b,
  0xe2, 0xc8, 0xca, 0xf0, 0x4d, 0x47, 0xf2, 0xfe, 0xcb, 0x04, 0x22, 0xa3,
  0xd5, 0xe9, 0x9d, 0xc3, 0x25, 0x40, 0x11, 0xbe, 0x04, 0xe4, 0xd0, 0x4f,
  0x31, 0xc1, 0xc4, 0xf1, 0xb2, 0x3e, 0x35, 0x32, 0x07, 0x60, 0x17, 0x36,
  0x0e, 0x23, 0xd2, 0xd0, 0x1c, 0xef, 0x3b, 0x03, 0x9f, 0x07, 0xfd, 0xee,
  0x30, 0xb8, 0x05, 0xb9, 0xfb, 0x02, 0x3d, 0xcb, 0x1a, 0x1f, 0x1b, 0xb0,
  0x01, 0x46, 0x15, 0x48, 0x2c, 0x0c, 0x34, 0x3f, 0xbc, 0x15, 0x46, 0xb9,
  0xe4, 0x1d, 0xed, 0x3a, 0x1d, 0x04, 0x3b, 0x3b, 0xc0, 0xb2, 0xce, 0xd9,
  0xfe, 0xda, 0x27, 0x2d, 0x9c, 0x3e, 0x00, 0x55, 0x02, 0xac, 0x9d, 0x98,
  0xf3, 0xd1, 0x2c, 0x40, 0x08, 0x14, 0x0d, 0x12, 0x35, 0xfc, 0xf5, 0xf5,
  0xd2, 0x16, 0x18, 0x15, 0xce, 0x1b, 0x44, 0xf2, 0x37, 0x57, 0xe5, 0x0b,
  0x20, 0x3d, 0x33, 0xfa, 0xf8, 0xd8, 0x38, 0xf6, 0xc8, 0xe9, 0xaa, 0xf3,
  0x21, 0xcf, 0x16, 0xea, 0x0f, 0xef, 0x2b, 0x32, 0x1e, 0x02, 0x22, 0xf8,
  0xfa, 0xe9, 0xf5, 0xea, 0xdd, 0x16, 0xf6, 0xf5, 0x25, 0x15, 0x08, 0xe1,
  0x33, 0xfb, 0x01, 0xe1, 0x0a, 0x2c, 0xf6, 0xc6, 0x29, 0xba, 0xf4, 0x10,
  0xd9, 0x04, 0x0d, 0xd0, 0xf0, 0xe6, 0xd8, 0x1b, 0x1e, 0x2e, 0xfa, 0x29,
  0xe6, 0xcb, 0x2c, 0x27, 0xca, 0xe9, 0x1a, 0x18, 0x30, 0x1e, 0xd5, 0xf4,
  0x22, 0xf4, 0xf7, 0xce, 0xf5, 0x1b, 0x23, 0x04, 0x04, 0xda, 0xca, 0x16,
  0xf7, 0x08, 0xf0, 0x1c, 0x31, 0xeb, 0x0a, 0xea, 0x01, 0xdb, 0xfa, 0x1b,
  0x07, 0xde, 0x37, 0x1e, 0xee, 0xe3, 0xe6, 0x2a, 0xd5, 0xe6, 0x0c, 0x09,
  0xed, 0xe8, 0x02, 0x2f, 0x16, 0xda, 0x1f, 0xeb, 0xe2, 0xf0, 0x22, 0xd8,
  0x0f, 0xef, 0x16, 0xce, 0xf6, 0xdf, 0xf2, 0x22, 0x0a, 0x17, 0xf1, 0x1e,
  0xd8, 0x06, 0x09, 0x00, 0xe4, 0xf8, 0x06, 0xe8, 0x33, 0xb2, 0x0d, 0x07,
  0x27, 0x3a, 0xf4, 0xb3, 0xf0, 0xe7, 0x17, 0x09, 0xf6, 0x2e, 0xe8, 0x12,
  0x46, 0x2a, 0x2e, 0x29, 0xcd, 0x4b, 0xf3, 0x09, 0x5a, 0xee, 0x1f, 0x2d,
  0x2e, 0x2b, 0xfc, 0x0b, 0xcb, 0x10, 0xf4, 0x08, 0x07, 0xc9, 0xcf, 0x35,
  0x2e, 0x2f, 0xe3, 0x10, 0x38, 0x3f, 0xf6, 0xb5, 0x10, 0xc3, 0xd2, 0xdd,
  0xa7, 0x0b, 0xe0, 0x0e, 0x33, 0x3b, 0x44, 0x9c, 0x44, 0xfe, 0x2f, 0xbf,
  0x38, 0xf1, 0xc4, 0xe4, 0xe8, 0x05, 0xfb, 0xd9, 0xd7, 0xf9, 0x2f, 0x23,
  0xe3, 0x10, 0x1a, 0x48, 0xe9, 0xe6, 0xfb, 0x30, 0xf5, 0x1c, 0xd5, 0x17,
  0x19, 0xec, 0xf4, 0x0f, 0x2c, 0x36, 0xdc, 0x05, 0xd5, 0xf4, 0xd1, 0xcf,
  0xf3, 0xda, 0xfc, 0xe9, 0x14, 0x00, 0xdb, 0xde, 0xf5, 0x2a, 0x24, 0xea,
  0x2f, 0xed, 0x19, 0xd0, 0x0c, 0xc7, 0xd9, 0xca, 0xe6, 0xe1, 0x07, 0x28,
  0x0d, 0xf8, 0x04, 0x30, 0xfe, 0xfb, 0x14, 0xb7, 0xff, 0x3e, 0xd2, 0xd6,
  0xf6, 0xfb, 0xef, 0xea, 0x30, 0xd9, 0xed, 0x05, 0xd1, 0xb4, 0xe7, 0xbe,
  0xc6, 0x03, 0x2c, 0x34, 0xff, 0xd3, 0xfc, 0xc7, 0xd6, 0xfb, 0xcd, 0x14,
  0xd7, 0x24, 0xe3, 0xfc, 0xcd, 0xdc, 0xee, 0xef, 0xe0, 0xc7, 0x16, 0x2a,
  0xf4, 0x2c, 0x1e, 0xfe, 0x2d, 0x1e, 0xc6, 0xfc, 0xb0, 0x10, 0x00, 0x27,
  0x0f, 0x06, 0x09, 0x04, 0xc7, 0x3a, 0xde, 0xf7, 0x23, 0x07, 0x08, 0x37,
  0x14, 0xeb, 0x29, 0xf6, 0x20, 0x13, 0xd0, 0x16, 0x0a, 0x01, 0x27, 0xd4,
  0xfa, 0xf1, 0x20, 0xe2, 0xf5, 0xf2, 0x03, 0xe2, 0xef, 0xf4, 0xee, 0x29,
  0xd9, 0xd9, 0xf7, 0xec, 0xd8, 0xf6, 0x07, 0xf6, 0x14, 0xcf, 0x27, 0x11,
  0x07, 0xf0, 0x1b, 0xe9, 0x20, 0xe5, 0x18, 0xf9, 0x33, 0x30, 0x0a, 0xf3,
  0xf8, 0x0e, 0xd3, 0x2f, 0x02, 0xff, 0x04, 0x0f, 0xfe, 0x19, 0xeb, 0x0b,
  0x03, 0xc6, 0x20, 0x32, 0x07, 0xca, 0x20, 0x2d, 0x2b, 0x15, 0x2f, 0x15,
  0x3f, 0xd7, 0x0f, 0x20, 0x2d, 0xc3, 0xfb, 0xea, 0xe4, 0xf2, 0x29, 0x01,
  0xec, 0xdc, 0xcf, 0x0c, 0xfc, 0x15, 0x1d, 0x1a, 0xe0, 0x3b, 0xe1, 0xe5,
  0x0c, 0x03, 0xea, 0xd8, 0xe2, 0x38, 0x01, 0x23, 0x26, 0xe8, 0x19, 0xbb,
  0xcf, 0xe0, 0xef, 0x3d, 0xea, 0x37, 0x36, 0xdc, 0xf4, 0xcb, 0x25, 0xf0,
  0x07, 0x2c, 0x12, 0xdb, 0xec, 0xda, 0xd4, 0xc8, 0x2a, 0x37, 0x29, 0xdf,
  0xcd, 0x29, 0x54, 0xf2, 0x2f, 0x0b, 0xbe, 0x9b, 0xda, 0xcf, 0xa7, 0xf2,
  0x25, 0x30, 0xf9, 0x3b, 0xec, 0x17, 0x06, 0xce, 0x16, 0xb9, 0xd1, 0xb1,
  0xb1, 0x14, 0x20, 0xed, 0x4d, 0x2c, 0xc4, 0x0e, 0xc3, 0xa4, 0xd9, 0xea,
  0x1d, 0xeb, 0x3b, 0xe8, 0x60, 0x0b, 0x0d, 0x01, 0x0e, 0x29, 0x27, 0x18,
  0xd4, 0xbd, 0x33, 0x03, 0x11, 0x38, 0xb4, 0x2c, 0x55, 0x40, 0xf7, 0xf4,
  0xe3, 0x17, 0xdb, 0xc8, 0x05, 0xef, 0xcc, 0xaf, 0x30, 0xe3, 0x33, 0xfb,
  0xda, 0xfc, 0x3a, 0x0a, 0x62, 0xa4, 0x23, 0xdb, 0x37, 0x1c, 0x2c, 0x17,
  0x22, 0xff, 0x5d, 0xef, 0xbd, 0xf8, 0xaf, 0xea, 0xd6, 0xc5, 0x2f, 0xd4,
  0x35, 0xed, 0xc8, 0x95, 0x1b, 0xb9, 0x30, 0x90, 0xd7, 0x19, 0x57, 0x05,
  0xaf, 0xa8, 0xf4, 0xea, 0x61, 0x10, 0xbe, 0x3d, 0xff, 0xcb, 0x51, 0x2a,
  0x8b, 0xc7, 0x2c, 0xb9, 0xc7, 0x34, 0x24, 0x01, 0x22, 0x24, 0xec, 0x4b,
  0x63, 0x3a, 0x0c, 0xdd, 0x06, 0xb2, 0xef, 0x17, 0x1d, 0xfd, 0xfc, 0x34,
  0x1b, 0x33, 0x18, 0xf4, 0x06, 0xa4, 0xfb, 0x13, 0xe8, 0x2b, 0x27, 0x0b,
  0x64, 0x01, 0xb0, 0xf9, 0xb2, 0x9f, 0x11, 0x47, 0x3a, 0x22, 0xce, 0xff,
  0x5c, 0xf3, 0x59, 0xfb, 0x15, 0x45, 0x52, 0xe1, 0x49, 0x1d, 0x28, 0x14,
  0xeb, 0x56, 0x2e, 0x0a, 0xfe, 0xf2, 0xf5, 0x2b, 0x1d, 0x1e, 0x2b, 0xe0,
  0x08, 0x20, 0xfa, 0x3f, 0xee, 0x40, 0x41, 0x10, 0x42, 0xe3, 0x41, 0x08,
  0x0f, 0xd1, 0x14, 0xc9, 0xec, 0xdd, 0x4d, 0xde, 0x1d, 0xe4, 0x07, 0x3b,
  0xdb, 0x2f, 0x2b, 0xe8, 0xc4, 0x1e, 0xe3, 0x13, 0xd3, 0xdb, 0x13, 0xf7,
  0x1e, 0x03, 0x12, 0xed, 0xdb, 0x12, 0x4f, 0x1d, 0xfc, 0xe2, 0x35, 0xee,
  0x11, 0xc1, 0xf8, 0x37, 0x5b, 0x21, 0x2a, 0x01, 0x18, 0x34, 0xd8, 0x07,
  0xec, 0xee, 0x35, 0xb9, 0x4c, 0xeb, 0x2e, 0x4d, 0x30, 0x20, 0xf5, 0x09,
  0xfb, 0x01, 0xc8, 0x3c, 0xe1, 0x03, 0xfc, 0x0e, 0x27, 0x12, 0xe7, 0x2b,
  0xd1, 0xe4, 0xe6, 0x11, 0x1e, 0x00, 0xfe, 0xea, 0xf9, 0x0f, 0xe2, 0x0b,
  0xe8, 0x0d, 0x0a, 0xd9, 0xd4, 0x16, 0x51, 0x1a, 0xdb, 0x1c, 0xd5, 0xfe,
  0x08, 0xef, 0x00, 0xc0, 0xed, 0xf1, 0x25, 0x2c, 0x2f, 0xf8, 0xfe, 0x0b,
  0x38, 0xfa, 0x44, 0xbf, 0xdd, 0xf9, 0x1a, 0x43, 0x45, 0x52, 0x41, 0xcb,
  0x3e, 0x4d, 0x2e, 0xce, 0xe9, 0x4b, 0xd7, 0xd3, 0x3b, 0xca, 0x23, 0xea,
  0x06, 0x0b, 0x01, 0x58, 0x3c, 0xfc, 0xbb, 0xf6, 0xbf, 0x13, 0xf3, 0xf9,
  0xe0, 0x31, 0x43, 0x1f, 0xcd, 0xd2, 0xed, 0xb4, 0x37, 0x0d, 0x15, 0xbe,
  0xa2, 0x30, 0x23, 0xfa, 0xf2, 0x0c, 0xe6, 0x0d, 0xe3, 0x3f, 0x03, 0x2a,
  0x28, 0xd3, 0x03, 0xb8, 0xed, 0xdb, 0x3b, 0x2c, 0x1b, 0xd1, 0xec, 0xf5,
  0x26, 0x07, 0xcb, 0xca, 0xea, 0xe6, 0xef, 0x14, 0xd2, 0xda, 0x0d, 0xef,
  0x08, 0xfe, 0x33, 0x28, 0x34, 0xfb, 0x04, 0x13, 0x38, 0xcc, 0x45, 0x46,
  0xeb, 0x30, 0xef, 0x2f, 0x05, 0x15, 0x1c, 0x1a, 0xe8, 0x1c, 0x20, 0x0f,
  0xf2, 0x0e, 0x29, 0xc5, 0x0e, 0x01, 0x2c, 0xf6, 0x25, 0xd9, 0x0f, 0x27,
  0x36, 0x32, 0x1f, 0xca, 0xf8, 0xb1, 0x20, 0xc2, 0x47, 0x21, 0xfd, 0x1c,
  0x07, 0xe6, 0x15, 0x07, 0xfa, 0xee, 0x39, 0xe1, 0x0f, 0x38, 0x0a, 0x25,
  0xf3, 0x10, 0x31, 0x33, 0xf7, 0x35, 0x20, 0xfe, 0x38, 0xe4, 0xe3, 0x26,
  0x27, 0xf6, 0xf8, 0x1d, 0x10, 0xc1, 0xbf, 0x0b, 0xc5, 0x11, 0x08, 0xe9,
  0xde, 0x1b, 0x31, 0xe8, 0x1b, 0xe0, 0x1e, 0xf3, 0xe2, 0xe8, 0x4f, 0x20,
  0xf2, 0xfb, 0x10, 0xcc, 0x17, 0x2b, 0xdb, 0x28, 0xd2, 0xde, 0x0f, 0xc7,
  0x50, 0xf8, 0x19, 0xdf, 0xd2, 0xbb, 0x58, 0xdc, 0x46, 0x40, 0xda, 0x0d,
  0x6c, 0x2e, 0x59, 0x13, 0x43, 0x27, 0xbc, 0xe9, 0x2f, 0xfd, 0x4f, 0x4a,
  0xa6, 0x13, 0x07, 0x3a, 0x07, 0x15, 0x38, 0x9f, 0x31, 0x49, 0xdc, 0xbe,
  0xc4, 0xf3, 0x40, 0xd4, 0x3b, 0x54, 0xb5, 0x46, 0xc8, 0x2c, 0x45, 0x29,
  0x11, 0x1f, 0x45, 0x45, 0x45, 0x02, 0x1d, 0x11, 0x24, 0xaa, 0x42, 0x18,
  0xbf, 0x3d, 0xd2, 0x39, 0xfa, 0xf2, 0x0f, 0x30, 0xdf, 0xf6, 0x0b, 0x2f,
  0xeb, 0x16, 0xf8, 0x2e, 0x0b, 0xe9, 0x07, 0x25, 0x25, 0x21, 0x0d, 0x1a,
  0x32, 0x09, 0x1a, 0xee, 0x35, 0xfb, 0xf2, 0x15, 0x19, 0x12, 0x06, 0xf8,
  0xea, 0x25, 0x1e, 0xe4, 0x06, 0xe6, 0xda, 0xe8, 0x0d, 0x1b, 0x21, 0x1d,
  0x04, 0x18, 0x0b, 0xff, 0x00, 0x12, 0x12, 0x25, 0xef, 0xf5, 0x07, 0xf4,
  0x22, 0x20, 0xe9, 0xfc, 0xe9, 0x1c, 0xf0, 0xf7, 0xc3, 0xf3, 0x0a, 0x42,
  0x28, 0x28, 0x38, 0xb6, 0xd3, 0xd3, 0xe0, 0xf6, 0x2c, 0xc2, 0x4d, 0xdd,
  0xf7, 0xfe, 0x3b, 0xe2, 0xc5, 0xd2, 0xcd, 0x1e, 0xd1, 0x44, 0xd2, 0x0c,
  0xec, 0x0a, 0xca, 0xea, 0xcb, 0x2a, 0x1a, 0x0b, 0x0e, 0xe9, 0xfb, 0x1c,
  0xeb, 0x3e, 0xd8, 0x15, 0x4b, 0xff, 0x49, 0x35, 0xfc, 0xde, 0xd6, 0x2f,
  0xfc, 0xe8, 0x22, 0x3c, 0x02, 0x00, 0x50, 0x2e, 0xed, 0xdc, 0x21, 0xe7,
  0x1f, 0x0c, 0x02, 0xe5, 0x05, 0xea, 0x16, 0xee, 0x30, 0xf0, 0xdc, 0x17,
  0x10, 0xd3, 0x01, 0x19, 0xcd, 0x14, 0x02, 0x0a, 0xfd, 0xec, 0x0f, 0x03,
  0xc6, 0xcf, 0x02, 0x07, 0xef, 0xdf, 0x0f, 0xf5, 0xfd, 0x10, 0xf0, 0x34,
  0x22, 0x21, 0x04, 0x20, 0xe5, 0x00, 0x1d, 0x07, 0x19, 0x18, 0x22, 0x21,
  0x19, 0xec, 0xcc, 0xdb, 0x08, 0x06, 0xd5, 0xd4, 0xda, 0xd4, 0x0b, 0xe3,
  0xc5, 0x12, 0x29, 0xf6, 0xee, 0x11, 0xf8, 0x13, 0x00, 0xe4, 0xcd, 0xe3,
  0xf2, 0xe1, 0xd1, 0xe7, 0x2d, 0xe3, 0xd3, 0xe2, 0x0f, 0x14, 0x08, 0xf8,
  0xda, 0x21, 0x0c, 0x18, 0x28, 0xf7, 0x2d, 0xe1, 0x0b, 0xd4, 0xe2, 0xfa,
  0xdf, 0xe0, 0xdf, 0xe4, 0x1e, 0x05, 0xdf, 0x12, 0x09, 0xe4, 0xd4, 0x18,
  0x08, 0xe3, 0xff, 0xfb, 0xfd, 0xef, 0xfe, 0x1d, 0x1a, 0xed, 0x01, 0x1d,
  0xf6, 0x13, 0x0e, 0xfb, 0x0a, 0xdb, 0xf6, 0x30, 0x02, 0x0f, 0xdc, 0xfd,
  0x15, 0xf9, 0xc8, 0xe5, 0xed, 0xcf, 0x0d, 0x05, 0x18, 0xfa, 0x08, 0xd3,
  0x29, 0xfb, 0x3e, 0xf4, 0x3b, 0x3d, 0xe7, 0xed, 0x22, 0x04, 0x06, 0xf7,
  0x30, 0xf3, 0xe3, 0x09, 0xfa, 0x08, 0xcc, 0x1b, 0x15, 0xda, 0x20, 0x52,
  0xef, 0x3d, 0x3e, 0xe2, 0xcc, 0x0a, 0xe8, 0x24, 0xf5, 0xe3, 0x24, 0xd6,
  0x0f, 0x45, 0xe6, 0x52, 0xe2, 0xcb, 0xdf, 0x18, 0xd9, 0x01, 0xe8, 0xe4,
  0x1a, 0x3f, 0xf3, 0x3a, 0x1c, 0xb3, 0xdf, 0x81, 0x10, 0x27, 0xde, 0x11,
  0xeb, 0xf5, 0x62, 0xa9, 0x52, 0xaf, 0x18, 0x3b, 0x07, 0xeb, 0x15, 0xde,
  0x1d, 0x12, 0x29, 0xf8, 0x24, 0x15, 0xfe, 0x9d, 0xc0, 0x38, 0xa6, 0xf2,
  0xf7, 0x27, 0x41, 0x34, 0x6c, 0x6f, 0xb8, 0x48, 0xe0, 0xdd, 0xac, 0x43,
  0x30, 0xe1, 0xb5, 0xdc, 0x04, 0xa5, 0x0a, 0x64, 0xb9, 0x1c, 0x3d, 0xa9,
  0x1f, 0x35, 0x96, 0xe1, 0x3b, 0xf6, 0xfd, 0xbd, 0x00, 0x34, 0xdd, 0x19,
  0xd5, 0x00, 0x1b, 0x35, 0xb7, 0xdc, 0x1a, 0x46, 0x09, 0xfd, 0x1f, 0x05,
  0x21, 0xcc, 0xfe, 0x1d, 0x18, 0x0d, 0xce, 0xf9, 0x1b, 0x07, 0x1e, 0x21,
  0xeb, 0xfe, 0x10, 0x25, 0xdf, 0xca, 0x3b, 0x47, 0x19, 0xd0, 0x26, 0xff,
  0x28, 0xfb, 0xd2, 0x1a, 0xe4, 0x2f, 0xe5, 0x2f, 0xf3, 0xf0, 0x34, 0xe6,
  0xe4, 0xf6, 0xd3, 0x18, 0xed, 0x32, 0x14, 0xf0, 0x23, 0x1f, 0xe4, 0xe7,
  0xd4, 0xd5, 0x0d, 0x3d, 0x29, 0xec, 0x26, 0xf4, 0xcc, 0x1e, 0x1b, 0xfa,
  0xf3, 0x19, 0xe6, 0x11, 0x00, 0x32, 0x35, 0x0f, 0x10, 0xd6, 0x2e, 0xbb,
  0xc9, 0x2e, 0x32, 0xd4, 0x30, 0xcd, 0x08, 0xf5, 0x20, 0xd1, 0x3b, 0xcf,
  0x03, 0x16, 0x33, 0xf6, 0x1b, 0xd4, 0xd8, 0xdd, 0xe4, 0xfb, 0xc9, 0x1d,
  0xf6, 0xeb, 0x13, 0xe5, 0xed, 0x14, 0x2e, 0xe1, 0xd7, 0xee, 0x41, 0x22,
  0x55, 0xeb, 0x18, 0x25, 0x07, 0xd1, 0x00, 0x18, 0x29, 0x14, 0xd8, 0xf7,
  0xdd, 0xc5, 0x1a, 0xc3, 0x4b, 0xe4, 0x10, 0x06, 0x31, 0xe3, 0xbc, 0xeb,
  0x2f, 0xf6, 0x40, 0x3a, 0x12, 0xdf, 0x24, 0x26, 0xe0, 0x1a, 0x64, 0x71,
  0xe2, 0xbb, 0x1a, 0x2b, 0xbf, 0x0c, 0xb9, 0xe5, 0xd4, 0xff, 0xca, 0xf3,
  0x00, 0xd7, 0xaf, 0xbf, 0x0d, 0xae, 0xb2, 0x18, 0x17, 0x18, 0xe5, 0x2e,
  0xd5, 0x3b, 0x28, 0xe0, 0xe4, 0xea, 0xeb, 0x0f, 0x20, 0xe5, 0xe5, 0xc3,
  0xe6, 0x1a, 0xe6, 0x29, 0xce, 0xc8, 0xb4, 0x20, 0xf8, 0x2f, 0x39, 0x40,
  0xf5, 0xf3, 0x41, 0xe1, 0xe8, 0xc6, 0xca, 0xeb, 0x16, 0xed, 0xfe, 0x26,
  0x1d, 0xc1, 0xff, 0x0d, 0xc2, 0x09, 0x06, 0xc7, 0x22, 0x56, 0xff, 0xbb,
  0x30, 0x4f, 0x1c, 0x0a, 0xfd, 0xbe, 0x28, 0x56, 0x1d, 0xd1, 0xc6, 0x11,
  0x26, 0xf9, 0x37, 0xc6, 0x1a, 0xe1, 0x16, 0x2b, 0xf3, 0x0e, 0xe0, 0x06,
  0xe6, 0xe5, 0x1f, 0xe6, 0x0f, 0xc0, 0xdd, 0xda, 0xc0, 0xdb, 0xd5, 0x18,
  0x30, 0x03, 0x18, 0x32, 0xbe, 0x2c, 0x29, 0x34, 0xc5, 0xd6, 0xde, 0x34,
  0xe9, 0xfe, 0xbc, 0xfe, 0x08, 0xf8, 0xef, 0x2c, 0xd1, 0x3f, 0x0e, 0xfa,
  0x01, 0x31, 0xd9, 0xf4, 0xdb, 0x0b, 0xfb, 0x3c, 0xdd, 0xbd, 0x25, 0x44,
  0xcc, 0xc6, 0xd6, 0x01, 0x45, 0x04, 0xcd, 0xd3, 0xea, 0xc9, 0xc5, 0x24,
  0xf2, 0xfe, 0xff, 0xff, 0x04, 0x00, 0x00, 0x00, 0x00, 0x01, 0x00, 0x00,
  0x19, 0x01, 0x00, 0x00, 0xc3, 0x03, 0x00, 0x00, 0xc3, 0x01, 0x00, 0x00,
  0xc6, 0xfd, 0xff, 0xff, 0x31, 0xff, 0xff, 0xff, 0x17, 0x0a, 0x00, 0x00,
  0x1d, 0x00, 0x00, 0x00, 0xc6, 0x05, 0x00, 0x00, 0x74, 0x04, 0x00, 0x00,
  0x52, 0xf7, 0xff, 0xff, 0x59, 0x06, 0x00, 0x00, 0x9d, 0xfa, 0xff, 0xff,
  0x57, 0xfc, 0xff, 0xff, 0x9e, 0xfc, 0xff, 0xff, 0x78, 0xfa, 0xff, 0xff,
  0xd2, 0x07, 0x00, 0x00, 0xb6, 0xfc, 0xff, 0xff, 0xc2, 0xfa, 0xff, 0xff,
  0x3b, 0xfb, 0xff, 0xff, 0xc6, 0xfb, 0xff, 0xff, 0x17, 0xfe, 0xff, 0xff,
  0x40, 0xfd, 0xff, 0xff, 0xbe, 0xf9, 0xff, 0xff, 0x6b, 0x0b, 0x00, 0x00,
  0xa0, 0x02, 0x00, 0x00, 0x92, 0xff, 0xff, 0xff, 0x2f, 0xff, 0xff, 0xff,
  0xef, 0xff, 0xff, 0xff, 0x32, 0xfd, 0xff, 0xff, 0xe7, 0x07, 0x00, 0x00,
  0x8f, 0xfe, 0xff, 0xff, 0xf3, 0x02, 0x00, 0x00, 0x92, 0x00, 0x00, 0x00,
  0xc5, 0xff, 0xff, 0xff, 0x10, 0xfa, 0xff, 0xff, 0x18, 0x03, 0x00, 0x00,
  0xe6, 0xf6, 0xff, 0xff, 0xbb, 0xfe, 0xff, 0xff, 0xd9, 0xfd, 0xff, 0xff,
  0xa4, 0xfe, 0xff, 0xff, 0x77, 0xff, 0xff, 0xff, 0xfa, 0xff, 0xff, 0xff,
  0x05, 0xfa, 0xff, 0xff, 0xb8, 0xf7, 0xff, 0xff, 0x98, 0xf7, 0xff, 0xff,
  0xfb, 0xfa, 0xff, 0xff, 0x07, 0xf7, 0xff, 0xff, 0x95, 0xf7, 0xff, 0xff,
  0x44, 0xff, 0xff, 0xff, 0x75, 0xfa, 0xff, 0xff, 0x65, 0x01, 0x00, 0x00,
  0x18, 0x01, 0x00, 0x00, 0xab, 0x00, 0x00, 0x00, 0x2e, 0xfa, 0xff, 0xff,
  0x30, 0xff, 0xff, 0xff, 0xb9, 0xfd, 0xff, 0xff, 0xbc, 0x07, 0x00, 0x00,
  0x35, 0x00, 0x00, 0x00, 0x97, 0xf9, 0xff, 0xff, 0x17, 0xfa, 0xff, 0xff,
  0xce, 0x00, 0x00, 0x00, 0x2f, 0xfc, 0xff, 0xff, 0xfb, 0xfd, 0xff, 0xff,
  0xad, 0xfa, 0xff, 0xff, 0x00, 0x00, 0x06, 0x00, 0x08, 0x00, 0x04, 0x00,
  0x06, 0x00, 0x00, 0x00, 0x04, 0x00, 0x00, 0x00, 0x00, 0x02, 0x00, 0x00,
  0x1c, 0x59, 0xbb, 0xc9, 0x1c, 0x26, 0xd7, 0xde, 0xd5, 0x00, 0xdd, 0xdb,
  0xc3, 0x2d, 0xe0, 0xca, 0x04, 0xd5, 0x44, 0x2d, 0xbb, 0x1a, 0xbd, 0x1b,
  0xee, 0x0d, 0x22, 0x13, 0x20, 0xd6, 0xe0, 0x20, 0x34, 0xd2, 0x0f, 0x2c,
  0x10, 0xf9, 0xd0, 0xfc, 0x1c, 0x3c, 0x0b, 0x1f, 0x30, 0x5c, 0xfd, 0xd3,
  0x37, 0xe4, 0xcd, 0x1b, 0x27, 0xf0, 0xe9, 0xde, 0xe9, 0xc3, 0x53, 0x32,
  0xd4, 0xde, 0x31, 0xca, 0x03, 0x0d, 0xea, 0x29, 0x29, 0x12, 0xe4, 0xc9,
  0x29, 0xe5, 0xf8, 0xd3, 0xde, 0xfd, 0xba, 0x60, 0x17, 0xe6, 0x03, 0x3d,
  0xfd, 0x11, 0xe5, 0xc5, 0xf5, 0xf1, 0xfd, 0x24, 0xed, 0xc1, 0xd5, 0xe8,
  0xd0, 0xee, 0x26, 0x38, 0xce, 0xe0, 0xf7, 0x15, 0xfe, 0xdc, 0xd4, 0xdc,
  0x2b, 0x1b, 0x01, 0x15, 0xff, 0x1b, 0xb7, 0xf2, 0x37, 0xac, 0xe5, 0xcf,
  0x48, 0x40, 0xd9, 0x09, 0xff, 0x02, 0x1b, 0xc5, 0x01, 0xda, 0x33, 0x28,
  0x1b, 0xc9, 0x1f, 0x07, 0xe8, 0xcb, 0xd1, 0xf7, 0xd1, 0x1a, 0xc7, 0x31,
  0x3a, 0x34, 0xde, 0xf5, 0xd4, 0xf7, 0xb9, 0x1f, 0x33, 0x08, 0xe6, 0xdc,
  0xd3, 0xfd, 0xe2, 0x23, 0x2b, 0xe5, 0x2f, 0x30, 0x22, 0xc1, 0x17, 0x0e,
  0x1b, 0xee, 0x24, 0x1a, 0x0e, 0xda, 0xe6, 0xe8, 0xef, 0xd0, 0xe1, 0x2a,
  0x04, 0xfd, 0x2f, 0x1e, 0x28, 0xbf, 0x1f, 0x35, 0xc2, 0x23, 0x01, 0xc3,
  0x2f, 0x22, 0x29, 0x3a, 0x13, 0x25, 0xda, 0x2b, 0xf7, 0x23, 0x12, 0xdb,
  0xe3, 0xd8, 0x0f, 0xd0, 0x06, 0x1e, 0xf6, 0xc2, 0xdb, 0x05, 0xf8, 0xf7,
  0xe3, 0xe8, 0x39, 0xe0, 0x2b, 0xc1, 0xea, 0xf1, 0x50, 0x21, 0x09, 0xbf,
  0x48, 0xc6, 0x26, 0x0b, 0xaf, 0x2c, 0x37, 0x0d, 0x2f, 0x2c, 0x0e, 0xa6,
  0x2a, 0x1a, 0x04, 0xd5, 0xe8, 0xf3, 0xd9, 0xf7, 0xb4, 0xd7, 0x22, 0xee,
  0xbd, 0x59, 0x0f, 0x09, 0x2b, 0xfb, 0x1f, 0x2d, 0x1b, 0x05, 0xe0, 0xef,
  0xfb, 0xcb, 0x5d, 0xb5, 0x57, 0x2a, 0xbd, 0x7f, 0x21, 0xb9, 0x18, 0xe9,
  0x4f, 0xc6, 0x06, 0x5c, 0x99, 0x01, 0x29, 0xb9, 0x22, 0x02, 0x45, 0x0a,
  0xd2, 0xfa, 0xc8, 0xf8, 0xe7, 0xb8, 0xda, 0x36, 0xfc, 0x1b, 0xd9, 0x1e,
  0xc8, 0x28, 0x21, 0x30, 0xef, 0xf3, 0xd1, 0x1c, 0x1e, 0x25, 0x05, 0x12,
  0xda, 0x0b, 0xc1, 0xe6, 0x1f, 0x29, 0xdf, 0xf6, 0xd7, 0xea, 0xac, 0x40,
  0xc5, 0x0f, 0xf8, 0xec, 0xe9, 0x11, 0x23, 0x3b, 0x28, 0x1e, 0xf3, 0x24,
  0xdd, 0x13, 0x01, 0x1b, 0x20, 0xdf, 0xdc, 0x2d, 0xf7, 0x62, 0x82, 0x24,
  0xcc, 0xc9, 0xee, 0xd0, 0xbf, 0x32, 0xc9, 0xc9, 0x28, 0x15, 0xed, 0x24,
  0x02, 0x02, 0xdd, 0xce, 0xe8, 0x03, 0x07, 0x1c, 0x31, 0xeb, 0xf0, 0x49,
  0xe3, 0x03, 0x96, 0x7b, 0xc9, 0xf6, 0xbf, 0x04, 0xe4, 0xf7, 0xfd, 0x26,
  0xea, 0x3a, 0x07, 0x53, 0x02, 0x16, 0x02, 0x40, 0xc6, 0x43, 0xde, 0xfe,
  0x42, 0xe8, 0xf0, 0x06, 0xf7, 0x06, 0x34, 0x35, 0x04, 0xe8, 0x02, 0xee,
  0x02, 0x10, 0xdb, 0x35, 0x93, 0xae, 0x4d, 0xb5, 0xea, 0xa9, 0x57, 0xf1,
  0xe3, 0x44, 0xc0, 0x64, 0xd2, 0x24, 0x14, 0xdd, 0xfd, 0xd3, 0xe2, 0x1f,
  0x10, 0xe6, 0xdb, 0xf9, 0xe1, 0x20, 0x18, 0x1b, 0x0e, 0xc7, 0x3f, 0xec,
  0xcb, 0xb3, 0x18, 0xf5, 0x34, 0x0c, 0x0b, 0x00, 0xfa, 0x2e, 0x38, 0x1c,
  0xdc, 0xe3, 0x21, 0x29, 0x1f, 0xf6, 0x04, 0xf1, 0xe9, 0x01, 0xea, 0xeb,
  0xbe, 0xd6, 0xc0, 0xdc, 0x24, 0xf0, 0xbe, 0xb2, 0x0d, 0xbb, 0x19, 0xfb,
  0x50, 0x1d, 0xfa, 0xcf, 0x07, 0x1d, 0xd0, 0x0d, 0x3d, 0x00, 0xb2, 0x19,
  0x24, 0x06, 0x14, 0x1a, 0xef, 0xcf, 0xcc, 0x1c, 0xfe, 0x05, 0x02, 0xf3,
  0xc3, 0x23, 0xa3, 0x12, 0xbc, 0xcf, 0x2b, 0xf0, 0x84, 0xff, 0xff, 0xff,
  0x88, 0xff, 0xff, 0xff, 0x0f, 0x00, 0x00, 0x00, 0x4d, 0x4c, 0x49, 0x52,
  0x20, 0x43, 0x6f, 0x6e, 0x76, 0x65, 0x72, 0x74, 0x65, 0x64, 0x2e, 0x00,
  0x01, 0x00, 0x00, 0x00, 0x14, 0x00, 0x00, 0x00, 0x00, 0x00, 0x0e, 0x00,
  0x18, 0x00, 0x14, 0x00, 0x10, 0x00, 0x0c, 0x00, 0x08, 0x00, 0x04, 0x00,
  0x0e, 0x00, 0x00, 0x00, 0x14, 0x00, 0x00, 0x00, 0x1c, 0x00, 0x00, 0x00,
  0xdc, 0x00, 0x00, 0x00, 0xe0, 0x00, 0x00, 0x00, 0xe4, 0x00, 0x00, 0x00,
  0x04, 0x00, 0x00, 0x00, 0x6d, 0x61, 0x69, 0x6e, 0x00, 0x00, 0x00, 0x00,
  0x03, 0x00, 0x00, 0x00, 0x84, 0x00, 0x00, 0x00, 0x3c, 0x00, 0x00, 0x00,
  0x04, 0x00, 0x00, 0x00, 0x96, 0xff, 0xff, 0xff, 0x14, 0x00, 0x00, 0x00,
  0x00, 0x00, 0x00, 0x08, 0x10, 0x00, 0x00, 0x00, 0x14, 0x00, 0x00, 0x00,
  0x04, 0x00, 0x04, 0x00, 0x04, 0x00, 0x00, 0x00, 0x01, 0x00, 0x00, 0x00,
  0x09, 0x00, 0x00, 0x00, 0x03, 0x00, 0x00, 0x00, 0x08, 0x00, 0x00, 0x00,
  0x05, 0x00, 0x00, 0x00, 0x06, 0x00, 0x00, 0x00, 0xca, 0xff, 0xff, 0xff,
  0x10, 0x00, 0x00, 0x00, 0x00, 0x00, 0x00, 0x08, 0x10, 0x00, 0x00, 0x00,
  0x14, 0x00, 0x00, 0x00, 0xba, 0xff, 0xff, 0xff, 0x00, 0x00, 0x00, 0x01,
  0x01, 0x00, 0x00, 0x00, 0x08, 0x00, 0x00, 0x00, 0x03, 0x00, 0x00, 0x00,
  0x07, 0x00, 0x00, 0x00, 0x03, 0x00, 0x00, 0x00, 0x04, 0x00, 0x00, 0x00,
  0x00, 0x00, 0x0e, 0x00, 0x16, 0x00, 0x00, 0x00, 0x10, 0x00, 0x0c, 0x00,
  0x0b, 0x00, 0x04, 0x00, 0x0e, 0x00, 0x00, 0x00, 0x18, 0x00, 0x00, 0x00,
  0x00, 0x00, 0x00, 0x08, 0x18, 0x00, 0x00, 0x00, 0x1c, 0x00, 0x00, 0x00,
  0x00, 0x00, 0x06, 0x00, 0x08, 0x00, 0x07, 0x00, 0x06, 0x00, 0x00, 0x00,
  0x00, 0x00, 0x00, 0x01, 0x01, 0x00, 0x00, 0x00, 0x07, 0x00, 0x00, 0x00,
  0x03, 0x00, 0x00, 0x00, 0x00, 0x00, 0x00, 0x00, 0x01, 0x00, 0x00, 0x00,
  0x02, 0x00, 0x00, 0x00, 0x01, 0x00, 0x00, 0x00, 0x09, 0x00, 0x00, 0x00,
  0x01, 0x00, 0x00, 0x00, 0x00, 0x00, 0x00, 0x00, 0x0a, 0x00, 0x00, 0x00,
  0x6c, 0x05, 0x00, 0x00, 0xdc, 0x04, 0x00, 0x00, 0x50, 0x04, 0x00, 0x00,
  0xcc, 0x03, 0x00, 0x00, 0x50, 0x03, 0x00, 0x00, 0xe4, 0x02, 0x00, 0x00,
  0x70, 0x02, 0x00, 0x00, 0x7c, 0x01, 0x00, 0x00, 0x80, 0x00, 0x00, 0x00,
  0x04, 0x00, 0x00, 0x00, 0xd0, 0xfa, 0xff, 0xff, 0x18, 0x00, 0x00, 0x00,
  0x20, 0x00, 0x00, 0x00, 0x40, 0x00, 0x00, 0x00, 0x0a, 0x00, 0x00, 0x00,
  0x00, 0x00, 0x00, 0x09, 0x54, 0x00, 0x00, 0x00, 0x02, 0x00, 0x00, 0x00,
  0xff, 0xff, 0xff, 0xff, 0x06, 0x00, 0x00, 0x00, 0xbc, 0xfa, 0xff, 0xff,
  0x08, 0x00, 0x00, 0x00, 0x14, 0x00, 0x00, 0x00, 0x01, 0x00, 0x00, 0x00,
  0xea, 0xff, 0xff, 0xff, 0xff, 0xff, 0xff, 0xff, 0x00, 0x00, 0x00, 0x00,
  0x01, 0x00, 0x00, 0x00, 0xba, 0xc6, 0x8f, 0x3d, 0x19, 0x00, 0x00, 0x00,
  0x53, 0x74, 0x61, 0x74, 0x65, 0x66, 0x75, 0x6c, 0x50, 0x61, 0x72, 0x74,
  0x69, 0x74, 0x69, 0x6f, 0x6e, 0x65, 0x64, 0x43, 0x61, 0x6c, 0x6c, 0x3a,
  0x30, 0x00, 0x00, 0x00, 0x02, 0x00, 0x00, 0x00, 0x01, 0x00, 0x00, 0x00,
  0x06, 0x00, 0x00, 0x00, 0x48, 0xfb, 0xff, 0xff, 0x18, 0x00, 0x00, 0x00,
  0x20, 0x00, 0x00, 0x00, 0x40, 0x00, 0x00, 0x00, 0x09, 0x00, 0x00, 0x00,
  0x00, 0x00, 0x00, 0x09, 0xd4, 0x00, 0x00, 0x00, 0x02, 0x00, 0x00, 0x00,
  0xff, 0xff, 0xff, 0xff, 0x80, 0x00, 0x00, 0x00, 0x34, 0xfb, 0xff, 0xff,
  0x08, 0x00, 0x00, 0x00, 0x14, 0x00, 0x00, 0x00, 0x01, 0x00, 0x00, 0x00,
  0x80, 0xff, 0xff, 0xff, 0xff, 0xff, 0xff, 0xff, 0x00, 0x00, 0x00, 0x00,
  0x01, 0x00, 0x00, 0x00, 0xac, 0xee, 0x63, 0x3c, 0x98, 0x00, 0x00, 0x00,
  0x73, 0x65, 0x71, 0x75, 0x65, 0x6e, 0x74, 0x69, 0x61, 0x6c, 0x2f, 0x64,
  0x65, 0x6e, 0x73, 0x65, 0x5f, 0x31, 0x2f, 0x4d, 0x61, 0x74, 0x4d, 0x75,
  0x6c, 0x3b, 0x73, 0x65, 0x71, 0x75, 0x65, 0x6e, 0x74, 0x69, 0x61, 0x6c,
  0x2f, 0x62, 0x61, 0x74, 0x63, 0x68, 0x5f, 0x6e, 0x6f, 0x72, 0x6d, 0x61,
  0x6c, 0x69, 0x7a, 0x61, 0x74, 0x69, 0x6f, 0x6e, 0x5f, 0x31, 0x2f, 0x62,
  0x61, 0x74, 0x63, 0x68, 0x6e, 0x6f, 0x72, 0x6d, 0x2f, 0x6d, 0x75, 0x6c,
  0x5f, 0x31, 0x3b, 0x73, 0x65, 0x71, 0x75, 0x65, 0x6e, 0x74, 0x69, 0x61,
  0x6c, 0x2f, 0x61, 0x63, 0x74, 0x69, 0x76, 0x61, 0x74, 0x69, 0x6f, 0x6e,
  0x5f, 0x31, 0x2f, 0x52, 0x65, 0x6c, 0x75, 0x3b, 0x73, 0x65, 0x71, 0x75,
  0x65, 0x6e, 0x74, 0x69, 0x61, 0x6c, 0x2f, 0x62, 0x61, 0x74, 0x63, 0x68,
  0x5f, 0x6e, 0x6f, 0x72, 0x6d, 0x61, 0x6c, 0x69, 0x7a, 0x61, 0x74, 0x69,
  0x6f, 0x6e, 0x5f, 0x31, 0x2f, 0x62, 0x61, 0x74, 0x63, 0x68, 0x6e, 0x6f,
  0x72, 0x6d, 0x2f, 0x61, 0x64, 0x64, 0x5f, 0x31, 0x00, 0x00, 0x00, 0x00,
  0x02, 0x00, 0x00, 0x00, 0x01, 0x00, 0x00, 0x00, 0x80, 0x00, 0x00, 0x00,
  0x40, 0xfc, 0xff, 0xff, 0x18, 0x00, 0x00, 0x00, 0x20, 0x00, 0x00, 0x00,
  0x40, 0x00, 0x00, 0x00, 0x08, 0x00, 0x00, 0x00, 0x00, 0x00, 0x00, 0x09,
  0xcc, 0x00, 0x00, 0x00, 0x02, 0x00, 0x00, 0x00, 0xff, 0xff, 0xff, 0xff,
  0x40, 0x00, 0x00, 0x00, 0x2c, 0xfc, 0xff, 0xff, 0x08, 0x00, 0x00, 0x00,
  0x14, 0x00, 0x00, 0x00, 0x01, 0x00, 0x00, 0x00, 0x80, 0xff, 0xff, 0xff,
  0xff, 0xff, 0xff, 0xff, 0x00, 0x00, 0x00, 0x00, 0x01, 0x00, 0x00, 0x00,
  0x7b, 0xce, 0x41, 0x3c, 0x90, 0x00, 0x00, 0x00, 0x73, 0x65, 0x71, 0x75,
  0x65, 0x6e, 0x74, 0x69, 0x61, 0x6c, 0x2f, 0x64, 0x65, 0x6e, 0x73, 0x65,
  0x2f, 0x4d, 0x61, 0x74, 0x4d, 0x75, 0x6c, 0x3b, 0x73, 0x65, 0x71, 0x75,
  0x65, 0x6e, 0x74, 0x69, 0x61, 0x6c, 0x2f, 0x62, 0x61, 0x74, 0x63, 0x68,
  0x5f, 0x6e, 0x6f, 0x72, 0x6d, 0x61, 0x6c, 0x69, 0x7a, 0x61, 0x74, 0x69,
  0x6f, 0x6e, 0x2f, 0x62, 0x61, 0x74, 0x63, 0x68, 0x6e, 0x6f, 0x72, 0x6d,
  0x2f, 0x6d, 0x75, 0x6c, 0x5f, 0x31, 0x3b, 0x73, 0x65, 0x71, 0x75, 0x65,
  0x6e, 0x74, 0x69, 0x61, 0x6c, 0x2f, 0x61, 0x63, 0x74, 0x69, 0x76, 0x61,
  0x74, 0x69, 0x6f, 0x6e, 0x2f, 0x52, 0x65, 0x6c, 0x75, 0x3b, 0x73, 0x65,
  0x71, 0x75, 0x65, 0x6e, 0x74, 0x69, 0x61, 0x6c, 0x2f, 0x62, 0x61, 0x74,
  0x63, 0x68, 0x5f, 0x6e, 0x6f, 0x72, 0x6d, 0x61, 0x6c, 0x69, 0x7a, 0x61,
  0x74, 0x69, 0x6f, 0x6e, 0x2f, 0x62, 0x61, 0x74, 0x63, 0x68, 0x6e, 0x6f,
  0x72, 0x6d, 0x2f, 0x61, 0x64, 0x64, 0x5f, 0x31, 0x00, 0x00, 0x00, 0x00,
  0x02, 0x00, 0x00, 0x00, 0x01, 0x00, 0x00, 0x00, 0x40, 0x00, 0x00, 0x00,
  0xb6, 0xfd, 0xff, 0xff, 0x14, 0x00, 0x00, 0x00, 0x30, 0x00, 0x00, 0x00,
  0x07, 0x00, 0x00, 0x00, 0x00, 0x00, 0x00, 0x02, 0x54, 0x00, 0x00, 0x00,
  0x0c, 0xfd, 0xff, 0xff, 0x08, 0x00, 0x00, 0x00, 0x10, 0x00, 0x00, 0x00,
  0x01, 0x00, 0x00, 0x00, 0x00, 0x00, 0x00, 0x00, 0x00, 0x00, 0x00, 0x00,
  0x01, 0x00, 0x00, 0x00, 0x1d, 0x74, 0x1b, 0x38, 0x29, 0x00, 0x00, 0x00,
  0x73, 0x65, 0x71, 0x75, 0x65, 0x6e, 0x74, 0x69, 0x61, 0x6c, 0x2f, 0x64,
  0x65, 0x6e, 0x73, 0x65, 0x5f, 0x32, 0x2f, 0x42, 0x69, 0x61, 0x73, 0x41,
  0x64, 0x64, 0x2f, 0x52, 0x65, 0x61, 0x64, 0x56, 0x61, 0x72, 0x69, 0x61,
  0x62, 0x6c, 0x65, 0x4f, 0x70, 0x00, 0x00, 0x00, 0x01, 0x00, 0x00, 0x00,
  0x06, 0x00, 0x00, 0x00, 0x26, 0xfe, 0xff, 0xff, 0x14, 0x00, 0x00, 0x00,
  0x34, 0x00, 0x00, 0x00, 0x06, 0x00, 0x00, 0x00, 0x00, 0x00, 0x00, 0x09,
  0x48, 0x00, 0x00, 0x00, 0x7c, 0xfd, 0xff, 0xff, 0x08, 0x00, 0x00, 0x00,
  0x14, 0x00, 0x00, 0x00, 0x01, 0x00, 0x00, 0x00, 0x00, 0x00, 0x00, 0x00,
  0x00, 0x00, 0x00, 0x00, 0x00, 0x00, 0x00, 0x00, 0x01, 0x00, 0x00, 0x00,
  0xa0, 0x98, 0x2e, 0x3b, 0x19, 0x00, 0x00, 0x00, 0x73, 0x65, 0x71, 0x75,
  0x65, 0x6e, 0x74, 0x69, 0x61, 0x6c, 0x2f, 0x64, 0x65, 0x6e, 0x73, 0x65,
  0x5f, 0x32, 0x2f, 0x4d, 0x61, 0x74, 0x4d, 0x75, 0x6c, 0x00, 0x00, 0x00,
  0x02, 0x00, 0x00, 0x00, 0x06, 0x00, 0x00, 0x00, 0x80, 0x00, 0x00, 0x00,
  0x8e, 0xfe, 0xff, 0xff, 0x14, 0x00, 0x00, 0x00, 0x34, 0x00, 0x00, 0x00,
  0x05, 0x00, 0x00, 0x00, 0x00, 0x00, 0x00, 0x02, 0x5c, 0x00, 0x00, 0x00,
  0xe4, 0xfd, 0xff, 0xff, 0x08, 0x00, 0x00, 0x00, 0x14, 0x00, 0x00, 0x00,
  0x01, 0x00, 0x00, 0x00, 0x00, 0x00, 0x00, 0x00, 0x00, 0x00, 0x00, 0x00,
  0x00, 0x00, 0x00, 0x00, 0x01, 0x00, 0x00, 0x00, 0xf0, 0x2f, 0x8e, 0x38,
  0x2e, 0x00, 0x00, 0x00, 0x73, 0x65, 0x71, 0x75, 0x65, 0x6e, 0x74, 0x69,
  0x61, 0x6c, 0x2f, 0x62, 0x61, 0x74, 0x63, 0x68, 0x5f, 0x6e, 0x6f, 0x72,
  0x6d, 0x61, 0x6c, 0x69, 0x7a, 0x61, 0x74, 0x69, 0x6f, 0x6e, 0x5f, 0x31,
  0x2f, 0x62, 0x61, 0x74, 0x63, 0x68, 0x6e, 0x6f, 0x72, 0x6d, 0x2f, 0x73,
  0x75, 0x62, 0x00, 0x00, 0x01, 0x00, 0x00, 0x00, 0x80, 0x00, 0x00, 0x00,
  0x06, 0xff, 0xff, 0xff, 0x14, 0x00, 0x00, 0x00, 0x34, 0x00, 0x00, 0x00,
  0x04, 0x00, 0x00, 0x00, 0x00, 0x00, 0x00, 0x09, 0x60, 0x00, 0x00, 0x00,
  0x5c, 0xfe, 0xff, 0xff, 0x08, 0x00, 0x00, 0x00, 0x14, 0x00, 0x00, 0x00,
  0x01, 0x00, 0x00, 0x00, 0x00, 0x00, 0x00, 0x00, 0x00, 0x00, 0x00, 0x00,
  0x00, 0x00, 0x00, 0x00, 0x01, 0x00, 0x00, 0x00, 0xd9, 0xd0, 0xbb, 0x3b,
  0x30, 0x00, 0x00, 0x00, 0x73, 0x65, 0x71, 0x75, 0x65, 0x6e, 0x74, 0x69,
  0x61, 0x6c, 0x2f, 0x62, 0x61, 0x74, 0x63, 0x68, 0x5f, 0x6e, 0x6f, 0x72,
  0x6d, 0x61, 0x6c, 0x69, 0x7a, 0x61, 0x74, 0x69, 0x6f, 0x6e, 0x5f, 0x31,
  0x2f, 0x62, 0x61, 0x74, 0x63, 0x68, 0x6e, 0x6f, 0x72, 0x6d, 0x2f, 0x6d,
  0x75, 0x6c, 0x5f, 0x31, 0x00, 0x00, 0x00, 0x00, 0x02, 0x00, 0x00, 0x00,
  0x80, 0x00, 0x00, 0x00, 0x40, 0x00, 0x00, 0x00, 0x86, 0xff, 0xff, 0xff,
  0x14, 0x00, 0x00, 0x00, 0x34, 0x00, 0x00, 0x00, 0x03, 0x00, 0x00, 0x00,
  0x00, 0x00, 0x00, 0x02, 0x5c, 0x00, 0x00, 0x00, 0xdc, 0xfe, 0xff, 0xff,
  0x08, 0x00, 0x00, 0x00, 0x14, 0x00, 0x00, 0x00, 0x01, 0x00, 0x00, 0x00,
  0x00, 0x00, 0x00, 0x00, 0x00, 0x00, 0x00, 0x00, 0x00, 0x00, 0x00, 0x00,
  0x01, 0x00, 0x00, 0x00, 0x51, 0xb2, 0xe0, 0x38, 0x2c, 0x00, 0x00, 0x00,
  0x73, 0x65, 0x71, 0x75, 0x65, 0x6e, 0x74, 0x69, 0x61, 0x6c, 0x2f, 0x62,
  0x61, 0x74, 0x63, 0x68, 0x5f, 0x6e, 0x6f, 0x72, 0x6d, 0x61, 0x6c, 0x69,
  0x7a, 0x61, 0x74, 0x69, 0x6f, 0x6e, 0x2f, 0x62, 0x61, 0x74, 0x63, 0x68,
  0x6e, 0x6f, 0x72, 0x6d, 0x2f, 0x73, 0x75, 0x62, 0x00, 0x00, 0x00, 0x00,
  0x01, 0x00, 0x00, 0x00, 0x40, 0x00, 0x00, 0x00, 0x00, 0x00, 0x0e, 0x00,
  0x18, 0x00, 0x14, 0x00, 0x13, 0x00, 0x0c, 0x00, 0x08, 0x00, 0x04, 0x00,
  0x0e, 0x00, 0x00, 0x00, 0x14, 0x00, 0x00, 0x00, 0x30, 0x00, 0x00, 0x00,
  0x02, 0x00, 0x00, 0x00, 0x00, 0x00, 0x00, 0x09, 0x58, 0x00, 0x00, 0x00,
  0x64, 0xff, 0xff, 0xff, 0x08, 0x00, 0x00, 0x00, 0x10, 0x00, 0x00, 0x00,
  0x01, 0x00, 0x00, 0x00, 0x00, 0x00, 0x00, 0x00, 0x00, 0x00, 0x00, 0x00,
  0x01, 0x00, 0x00, 0x00, 0x51, 0xb2, 0xe0, 0x38, 0x2e, 0x00, 0x00, 0x00,
  0x73, 0x65, 0x71, 0x75, 0x65, 0x6e, 0x74, 0x69, 0x61, 0x6c, 0x2f, 0x62,
  0x61, 0x74, 0x63, 0x68, 0x5f, 0x6e, 0x6f, 0x72, 0x6d, 0x61, 0x6c, 0x69,
  0x7a, 0x61, 0x74, 0x69, 0x6f, 0x6e, 0x2f, 0x62, 0x61, 0x74, 0x63, 0x68,
  0x6e, 0x6f, 0x72, 0x6d, 0x2f, 0x6d, 0x75, 0x6c, 0x5f, 0x31, 0x00, 0x00,
  0x02, 0x00, 0x00, 0x00, 0x40, 0x00, 0x00, 0x00, 0x08, 0x00, 0x00, 0x00,
  0x14, 0x00, 0x1c, 0x00, 0x18, 0x00, 0x17, 0x00, 0x10, 0x00, 0x0c, 0x00,
  0x08, 0x00, 0x00, 0x00, 0x00, 0x00, 0x04, 0x00, 0x14, 0x00, 0x00, 0x00,
  0x18, 0x00, 0x00, 0x00, 0x2c, 0x00, 0x00, 0x00, 0x48, 0x00, 0x00, 0x00,
  0x01, 0x00, 0x00, 0x00, 0x00, 0x00, 0x00, 0x09, 0x5c, 0x00, 0x00, 0x00,
  0x02, 0x00, 0x00, 0x00, 0xff, 0xff, 0xff, 0xff, 0x08, 0x00, 0x00, 0x00,
  0x0c, 0x00, 0x0c, 0x00, 0x00, 0x00, 0x00, 0x00, 0x08, 0x00, 0x04, 0x00,
  0x0c, 0x00, 0x00, 0x00, 0x08, 0x00, 0x00, 0x00, 0x10, 0x00, 0x00, 0x00,
  0x01, 0x00, 0x00, 0x00, 0x00, 0x00, 0x00, 0x00, 0x00, 0x00, 0x00, 0x00,
  0x01, 0x00, 0x00, 0x00, 0x00, 0x00, 0x80, 0x3f, 0x19, 0x00, 0x00, 0x00,
  0x73, 0x65, 0x72, 0x76, 0x69, 0x6e, 0x67, 0x5f, 0x64, 0x65, 0x66, 0x61,
  0x75, 0x6c, 0x74, 0x5f, 0x69, 0x6e, 0x70, 0x75, 0x74, 0x5f, 0x31, 0x3a,
  0x30, 0x00, 0x00, 0x00, 0x02, 0x00, 0x00, 0x00, 0x01, 0x00, 0x00, 0x00,
  0x08, 0x00, 0x00, 0x00, 0x01, 0x00, 0x00, 0x00, 0x10, 0x00, 0x00, 0x00,
  0x0c, 0x00, 0x10, 0x00, 0x0f, 0x00, 0x00, 0x00, 0x08, 0x00, 0x04, 0x00,
  0x0c, 0x00, 0x00, 0x00, 0x09, 0x00, 0x00, 0x00, 0x04, 0x00, 0x00, 0x00,
  0x00, 0x00, 0x00, 0x09
};
unsigned int pose_tflite_len = 12664;
