unsigned char tflite_model_quant_int8_c_tflite[] = {
  0x20, 0x00, 0x00, 0x00, 0x54, 0x46, 0x4c, 0x33, 0x00, 0x00, 0x00, 0x00,
  0x00, 0x00, 0x12, 0x00, 0x1c, 0x00, 0x04, 0x00, 0x08, 0x00, 0x0c, 0x00,
  0x10, 0x00, 0x14, 0x00, 0x00, 0x00, 0x18, 0x00, 0x12, 0x00, 0x00, 0x00,
  0x03, 0x00, 0x00, 0x00, 0x7c, 0x38, 0x00, 0x00, 0x60, 0x26, 0x00, 0x00,
  0x48, 0x26, 0x00, 0x00, 0x3c, 0x00, 0x00, 0x00, 0x04, 0x00, 0x00, 0x00,
  0x01, 0x00, 0x00, 0x00, 0x0c, 0x00, 0x00, 0x00, 0x08, 0x00, 0x0c, 0x00,
  0x04, 0x00, 0x08, 0x00, 0x08, 0x00, 0x00, 0x00, 0x08, 0x00, 0x00, 0x00,
  0x13, 0x00, 0x00, 0x00, 0x13, 0x00, 0x00, 0x00, 0x6d, 0x69, 0x6e, 0x5f,
  0x72, 0x75, 0x6e, 0x74, 0x69, 0x6d, 0x65, 0x5f, 0x76, 0x65, 0x72, 0x73,
  0x69, 0x6f, 0x6e, 0x00, 0x14, 0x00, 0x00, 0x00, 0xf8, 0x25, 0x00, 0x00,
  0xe4, 0x25, 0x00, 0x00, 0x88, 0x25, 0x00, 0x00, 0x14, 0x25, 0x00, 0x00,
  0xe0, 0x24, 0x00, 0x00, 0xbc, 0x24, 0x00, 0x00, 0x98, 0x24, 0x00, 0x00,
  0xc4, 0x05, 0x00, 0x00, 0xa0, 0x05, 0x00, 0x00, 0x5c, 0x05, 0x00, 0x00,
  0xc8, 0x00, 0x00, 0x00, 0xbc, 0x00, 0x00, 0x00, 0xa8, 0x00, 0x00, 0x00,
  0x94, 0x00, 0x00, 0x00, 0x80, 0x00, 0x00, 0x00, 0x6c, 0x00, 0x00, 0x00,
  0x58, 0x00, 0x00, 0x00, 0x44, 0x00, 0x00, 0x00, 0x30, 0x00, 0x00, 0x00,
  0x04, 0x00, 0x00, 0x00, 0xbe, 0xd9, 0xff, 0xff, 0x04, 0x00, 0x00, 0x00,
  0x10, 0x00, 0x00, 0x00, 0x31, 0x2e, 0x35, 0x2e, 0x30, 0x00, 0x00, 0x00,
  0x00, 0x00, 0x00, 0x00, 0x00, 0x00, 0x00, 0x00, 0x00, 0x00, 0x00, 0x00,
  0x00, 0x00, 0x00, 0x00, 0x00, 0x00, 0x00, 0x00, 0xf4, 0xcc, 0xff, 0xff,
  0x00, 0x00, 0x00, 0x00, 0x00, 0x00, 0x00, 0x00, 0x00, 0x00, 0x00, 0x00,
  0x04, 0xcd, 0xff, 0xff, 0x00, 0x00, 0x00, 0x00, 0x00, 0x00, 0x00, 0x00,
  0x00, 0x00, 0x00, 0x00, 0x14, 0xcd, 0xff, 0xff, 0x00, 0x00, 0x00, 0x00,
  0x00, 0x00, 0x00, 0x00, 0x00, 0x00, 0x00, 0x00, 0x24, 0xcd, 0xff, 0xff,
  0x00, 0x00, 0x00, 0x00, 0x00, 0x00, 0x00, 0x00, 0x00, 0x00, 0x00, 0x00,
  0x34, 0xcd, 0xff, 0xff, 0x00, 0x00, 0x00, 0x00, 0x00, 0x00, 0x00, 0x00,
  0x00, 0x00, 0x00, 0x00, 0x44, 0xcd, 0xff, 0xff, 0x00, 0x00, 0x00, 0x00,
  0x00, 0x00, 0x00, 0x00, 0x00, 0x00, 0x00, 0x00, 0x54, 0xcd, 0xff, 0xff,
  0x00, 0x00, 0x00, 0x00, 0x00, 0x00, 0x00, 0x00, 0x00, 0x00, 0x00, 0x00,
  0x64, 0xcd, 0xff, 0xff, 0x00, 0x00, 0x00, 0x00, 0x5e, 0xda, 0xff, 0xff,
  0x04, 0x00, 0x00, 0x00, 0x80, 0x04, 0x00, 0x00, 0xfe, 0xea, 0xf3, 0x28,
  0xe9, 0x08, 0xe1, 0x0d, 0x61, 0xde, 0x2f, 0xea, 0x0f, 0xf3, 0x45, 0x12,
  0xf6, 0x3e, 0x2b, 0xe2, 0x0f, 0xe5, 0x0a, 0x1f, 0x7f, 0x2c, 0x11, 0x3c,
  0xf3, 0xee, 0x5d, 0xe6, 0xe3, 0xf9, 0xf9, 0xe4, 0xdf, 0x36, 0x54, 0x1e,
  0x16, 0xf6, 0x15, 0x1d, 0xd2, 0x14, 0xeb, 0x05, 0xbf, 0x3a, 0x06, 0xfd,
  0xc2, 0xd4, 0xbd, 0x1d, 0xe0, 0xca, 0xc9, 0xd6, 0xc2, 0x3a, 0x9f, 0xe3,
  0x1a, 0xa3, 0x0c, 0x61, 0xe1, 0x93, 0x33, 0xb6, 0x9a, 0xcb, 0xe5, 0x3b,
  0x0d, 0xe1, 0x1d, 0x12, 0x02, 0x12, 0x72, 0x5d, 0xea, 0xb2, 0xde, 0x16,
  0xf6, 0x7f, 0x1d, 0x75, 0x97, 0x05, 0xcb, 0x52, 0x24, 0xa8, 0xcd, 0x17,
  0x33, 0xbc, 0xfd, 0x92, 0xea, 0x14, 0xc8, 0xac, 0x06, 0x23, 0x2e, 0xc5,
  0xa2, 0xd9, 0x89, 0xb1, 0x25, 0x3f, 0xd8, 0x5d, 0x76, 0xa6, 0x29, 0xc7,
  0xc6, 0xbf, 0xb3, 0x8e, 0xe9, 0xa7, 0x5a, 0x85, 0x34, 0xb7, 0xe2, 0xc2,
  0x4e, 0x7f, 0xa0, 0x46, 0xe9, 0xe5, 0xff, 0x60, 0x4a, 0xa7, 0xdf, 0xe3,
  0x33, 0x7c, 0x58, 0xdf, 0x11, 0xc9, 0xcd, 0xb7, 0xa9, 0x4c, 0xad, 0x15,
  0xde, 0xb7, 0x96, 0x6e, 0x63, 0xae, 0x64, 0x0c, 0x08, 0xb4, 0x1e, 0xf7,
  0xc5, 0xdd, 0x04, 0x3b, 0x00, 0x97, 0x81, 0x39, 0x47, 0xae, 0x20, 0x35,
  0xbd, 0xe3, 0x6b, 0x10, 0x24, 0x96, 0x03, 0x92, 0x23, 0xc9, 0x33, 0x35,
  0xc5, 0xe9, 0xf3, 0x40, 0x97, 0xd7, 0xdf, 0xfd, 0xa9, 0xc8, 0xc2, 0x2b,
  0x56, 0xbb, 0xb7, 0x55, 0x36, 0x41, 0xcf, 0x4a, 0x81, 0x4e, 0x3a, 0xce,
  0x27, 0xad, 0x18, 0xf0, 0xea, 0x2c, 0xbe, 0xe4, 0xb4, 0xa0, 0x06, 0xf5,
  0xfd, 0x4c, 0xc0, 0xdd, 0x2f, 0xed, 0xd3, 0xcd, 0x95, 0x46, 0xf7, 0xa9,
  0xba, 0xc6, 0xbe, 0x18, 0x12, 0xfc, 0x25, 0xef, 0x05, 0x22, 0xa0, 0xfb,
  0xcb, 0x47, 0x08, 0x8f, 0xa6, 0x10, 0xf5, 0x20, 0x45, 0xdd, 0x11, 0xb6,
  0x2d, 0x4b, 0x4f, 0x81, 0xb2, 0xe5, 0x03, 0x15, 0x92, 0xaa, 0xc7, 0x4b,
  0x00, 0x47, 0x8a, 0xf5, 0xea, 0xe9, 0xba, 0x24, 0x34, 0x44, 0xa0, 0x2a,
  0xbc, 0xe5, 0x41, 0xe2, 0x2e, 0x89, 0x8a, 0x61, 0x55, 0x1c, 0x9f, 0xbb,
  0x5b, 0x18, 0x85, 0xfb, 0x16, 0x04, 0xd9, 0xbb, 0x81, 0x3f, 0x4f, 0x1e,
  0xc0, 0x33, 0x11, 0xe4, 0xdc, 0x93, 0xae, 0x66, 0x68, 0xa6, 0xe2, 0x22,
  0xc4, 0x24, 0x2c, 0xe2, 0xa3, 0xd9, 0x08, 0x24, 0x64, 0x38, 0xcd, 0xd0,
  0xaa, 0x50, 0x02, 0xa5, 0x31, 0xce, 0xf9, 0xc6, 0x1c, 0x48, 0xdf, 0x11,
  0x8a, 0xd6, 0x16, 0x0b, 0x52, 0xa0, 0x74, 0xfc, 0x94, 0x2e, 0x52, 0xa1,
  0xbe, 0xce, 0x81, 0x73, 0xdd, 0xe3, 0x1f, 0xa8, 0x15, 0x8e, 0xd3, 0xd3,
  0x22, 0x53, 0x8d, 0x24, 0xd0, 0xc2, 0xe3, 0xc7, 0x12, 0xbe, 0x40, 0x0a,
  0xdd, 0x22, 0xf2, 0x29, 0x81, 0xda, 0xda, 0xfb, 0xea, 0x15, 0xf9, 0xbb,
  0xe0, 0xfa, 0x21, 0xfc, 0x31, 0x19, 0x21, 0xd7, 0xd7, 0x44, 0x37, 0xbb,
  0xe8, 0x36, 0xb9, 0x32, 0xe9, 0x45, 0xe6, 0xd4, 0xf9, 0x0e, 0xfe, 0x06,
  0xcf, 0xe1, 0x0e, 0xe2, 0xf6, 0xec, 0x02, 0x0a, 0xf0, 0x44, 0xf0, 0xcd,
  0x48, 0xe1, 0xfd, 0x27, 0x8b, 0x18, 0x4d, 0x37, 0x0e, 0xd2, 0x46, 0xe0,
  0x0b, 0x20, 0xf2, 0xc0, 0xd0, 0x39, 0x21, 0x53, 0x8e, 0x0e, 0x1d, 0xc6,
  0xed, 0x07, 0xe3, 0xe8, 0xf2, 0x32, 0x16, 0x9d, 0xbc, 0xbf, 0xba, 0xbd,
  0x81, 0x0a, 0x2c, 0xb4, 0x24, 0x4a, 0x0b, 0x32, 0x33, 0x3f, 0x51, 0x5a,
  0x4a, 0x4d, 0x96, 0xda, 0x8d, 0xd0, 0xe4, 0x34, 0x51, 0x94, 0xf2, 0x02,
  0xf9, 0xda, 0x2a, 0xaf, 0x3e, 0xd1, 0x8c, 0x4c, 0x9a, 0x0e, 0x41, 0xaa,
  0xbc, 0xe1, 0x42, 0xb9, 0xb9, 0xe6, 0xd9, 0xa3, 0x12, 0x0e, 0xe5, 0x1f,
  0x81, 0xf2, 0xbb, 0x28, 0xbc, 0x45, 0xf8, 0xef, 0xaf, 0x4d, 0xcc, 0xc4,
  0x79, 0xe8, 0x1e, 0xe3, 0xff, 0xe2, 0x60, 0x15, 0x3b, 0x3a, 0x8b, 0xd4,
  0x9c, 0xac, 0x46, 0x90, 0x1d, 0xcb, 0xcd, 0x70, 0xda, 0x65, 0x73, 0x82,
  0x29, 0xfd, 0x0f, 0x64, 0xd4, 0x45, 0x81, 0x6e, 0x6a, 0xd4, 0xf9, 0x79,
  0xb0, 0x6c, 0x81, 0xec, 0x41, 0xe9, 0xec, 0x43, 0xd1, 0xb0, 0x68, 0xee,
  0x2c, 0x49, 0x50, 0x63, 0xc3, 0x2a, 0xfd, 0x81, 0xe5, 0xf6, 0x90, 0x53,
  0x5c, 0xe8, 0x06, 0xc3, 0xcb, 0x9b, 0xa0, 0x0b, 0x12, 0x62, 0x2d, 0xfe,
  0x4d, 0xf1, 0x44, 0xaa, 0xf8, 0x9c, 0xd3, 0x0d, 0xdc, 0x2e, 0xc3, 0xd4,
  0xf5, 0x08, 0x22, 0x9f, 0x56, 0xdf, 0x3b, 0x99, 0x6c, 0x56, 0x91, 0x3f,
  0x31, 0xa1, 0xb8, 0xc8, 0x14, 0xa3, 0x5d, 0xbd, 0xe5, 0xa0, 0x8c, 0xfc,
  0x11, 0x20, 0xdd, 0xff, 0x9d, 0xcf, 0x01, 0xe9, 0x3e, 0xc5, 0xc2, 0xd9,
  0x8a, 0x02, 0x71, 0x26, 0x3c, 0x7f, 0x5c, 0x17, 0x27, 0xbb, 0xd1, 0x65,
  0xcf, 0xbe, 0xb0, 0x49, 0xd1, 0x21, 0x0f, 0x60, 0x0f, 0xe9, 0x4b, 0xb3,
  0x3f, 0x82, 0x4d, 0xd6, 0xa4, 0xba, 0x38, 0xe6, 0x62, 0x00, 0xb0, 0x26,
  0x58, 0x47, 0x21, 0x02, 0x19, 0x54, 0xc9, 0x0e, 0x4e, 0x49, 0x3e, 0x3e,
  0xaf, 0x1a, 0x97, 0xf8, 0x04, 0x13, 0x99, 0xd9, 0x42, 0x81, 0xe1, 0xcf,
  0x01, 0x99, 0xfe, 0xd2, 0x2e, 0xdd, 0xa3, 0x0b, 0x51, 0xd1, 0xb6, 0xb9,
  0xfa, 0xe9, 0x26, 0x81, 0x83, 0x66, 0xe6, 0x66, 0xf8, 0xde, 0xb7, 0xdf,
  0xf9, 0x4d, 0xd3, 0xcb, 0x0f, 0xae, 0x55, 0xe2, 0x40, 0xe7, 0xb1, 0xe1,
  0x2d, 0x44, 0x1f, 0xe3, 0xe0, 0xa7, 0x3a, 0xa3, 0x05, 0xfb, 0xbf, 0x18,
  0xc9, 0xa7, 0xe5, 0xaa, 0xe3, 0x4f, 0x55, 0xec, 0xbc, 0x94, 0xe4, 0xfa,
  0x9f, 0xc3, 0xc7, 0x81, 0xd5, 0x27, 0x4d, 0x4c, 0xe1, 0x49, 0x78, 0xb3,
  0xe0, 0x15, 0x12, 0x20, 0xd5, 0xb0, 0xf9, 0xf8, 0xda, 0x95, 0xb3, 0xac,
  0x16, 0xea, 0xd9, 0xa6, 0xe7, 0xf8, 0x3c, 0x5b, 0xdd, 0xbb, 0xbd, 0x9f,
  0xe8, 0xdb, 0x0d, 0xb3, 0x42, 0xef, 0x3e, 0x7b, 0xa6, 0xd1, 0xa4, 0xe4,
  0x43, 0x26, 0xd9, 0xc6, 0xb4, 0xeb, 0x2c, 0x17, 0xd6, 0x0d, 0x4f, 0xeb,
  0x45, 0x3a, 0x81, 0x97, 0x44, 0x81, 0x64, 0x44, 0x63, 0xc0, 0x9c, 0x3c,
  0x9e, 0xa4, 0x4b, 0x68, 0xb1, 0x75, 0x69, 0x71, 0xfd, 0x7b, 0x30, 0x41,
  0x21, 0xe8, 0x3a, 0xfa, 0x6c, 0x96, 0x37, 0x22, 0x5b, 0xf4, 0x40, 0x33,
  0x37, 0xd1, 0xd8, 0xcf, 0x7f, 0x57, 0xc0, 0xf7, 0xae, 0x3b, 0x6b, 0x9d,
  0x40, 0xdc, 0xda, 0xef, 0xb6, 0x16, 0xea, 0xf5, 0xbd, 0x11, 0x36, 0x39,
  0x4e, 0x5f, 0x35, 0x2b, 0x40, 0xf1, 0x29, 0x03, 0xb5, 0x9c, 0x36, 0x92,
  0x7c, 0xf0, 0xd4, 0xa2, 0x9d, 0xa1, 0xd0, 0xe8, 0x51, 0x0b, 0x8e, 0xc0,
  0x0a, 0x2c, 0xb3, 0xba, 0xa9, 0x08, 0x58, 0xb2, 0x58, 0x0f, 0x14, 0x13,
  0xbd, 0xf2, 0xc9, 0xe2, 0xff, 0x0b, 0x54, 0x34, 0x8e, 0x03, 0xe1, 0x03,
  0xd2, 0x30, 0xfe, 0xb0, 0xe4, 0x21, 0x1e, 0xf2, 0x01, 0xf3, 0x41, 0xbd,
  0x9b, 0x51, 0xcc, 0x81, 0xfe, 0xeb, 0xbd, 0xab, 0xa3, 0x4a, 0xd2, 0x3c,
  0xd4, 0x0b, 0x17, 0x89, 0x74, 0x33, 0x81, 0xc7, 0x7b, 0x32, 0xf2, 0x27,
  0xb6, 0x9d, 0x52, 0x97, 0x8e, 0x66, 0x89, 0xfc, 0x0d, 0x9f, 0xb5, 0xfc,
  0x88, 0x3e, 0xea, 0x3a, 0x08, 0x2e, 0xcb, 0x07, 0x2f, 0xad, 0x60, 0x84,
  0x25, 0xeb, 0x65, 0x87, 0x3c, 0x1b, 0x9a, 0x50, 0x69, 0x5a, 0xcb, 0x2b,
  0x12, 0xf0, 0x0f, 0x81, 0x10, 0x17, 0x87, 0xc5, 0x82, 0xa0, 0x31, 0xa9,
  0xfd, 0xb2, 0x28, 0x2f, 0x1a, 0xf8, 0x88, 0x45, 0xe4, 0xa7, 0x36, 0xe0,
  0xbb, 0xfb, 0xb8, 0xcb, 0xd2, 0xe2, 0x44, 0x59, 0x1d, 0x60, 0x13, 0x92,
  0x47, 0x99, 0x19, 0xeb, 0xf1, 0x03, 0xbf, 0x44, 0x8e, 0x7d, 0xb4, 0x43,
  0xfc, 0x31, 0xdd, 0x03, 0x68, 0xbe, 0x7b, 0xbe, 0xab, 0x42, 0x2f, 0x65,
  0x6f, 0xd4, 0xa3, 0xf2, 0xa8, 0xdb, 0x81, 0x95, 0xe0, 0x61, 0x17, 0x41,
  0x0b, 0xa3, 0x2f, 0x6f, 0xe8, 0x38, 0x27, 0x30, 0xcb, 0x8c, 0xae, 0x54,
  0xb4, 0x3b, 0x2e, 0x93, 0x3d, 0x64, 0x2a, 0xeb, 0x86, 0xaf, 0xf0, 0xa6,
  0x6b, 0x0d, 0x34, 0x54, 0x81, 0x43, 0xef, 0xdd, 0x9b, 0x89, 0x28, 0x95,
  0xc0, 0xa0, 0xf6, 0xf7, 0xdc, 0x00, 0x8f, 0xab, 0x09, 0x3b, 0xd7, 0x97,
  0x38, 0x5d, 0xe5, 0xeb, 0x2e, 0x24, 0xe3, 0x37, 0x72, 0x03, 0x24, 0xb5,
  0x08, 0x9d, 0x6d, 0x30, 0x3d, 0x6e, 0x0e, 0xae, 0x00, 0x00, 0x00, 0x00,
  0xee, 0xde, 0xff, 0xff, 0x04, 0x00, 0x00, 0x00, 0x30, 0x00, 0x00, 0x00,
  0x81, 0x38, 0xa0, 0xc9, 0xae, 0x7f, 0x76, 0xcc, 0x81, 0x71, 0x81, 0x93,
  0x90, 0x81, 0xfe, 0xed, 0xd4, 0x7f, 0x59, 0x1a, 0x81, 0x7f, 0x59, 0x30,
  0x3e, 0x81, 0x43, 0x81, 0x2d, 0xa2, 0x81, 0x08, 0x1b, 0x81, 0x6a, 0xd6,
  0xd0, 0x71, 0x7f, 0x7f, 0x63, 0xef, 0x7f, 0x8d, 0xfa, 0xf2, 0x81, 0x44,
  0x00, 0x00, 0x00, 0x00, 0x2e, 0xdf, 0xff, 0xff, 0x04, 0x00, 0x00, 0x00,
  0x10, 0x00, 0x00, 0x00, 0x19, 0xe7, 0x24, 0x3e, 0xbe, 0x7f, 0xcc, 0x45,
  0x74, 0x8b, 0xdf, 0xdf, 0xba, 0x32, 0x84, 0xcd, 0x00, 0x00, 0x00, 0x00,
  0x4e, 0xdf, 0xff, 0xff, 0x04, 0x00, 0x00, 0x00, 0xc0, 0x1e, 0x00, 0x00,
  0xff, 0x10, 0x08, 0x15, 0x0b, 0x08, 0xe6, 0x20, 0x0e, 0xed, 0x14, 0x0e,
  0x13, 0xf8, 0x19, 0x15, 0x11, 0x1f, 0xe0, 0x0e, 0x02, 0xe4, 0x04, 0x02,
  0x0f, 0x32, 0x10, 0xe4, 0x1e, 0xd8, 0xfe, 0x27, 0xdd, 0xed, 0xe0, 0x01,
  0x00, 0xf5, 0xef, 0x17, 0x20, 0x1c, 0x17, 0x1e, 0x04, 0x05, 0xe2, 0x08,
  0x21, 0x15, 0x21, 0x00, 0x13, 0xe9, 0x17, 0x1a, 0xdf, 0xe6, 0x00, 0x09,
  0x09, 0x05, 0x1a, 0xeb, 0xe1, 0xf2, 0x00, 0xf8, 0xed, 0x1e, 0xff, 0xed,
  0x24, 0xec, 0xf0, 0xf0, 0xf4, 0x0d, 0xff, 0x16, 0xff, 0xfa, 0x0b, 0xf4,
  0xff, 0x0e, 0xf4, 0x11, 0x1d, 0x1f, 0xe4, 0x1f, 0x12, 0xe0, 0xe6, 0xea,
  0x0f, 0x20, 0xff, 0xdd, 0xd7, 0xf1, 0xe9, 0xf5, 0xf7, 0xf9, 0xfd, 0x11,
  0xe5, 0xe0, 0xec, 0xdb, 0x1f, 0xdf, 0x18, 0x30, 0xeb, 0xfd, 0x22, 0x19,
  0x0c, 0xf6, 0xff, 0x16, 0x13, 0xf8, 0xfb, 0x0d, 0xe1, 0xe2, 0xe0, 0xee,
  0xfc, 0x17, 0x19, 0x07, 0x0c, 0x11, 0xe8, 0x06, 0x17, 0x12, 0xfe, 0xee,
  0x16, 0x0e, 0x02, 0xee, 0xf0, 0xf6, 0x04, 0x0a, 0x07, 0xda, 0xe2, 0xfb,
  0xec, 0x12, 0x14, 0x0c, 0x0c, 0x23, 0xf6, 0x14, 0x0c, 0xe0, 0xf7, 0xf2,
  0x37, 0xf7, 0xe5, 0x1e, 0xee, 0xfd, 0x00, 0x0f, 0xf6, 0x0b, 0x16, 0xeb,
  0x0a, 0x21, 0x21, 0xe7, 0xe1, 0xe3, 0xf9, 0x28, 0x05, 0xef, 0x02, 0x16,
  0x18, 0x1b, 0x0e, 0xe4, 0x1d, 0xfb, 0x23, 0xfb, 0xe8, 0x1e, 0xdf, 0x02,
  0xed, 0x03, 0x1c, 0x14, 0xfe, 0x06, 0x11, 0x1a, 0x03, 0xdd, 0x1d, 0x0d,
  0x33, 0x04, 0x16, 0x21, 0x02, 0x20, 0xf0, 0x06, 0xfc, 0xe3, 0x1a, 0xe3,
  0x12, 0x12, 0xe1, 0x1f, 0xf5, 0xe6, 0xfc, 0xe0, 0xe9, 0x0d, 0x08, 0xed,
  0x4b, 0xf1, 0xe3, 0xff, 0xee, 0x0d, 0x09, 0xfc, 0xe3, 0x18, 0x17, 0xfb,
  0x17, 0x06, 0xf7, 0xdd, 0x02, 0xf1, 0x08, 0xeb, 0x22, 0x10, 0xeb, 0xec,
  0x4c, 0x08, 0x24, 0xe7, 0x04, 0xe9, 0xed, 0xf2, 0x15, 0xe7, 0xe4, 0xea,
  0x1a, 0xf4, 0xf1, 0x16, 0x03, 0x2a, 0x1c, 0x3d, 0x15, 0xfd, 0x13, 0xe2,
  0x30, 0x06, 0x11, 0xf7, 0xfa, 0xee, 0xee, 0x0d, 0xec, 0xf8, 0x18, 0xec,
  0xed, 0x1e, 0x13, 0xef, 0x1b, 0xf8, 0x1a, 0xf7, 0x0e, 0xf6, 0x01, 0x21,
  0x39, 0x18, 0x01, 0x03, 0x21, 0x09, 0xe6, 0xec, 0xe9, 0xfd, 0xf1, 0x1a,
  0x01, 0x0d, 0xf4, 0x02, 0xe1, 0x1d, 0xfb, 0xf5, 0x07, 0x1e, 0x17, 0x22,
  0x00, 0xec, 0x1f, 0xf7, 0xf3, 0xf4, 0xf7, 0xd6, 0xe9, 0x0e, 0xdc, 0xf4,
  0xf2, 0x13, 0xf1, 0x1f, 0x0f, 0x06, 0x10, 0xdb, 0x09, 0xfd, 0x20, 0xfe,
  0x3f, 0x19, 0xff, 0x10, 0xf9, 0xf5, 0xef, 0xea, 0xe3, 0x17, 0x15, 0x22,
  0xdd, 0x13, 0xfb, 0x0f, 0x0b, 0xe6, 0x27, 0xc6, 0x0f, 0xef, 0xe2, 0x17,
  0x2f, 0x1c, 0xf9, 0xf1, 0x05, 0x04, 0x14, 0x12, 0xd4, 0x04, 0xf2, 0xf5,
  0x18, 0x06, 0xef, 0xf7, 0x0a, 0xf7, 0xf1, 0xf7, 0xfe, 0x03, 0x06, 0xe1,
  0x09, 0xea, 0x04, 0x1c, 0xe0, 0x0f, 0xfa, 0xdf, 0x0a, 0x01, 0xf1, 0x07,
  0xf6, 0xf8, 0x1f, 0xf4, 0x0b, 0x05, 0xe9, 0x01, 0xfb, 0xdd, 0xe2, 0xf1,
  0x19, 0x23, 0xfe, 0xf0, 0xf8, 0xf8, 0x19, 0xd5, 0x04, 0xfa, 0x09, 0x1f,
  0x1e, 0xfc, 0xfc, 0xf9, 0x01, 0xf1, 0xf3, 0x0b, 0xfe, 0x0c, 0xf3, 0xeb,
  0x0f, 0xe3, 0x1f, 0xf6, 0xfd, 0xed, 0xe3, 0xc2, 0xe9, 0xf2, 0x19, 0xfa,
  0xff, 0x0e, 0xfc, 0x23, 0xff, 0x20, 0x0b, 0x18, 0xf6, 0xf4, 0xff, 0x21,
  0x02, 0x1f, 0xf6, 0x10, 0xf6, 0x14, 0x08, 0x17, 0x02, 0x11, 0xef, 0x07,
  0xeb, 0xfa, 0x14, 0x10, 0xec, 0xe8, 0xf2, 0x04, 0x09, 0x0e, 0xed, 0x1e,
  0x3d, 0xee, 0x0e, 0xe9, 0xde, 0x12, 0xfc, 0x00, 0xc9, 0xff, 0x1a, 0x14,
  0x17, 0x15, 0xf1, 0xe1, 0x27, 0x0c, 0x1a, 0xf2, 0x19, 0xf9, 0xf2, 0x14,
  0x12, 0x01, 0x11, 0xe7, 0x00, 0x11, 0xe4, 0xc2, 0xf4, 0xe1, 0x01, 0x21,
  0x1c, 0xde, 0xf7, 0xe2, 0x08, 0xfa, 0x05, 0x18, 0x07, 0x22, 0x0a, 0x13,
  0x22, 0xec, 0xf9, 0xe2, 0xf5, 0xf6, 0x0c, 0x07, 0xfc, 0xe3, 0xff, 0x12,
  0xdf, 0xe1, 0xe2, 0xe4, 0xe6, 0xe1, 0xdf, 0x15, 0x08, 0xe7, 0x00, 0xe4,
  0x41, 0xde, 0x0c, 0xe2, 0x08, 0x1a, 0x0e, 0x1e, 0xda, 0x0e, 0xe5, 0x18,
  0xe6, 0x16, 0x0c, 0xf3, 0xf6, 0x1d, 0xfe, 0xc6, 0x15, 0xf8, 0x0e, 0xfc,
  0x1a, 0xf4, 0x15, 0xe4, 0x1a, 0xe3, 0x1b, 0xe0, 0xfa, 0x0d, 0xfe, 0xe3,
  0xf2, 0x0f, 0x0d, 0xff, 0xfd, 0xe9, 0x1c, 0x19, 0x09, 0x22, 0x0b, 0xfd,
  0x2f, 0x03, 0x02, 0x11, 0xfa, 0x1a, 0xfd, 0xd4, 0xf0, 0x11, 0xfb, 0x0a,
  0x03, 0xe9, 0x00, 0x00, 0xe4, 0x1c, 0x17, 0xe0, 0x18, 0x19, 0x2c, 0xe5,
  0x25, 0x22, 0x01, 0x21, 0xdc, 0xf0, 0xf4, 0xf8, 0xf2, 0x08, 0xf1, 0xe9,
  0xe4, 0xef, 0x0f, 0x00, 0xfb, 0xe1, 0x08, 0x1c, 0xe0, 0x05, 0x06, 0x1a,
  0x1c, 0xf9, 0xe1, 0x1b, 0x05, 0xe5, 0xfa, 0x0c, 0x24, 0xf7, 0xe2, 0xe5,
  0xdf, 0xff, 0x08, 0x09, 0xb3, 0x19, 0xe6, 0xf8, 0xea, 0x03, 0x06, 0x0f,
  0x2b, 0xfa, 0xf1, 0xf8, 0xf5, 0xf7, 0xff, 0xcd, 0xed, 0xf7, 0x0e, 0x04,
  0x0c, 0x02, 0x22, 0x08, 0xe8, 0xe5, 0x05, 0xc0, 0xe9, 0xee, 0x21, 0x02,
  0x0b, 0x0b, 0xe8, 0x1c, 0x10, 0x08, 0xf9, 0x1e, 0xf8, 0xed, 0x18, 0x02,
  0xdd, 0xdd, 0x1a, 0x13, 0xe0, 0xf6, 0x0d, 0xe6, 0x0b, 0xfe, 0x21, 0xe5,
  0x39, 0x11, 0xed, 0x1f, 0x26, 0x0d, 0xeb, 0x10, 0xed, 0xdc, 0xe3, 0x19,
  0xe5, 0x00, 0xfe, 0xf1, 0xf3, 0x05, 0xf3, 0xec, 0x00, 0xe5, 0x23, 0xe7,
  0x41, 0xe5, 0xeb, 0x08, 0x0d, 0x15, 0xdd, 0xe4, 0x06, 0xf6, 0x18, 0xf6,
  0x14, 0x00, 0xea, 0xf7, 0x0b, 0xf8, 0xe0, 0xe5, 0x0d, 0xec, 0x02, 0xf4,
  0x27, 0x01, 0xee, 0xdd, 0xdd, 0xdd, 0x02, 0xf3, 0xf5, 0xdf, 0xfc, 0xf9,
  0x1e, 0x03, 0x07, 0xff, 0xf9, 0xf1, 0x22, 0x17, 0xff, 0xf2, 0x0a, 0x14,
  0x4d, 0x18, 0xe1, 0x12, 0xec, 0xf3, 0xe5, 0xe3, 0xec, 0x06, 0x13, 0xe6,
  0xde, 0xf6, 0x19, 0xfe, 0x1e, 0xf9, 0x05, 0xfa, 0x12, 0x01, 0xde, 0x06,
  0x05, 0x09, 0x0a, 0x22, 0x13, 0x0b, 0xf2, 0xec, 0xfa, 0x08, 0xf2, 0xf3,
  0xda, 0xf2, 0x19, 0x0b, 0xfe, 0x09, 0x03, 0xf3, 0xfd, 0x16, 0xe3, 0xe6,
  0x0d, 0xfd, 0xfc, 0x1a, 0xe2, 0xf4, 0x0f, 0x23, 0xd6, 0x20, 0x00, 0xe7,
  0xff, 0x0b, 0xfc, 0xd5, 0xe6, 0x1f, 0xf3, 0xf2, 0xe0, 0xff, 0x02, 0xec,
  0x1b, 0x21, 0x07, 0x1a, 0xf6, 0x03, 0xfb, 0x01, 0x12, 0x0b, 0xee, 0xec,
  0xf4, 0x03, 0x04, 0x18, 0x06, 0x08, 0x05, 0xef, 0xe7, 0xf8, 0xff, 0x19,
  0x2e, 0x00, 0x13, 0xe7, 0x08, 0xed, 0x08, 0xd8, 0xff, 0xd9, 0xdd, 0x00,
  0x02, 0xe2, 0x18, 0x15, 0xf9, 0x23, 0x24, 0xe4, 0x0a, 0x1d, 0x08, 0xde,
  0x2e, 0x22, 0x17, 0x02, 0xff, 0xee, 0xf7, 0x0b, 0x15, 0xf4, 0x22, 0xf0,
  0x1a, 0xe0, 0x21, 0x17, 0xeb, 0xe4, 0x17, 0xd0, 0x0a, 0x1d, 0xdc, 0x17,
  0x11, 0x1c, 0x07, 0xff, 0x14, 0xeb, 0x03, 0x09, 0x15, 0xf8, 0xe1, 0x1b,
  0x16, 0x19, 0x08, 0x0c, 0x19, 0xf0, 0xee, 0xf1, 0x03, 0xe9, 0xe9, 0xe9,
  0xe5, 0xe7, 0xdd, 0x01, 0x13, 0x0b, 0x07, 0x06, 0xd9, 0x04, 0x1d, 0xf6,
  0xf2, 0x0f, 0xfa, 0xd4, 0x06, 0x04, 0xf7, 0xe7, 0x1e, 0x1a, 0xfc, 0xd6,
  0x1c, 0x0f, 0xfe, 0x0f, 0xea, 0xe4, 0xf6, 0x28, 0x1d, 0xe9, 0xe5, 0x0e,
  0x0e, 0x13, 0xe4, 0x33, 0xde, 0x0a, 0xf2, 0xf0, 0x1a, 0xf8, 0x0f, 0xf3,
  0xff, 0x00, 0x0c, 0xe0, 0x19, 0x0c, 0xff, 0xfd, 0x0f, 0xf8, 0xef, 0x13,
  0xf6, 0x02, 0xf4, 0x1d, 0xe3, 0x19, 0x0f, 0xe2, 0x23, 0x01, 0x09, 0xe6,
  0x03, 0x5c, 0xf9, 0xd8, 0x03, 0xf4, 0xe8, 0x1c, 0x16, 0x08, 0xdc, 0x08,
  0x1b, 0x0b, 0x12, 0xf4, 0xe8, 0xf6, 0xf2, 0x07, 0x0d, 0x18, 0x0f, 0xdd,
  0xd3, 0x12, 0xe0, 0xfd, 0xfe, 0xd9, 0xe0, 0x0b, 0xec, 0xf6, 0xfa, 0xed,
  0x1c, 0xf9, 0x02, 0x0c, 0x07, 0xf5, 0xf2, 0xdd, 0x08, 0x0c, 0xdc, 0xe7,
  0x0b, 0xdc, 0x02, 0xf9, 0x1b, 0x14, 0xd8, 0x27, 0x19, 0x10, 0xe3, 0xe3,
  0x0a, 0x17, 0x1b, 0x22, 0xe5, 0xf4, 0xd4, 0x31, 0x05, 0x01, 0x06, 0x14,
  0xdf, 0x51, 0x0d, 0x0c, 0xfa, 0xf1, 0xdc, 0x0d, 0x2b, 0x02, 0x16, 0xfe,
  0xe7, 0xdc, 0xee, 0x15, 0x22, 0xf6, 0xea, 0x24, 0x0b, 0xdc, 0x10, 0xfc,
  0x06, 0x40, 0xf6, 0xed, 0x18, 0x2a, 0xfd, 0x23, 0x44, 0xff, 0xed, 0x10,
  0x1e, 0xf1, 0xeb, 0x16, 0xfe, 0xff, 0x12, 0x5f, 0xfb, 0xfb, 0x17, 0x26,
  0xeb, 0x28, 0x01, 0x07, 0x2f, 0x0f, 0x1d, 0x22, 0x1b, 0x04, 0xf7, 0xf6,
  0x03, 0x12, 0x14, 0xf1, 0xef, 0xf9, 0xf9, 0x25, 0xf5, 0x1b, 0xfd, 0x1b,
  0x01, 0x1c, 0x0d, 0x0f, 0x09, 0x0e, 0x07, 0x19, 0x26, 0x14, 0x04, 0xe7,
  0x21, 0x06, 0xe2, 0xf5, 0x09, 0x03, 0xee, 0x4a, 0x07, 0x17, 0xfa, 0x26,
  0x05, 0x06, 0x1b, 0xfa, 0xf4, 0xda, 0xed, 0x07, 0x2d, 0x32, 0x05, 0x20,
  0xee, 0x19, 0x26, 0xfa, 0x28, 0xe5, 0xe8, 0x1a, 0xe8, 0xf2, 0x18, 0xfe,
  0xf0, 0x22, 0x1b, 0xe8, 0x0e, 0xfa, 0x11, 0xfd, 0x1b, 0xfd, 0x1a, 0x00,
  0xe9, 0xea, 0x17, 0xd9, 0x17, 0xe8, 0x09, 0x0d, 0xf9, 0x14, 0x0d, 0x1f,
  0xff, 0xd8, 0x13, 0x03, 0x0a, 0x11, 0xf9, 0x20, 0xf3, 0x16, 0xea, 0xfd,
  0xef, 0xe3, 0xfd, 0xff, 0x1d, 0x02, 0xdc, 0x33, 0x0b, 0xf2, 0xf9, 0xf1,
  0xdc, 0xdc, 0xda, 0xef, 0xef, 0x27, 0xfb, 0xcb, 0x28, 0x0f, 0x18, 0x24,
  0xec, 0x05, 0x0b, 0xe4, 0xed, 0x0f, 0xe9, 0x2c, 0xef, 0x10, 0xef, 0x1c,
  0xdc, 0x02, 0xf5, 0x18, 0x14, 0x1a, 0x10, 0x1d, 0x25, 0x13, 0xea, 0x0d,
  0xe2, 0xe8, 0x05, 0xe3, 0xdd, 0x14, 0xfd, 0x1e, 0x23, 0x18, 0xee, 0x14,
  0xd1, 0xd7, 0xe9, 0x08, 0xf6, 0x1e, 0xe7, 0x06, 0x07, 0xe5, 0xf9, 0xea,
  0x18, 0x18, 0x1c, 0xd9, 0x10, 0x0f, 0x04, 0xfe, 0xf2, 0x07, 0xd2, 0xe0,
  0xe9, 0xbf, 0x15, 0x18, 0xd4, 0xe0, 0xf4, 0xee, 0xb7, 0xd7, 0x06, 0x0e,
  0xfd, 0x10, 0xdc, 0xdd, 0xe6, 0xd8, 0xde, 0xe8, 0xf7, 0x1d, 0xe6, 0xe9,
  0xe1, 0xd0, 0x15, 0xf0, 0x03, 0xf4, 0xda, 0x2f, 0xf1, 0xff, 0x14, 0xf4,
  0x1c, 0x17, 0xf8, 0xed, 0x21, 0x06, 0xda, 0xc4, 0xea, 0xea, 0x0c, 0xf6,
  0x03, 0xfb, 0xed, 0xe9, 0xeb, 0x2d, 0xf1, 0x0f, 0xfe, 0x20, 0xeb, 0xdb,
  0x1d, 0xe7, 0xe2, 0x01, 0xf4, 0x14, 0xd5, 0xfa, 0xe5, 0xfc, 0x0c, 0xff,
  0xf1, 0x61, 0x01, 0xf0, 0x12, 0x0c, 0x08, 0x08, 0x19, 0xea, 0x0c, 0xd9,
  0xf7, 0x18, 0x1c, 0xce, 0xfb, 0x08, 0xe8, 0x0c, 0xe3, 0xdd, 0xe8, 0x15,
  0x09, 0x0e, 0xe0, 0x09, 0xf9, 0x24, 0xeb, 0x1c, 0x12, 0x27, 0xe6, 0xf9,
  0xf0, 0xeb, 0x11, 0x18, 0xea, 0x21, 0xeb, 0x02, 0x26, 0x05, 0x0c, 0x10,
  0xda, 0x4a, 0x08, 0x0e, 0x03, 0xe9, 0x07, 0x15, 0x4b, 0x14, 0x12, 0x02,
  0xe2, 0x06, 0x13, 0x0a, 0x04, 0xec, 0x07, 0x2a, 0x1b, 0xe4, 0x0f, 0xe3,
  0x06, 0x3f, 0xfa, 0x1f, 0x2b, 0xec, 0x02, 0x0f, 0x04, 0x15, 0xee, 0x22,
  0x14, 0xf2, 0xe5, 0x39, 0xfe, 0x05, 0xf2, 0x24, 0xdb, 0xec, 0xf1, 0x14,
  0xdc, 0x32, 0xfd, 0x0b, 0x22, 0xe0, 0x10, 0xf5, 0x6d, 0x14, 0x21, 0xf1,
  0x0b, 0x08, 0xe8, 0x15, 0xf4, 0x0c, 0x06, 0x67, 0x02, 0xe9, 0x28, 0x01,
  0xcd, 0x2d, 0xe2, 0x0e, 0x19, 0x0f, 0xf6, 0x30, 0x6b, 0x1e, 0x24, 0x14,
  0x11, 0x06, 0xe7, 0x10, 0xf6, 0x21, 0x1f, 0x50, 0x0a, 0x18, 0x13, 0x07,
  0xe1, 0x0c, 0x20, 0xfb, 0x3d, 0xff, 0x09, 0x3e, 0x41, 0x16, 0xfb, 0xe3,
  0xe3, 0x08, 0x23, 0x08, 0x15, 0x1e, 0xf2, 0x32, 0x01, 0x04, 0xe8, 0x16,
  0xf9, 0x22, 0x0e, 0x15, 0x29, 0x11, 0xe9, 0xfd, 0x1c, 0xfa, 0xf9, 0xfe,
  0x1b, 0xe6, 0x20, 0x09, 0xe7, 0x16, 0x1d, 0x4d, 0x08, 0x16, 0x10, 0x0d,
  0x03, 0x0f, 0xe7, 0x21, 0x39, 0x03, 0xef, 0xf5, 0x37, 0x10, 0x0e, 0xeb,
  0x16, 0xfb, 0x28, 0xe6, 0x18, 0xed, 0x27, 0x19, 0xf5, 0xf1, 0x04, 0x05,
  0xee, 0x16, 0x0e, 0xf4, 0xe2, 0xf9, 0x06, 0xd6, 0x0b, 0xe6, 0xf6, 0xee,
  0x10, 0x16, 0x11, 0x0c, 0x2c, 0xf0, 0x13, 0xf1, 0xda, 0x1c, 0xfe, 0x1b,
  0xec, 0x06, 0x12, 0x16, 0xf2, 0xe6, 0x06, 0xe9, 0xf3, 0xfb, 0x03, 0x26,
  0xe3, 0x1b, 0xf4, 0x16, 0x0e, 0x04, 0x19, 0x3b, 0xf3, 0x1b, 0xde, 0x11,
  0xee, 0x3e, 0xdc, 0xec, 0x0c, 0xe0, 0x0a, 0xe3, 0x16, 0x03, 0xf7, 0xdd,
  0xff, 0x23, 0x04, 0x1e, 0x1d, 0xfb, 0x21, 0x16, 0xfd, 0xe2, 0x05, 0x04,
  0xf8, 0xeb, 0xda, 0xe8, 0xf3, 0xf3, 0xe6, 0xeb, 0x0c, 0x17, 0x13, 0xf9,
  0xdc, 0xff, 0xe2, 0xf1, 0xf5, 0x18, 0x14, 0xf2, 0xf9, 0xef, 0xd9, 0xee,
  0xfe, 0xe5, 0xf2, 0x19, 0xd9, 0xee, 0xde, 0x07, 0xda, 0x1e, 0x0c, 0x0c,
  0x15, 0xde, 0x16, 0x23, 0x04, 0xe4, 0xf4, 0xfb, 0xfc, 0xf7, 0xe1, 0x02,
  0xdd, 0x17, 0xff, 0x06, 0x04, 0xf0, 0xfb, 0x11, 0x1d, 0xe4, 0xe8, 0xd8,
  0x0c, 0x00, 0xf9, 0xe0, 0x0a, 0x18, 0xeb, 0xe7, 0x05, 0x1c, 0xf2, 0xd4,
  0xfc, 0x17, 0x10, 0xe9, 0x02, 0x1b, 0x0a, 0x2b, 0x05, 0xdd, 0xf1, 0xf0,
  0x0a, 0xe1, 0xea, 0xc6, 0xeb, 0x1c, 0xec, 0xd1, 0x04, 0xed, 0xd8, 0xf9,
  0xeb, 0x0c, 0x09, 0xda, 0x01, 0x29, 0xec, 0xfb, 0x22, 0x2d, 0x04, 0xfe,
  0xfd, 0xf4, 0x1a, 0xf6, 0x03, 0xdc, 0xe6, 0x3f, 0xf4, 0xe2, 0x06, 0x10,
  0xfb, 0x12, 0xef, 0x1c, 0x17, 0xed, 0xe1, 0xf5, 0x16, 0xfe, 0xdd, 0x06,
  0xe0, 0xfd, 0x08, 0xfc, 0xe6, 0x1c, 0x07, 0xf3, 0x06, 0x11, 0xfa, 0xdf,
  0x10, 0x06, 0xed, 0xfe, 0x0b, 0x0b, 0xf8, 0x2b, 0x5f, 0xf3, 0xfd, 0x11,
  0x17, 0xe5, 0x0f, 0xea, 0x19, 0xff, 0xfe, 0x1c, 0x00, 0xf6, 0x01, 0x1e,
  0x04, 0x4e, 0xe1, 0x01, 0x31, 0xe2, 0x05, 0xf8, 0x48, 0x49, 0xf3, 0xff,
  0xe8, 0x04, 0xf0, 0x42, 0xec, 0x0a, 0xec, 0x33, 0x15, 0x0d, 0x0b, 0xe3,
  0xd1, 0x1f, 0x0d, 0xff, 0x2a, 0x13, 0x08, 0xcf, 0x30, 0x0e, 0x24, 0x14,
  0x1c, 0x08, 0x13, 0x31, 0xef, 0xf3, 0x07, 0x14, 0x00, 0x18, 0xf2, 0x04,
  0x00, 0x20, 0x09, 0x11, 0xda, 0xff, 0xef, 0x4a, 0x00, 0x07, 0x15, 0x1f,
  0x10, 0x07, 0xf7, 0x04, 0xe9, 0x0e, 0x1d, 0x4d, 0xfd, 0xde, 0x13, 0x08,
  0x06, 0x20, 0x2c, 0xef, 0x04, 0xde, 0x10, 0xff, 0x30, 0x47, 0xf3, 0xea,
  0xfe, 0x09, 0x25, 0x10, 0x18, 0xfb, 0x17, 0xf7, 0x05, 0x05, 0x18, 0x1c,
  0xed, 0x0a, 0x03, 0x22, 0x35, 0x1a, 0x0a, 0x18, 0x71, 0x3c, 0x11, 0x08,
  0x24, 0x17, 0x09, 0xe0, 0xd0, 0xf1, 0x07, 0x34, 0x4d, 0xe5, 0x1d, 0xf0,
  0xfa, 0xff, 0x32, 0x11, 0xe9, 0x00, 0xe7, 0x04, 0x1b, 0xf4, 0x0d, 0x2e,
  0x07, 0xda, 0xf9, 0xdc, 0x12, 0xf2, 0xef, 0x21, 0x1a, 0xed, 0xcc, 0x2d,
  0xdf, 0x3d, 0xe1, 0x36, 0x09, 0xf2, 0x08, 0x16, 0xe2, 0x00, 0x08, 0xff,
  0xed, 0xf3, 0xfd, 0xd4, 0x29, 0xe0, 0xfc, 0x2d, 0xfc, 0x22, 0xe9, 0x2c,
  0xcf, 0xe0, 0x1d, 0x00, 0x12, 0xc0, 0xe5, 0x1c, 0x1c, 0xf5, 0xf6, 0x1c,
  0xd9, 0x1e, 0xef, 0x32, 0x17, 0x17, 0xec, 0xf0, 0xf1, 0x2a, 0xd5, 0x04,
  0xb5, 0xe9, 0xed, 0x06, 0xd0, 0x18, 0xf0, 0x19, 0xca, 0xf3, 0x0f, 0xfc,
  0xd3, 0xf5, 0xeb, 0xf6, 0x12, 0xf2, 0xff, 0x1a, 0xde, 0xd5, 0xd3, 0xec,
  0xcc, 0xe7, 0xf7, 0xdb, 0xf0, 0xea, 0xd5, 0x1e, 0xe7, 0xdb, 0x00, 0xf2,
  0xfa, 0xc6, 0xe6, 0xd4, 0xf4, 0xe3, 0xd8, 0x28, 0xeb, 0xe0, 0xf3, 0x04,
  0xbf, 0x31, 0x02, 0xf5, 0x10, 0x0f, 0xdf, 0x15, 0x15, 0xe1, 0xda, 0x19,
  0xfb, 0x00, 0xf2, 0xde, 0xf0, 0xe5, 0xd7, 0xdf, 0xd2, 0xfa, 0xc6, 0x04,
  0xf4, 0xea, 0x41, 0xeb, 0xfc, 0x28, 0xfd, 0xfe, 0x2f, 0xf6, 0x03, 0x0d,
  0x24, 0xe7, 0x21, 0x12, 0xe6, 0xe3, 0xee, 0x39, 0x0a, 0xdd, 0xf3, 0xda,
  0xe7, 0x2f, 0x1b, 0x12, 0x06, 0xf2, 0xef, 0x1e, 0x26, 0x34, 0x0e, 0xd7,
  0x13, 0x06, 0x14, 0x2b, 0xe9, 0xd3, 0xf0, 0xf3, 0x4a, 0xdc, 0x1d, 0xe6,
  0x0e, 0x3a, 0x2a, 0xeb, 0x16, 0x14, 0x0f, 0x22, 0x5d, 0x18, 0x14, 0xf9,
  0xe2, 0xed, 0xf6, 0xed, 0xd3, 0xdd, 0x05, 0x30, 0xf8, 0xe0, 0x1e, 0xe9,
  0xe1, 0x10, 0xed, 0xe5, 0x2d, 0x19, 0x10, 0xd9, 0x65, 0x2b, 0xfe, 0xe2,
  0x0c, 0xf6, 0x17, 0x1d, 0x22, 0xf9, 0x06, 0x43, 0x47, 0xe3, 0x0a, 0xeb,
  0xc3, 0x13, 0x2c, 0xf0, 0x1b, 0x04, 0xe5, 0xd9, 0x2f, 0x22, 0xeb, 0x23,
  0x39, 0xe2, 0xf2, 0x27, 0x24, 0x11, 0x07, 0x2e, 0x25, 0x00, 0x27, 0xf2,
  0xeb, 0xed, 0xce, 0x1d, 0x22, 0xfe, 0x21, 0x00, 0x6c, 0x16, 0x18, 0xff,
  0xec, 0xde, 0x07, 0x26, 0x01, 0x1f, 0x06, 0x4d, 0x3c, 0x1a, 0xff, 0x21,
  0xca, 0x4c, 0x18, 0xfe, 0x2c, 0x2c, 0xfa, 0x01, 0x26, 0x22, 0xf6, 0xeb,
  0x0f, 0x1f, 0x24, 0x1e, 0xf5, 0x0e, 0xf4, 0x19, 0x34, 0x20, 0x1e, 0xef,
  0xe5, 0x03, 0x15, 0xff, 0x15, 0x2f, 0xec, 0x3f, 0x4d, 0x16, 0xfa, 0xe9,
  0x0b, 0x05, 0x12, 0x3c, 0x06, 0xfe, 0x17, 0x61, 0x42, 0x20, 0xf5, 0x0e,
  0xdf, 0x00, 0xf5, 0x1e, 0x4c, 0xeb, 0x29, 0xf0, 0x48, 0x53, 0x12, 0x02,
  0x02, 0x02, 0xfb, 0xeb, 0xe9, 0x1a, 0x1b, 0x20, 0xee, 0xfe, 0xf5, 0x1f,
  0xbb, 0x2b, 0x0b, 0x1f, 0x0e, 0x2f, 0x28, 0x1a, 0x61, 0x42, 0x1e, 0x11,
  0x41, 0x1f, 0x03, 0x10, 0xe5, 0x00, 0x12, 0x12, 0x0c, 0xe8, 0x43, 0xff,
  0xea, 0xd1, 0x00, 0x2a, 0x05, 0x13, 0x1a, 0x06, 0x7a, 0x16, 0xfd, 0x2b,
  0xfe, 0xf6, 0x2e, 0x14, 0xe2, 0x02, 0xed, 0x44, 0x46, 0xeb, 0xfa, 0x1d,
  0xbb, 0x3b, 0x28, 0x16, 0x07, 0x01, 0x1f, 0x1f, 0x1c, 0x22, 0x06, 0xf9,
  0x19, 0x0b, 0x12, 0x1e, 0x04, 0xeb, 0x18, 0x2e, 0x23, 0xf5, 0xfa, 0xf4,
  0xd7, 0xee, 0xe3, 0xfd, 0xf5, 0x11, 0xf3, 0x23, 0x1b, 0xeb, 0xfe, 0xe6,
  0xe7, 0x05, 0x1c, 0x24, 0x0f, 0xf5, 0x0b, 0x06, 0xf9, 0xe7, 0x0d, 0xf3,
  0xd0, 0x0a, 0xde, 0xf9, 0xec, 0x07, 0xe8, 0x38, 0x52, 0xe4, 0x09, 0xdf,
  0xf6, 0x01, 0xf3, 0xcb, 0x21, 0xf7, 0x00, 0xd9, 0x07, 0x14, 0xea, 0xec,
  0xda, 0x9e, 0x43, 0x04, 0x14, 0xff, 0xf2, 0xfc, 0xa5, 0xda, 0xfa, 0x18,
  0xcf, 0xe2, 0xf2, 0xcd, 0xee, 0x0b, 0x19, 0xe6, 0xcf, 0xe9, 0xf5, 0xf9,
  0xe7, 0x0d, 0x43, 0xe3, 0xe7, 0x09, 0xe4, 0x17, 0x05, 0x0a, 0x02, 0x15,
  0xe1, 0xe9, 0x01, 0xd8, 0xe8, 0xe2, 0xdb, 0xcd, 0xdb, 0xed, 0xe8, 0xe6,
  0xdd, 0xeb, 0xf7, 0x13, 0xe8, 0xea, 0xda, 0xf5, 0x01, 0xf7, 0xe7, 0x0e,
  0xfe, 0xfd, 0x17, 0xe0, 0x17, 0xd9, 0xf0, 0x12, 0x00, 0xe4, 0xde, 0xe3,
  0x09, 0x0b, 0x07, 0xdd, 0x05, 0x10, 0xf1, 0xf3, 0x22, 0x30, 0xe9, 0xd9,
  0x25, 0xd1, 0xfa, 0x0a, 0xf9, 0xe1, 0xc6, 0x4f, 0x19, 0x0f, 0x29, 0xfb,
  0xe2, 0x38, 0xfe, 0x1d, 0x34, 0x2d, 0xf2, 0x04, 0x5b, 0x25, 0xe8, 0x00,
  0x14, 0xf1, 0x00, 0x06, 0xeb, 0x02, 0xd4, 0x7f, 0x34, 0xda, 0x0b, 0xe2,
  0x09, 0x3b, 0xf0, 0xf8, 0x25, 0xf9, 0x1f, 0x0d, 0x2a, 0x6d, 0x05, 0x1a,
  0x30, 0xe8, 0x16, 0x17, 0xf2, 0xf1, 0xfa, 0x67, 0x22, 0x1d, 0x3f, 0x16,
  0xdb, 0x29, 0x33, 0x11, 0x3b, 0xfb, 0xef, 0x07, 0x5c, 0x1a, 0x15, 0x0a,
  0x19, 0xf2, 0xf3, 0x20, 0x11, 0xf5, 0xe2, 0x24, 0x05, 0x26, 0xf7, 0xe5,
  0xfb, 0x27, 0x02, 0xf3, 0x19, 0x1e, 0xe4, 0x01, 0x29, 0x6c, 0xe0, 0x18,
  0xeb, 0xf7, 0xeb, 0x0e, 0xe1, 0x19, 0x15, 0x65, 0x2a, 0xfe, 0xf1, 0x18,
  0xed, 0x22, 0x11, 0x1b, 0x4a, 0xfc, 0xf2, 0x1b, 0x6d, 0x4e, 0x1c, 0x04,
  0x05, 0xf0, 0xeb, 0x07, 0xf3, 0xd4, 0x01, 0x3c, 0x0e, 0x19, 0x06, 0xed,
  0xb4, 0x13, 0x3c, 0x15, 0x23, 0xe1, 0x13, 0xf6, 0x2b, 0x43, 0x1f, 0x1d,
  0xeb, 0x15, 0x21, 0xe5, 0x1e, 0xe6, 0xda, 0x15, 0x1c, 0xed, 0x0f, 0x1c,
  0xfd, 0x0e, 0xf5, 0xfe, 0x13, 0xef, 0x1d, 0x0f, 0x2f, 0x37, 0x15, 0xfc,
  0x0b, 0x0e, 0x29, 0x16, 0x1f, 0xe8, 0xd9, 0x1a, 0x06, 0x17, 0x1f, 0x09,
  0xe5, 0x16, 0x09, 0x07, 0x10, 0x33, 0x09, 0x09, 0x3d, 0x38, 0x34, 0x20,
  0x1f, 0x17, 0x10, 0x01, 0xfc, 0xe1, 0xd3, 0xec, 0xe4, 0x0c, 0x1f, 0x0b,
  0xcc, 0xfa, 0xee, 0x10, 0x12, 0x1b, 0x2f, 0x1e, 0x1e, 0x0f, 0xfb, 0x29,
  0x16, 0xf5, 0x25, 0xc8, 0x12, 0xee, 0xf4, 0x41, 0xfe, 0xfa, 0xed, 0x1f,
  0xce, 0xf8, 0xc5, 0xfb, 0xe5, 0xf1, 0x13, 0x2c, 0x3f, 0x1e, 0x23, 0x1e,
  0xdf, 0x27, 0xff, 0x12, 0xdf, 0xd9, 0x05, 0xf6, 0x21, 0xf0, 0x06, 0xff,
  0xb8, 0xde, 0x17, 0x13, 0xe5, 0xea, 0x19, 0xf1, 0x2a, 0xff, 0x29, 0xf6,
  0xd7, 0x0f, 0x06, 0x15, 0xeb, 0xf5, 0x15, 0xe1, 0x0b, 0xfb, 0xe8, 0xe9,
  0xb0, 0x07, 0xfa, 0xf8, 0x23, 0xf6, 0x07, 0x03, 0x1c, 0x06, 0xf3, 0xfb,
  0xde, 0x10, 0xf3, 0x03, 0x09, 0xe9, 0xed, 0xf3, 0x14, 0x24, 0xbf, 0xf3,
  0xd0, 0xd7, 0x23, 0xeb, 0x1b, 0xca, 0x26, 0x20, 0x17, 0xd6, 0x12, 0xe7,
  0xf2, 0x19, 0x04, 0x00, 0x14, 0x0d, 0x07, 0xeb, 0x0e, 0x16, 0xc1, 0x18,
  0xf0, 0xf5, 0x0c, 0xf2, 0x3f, 0xf1, 0xfd, 0x0c, 0x31, 0x1e, 0xed, 0xde,
  0xe4, 0x0c, 0xeb, 0x37, 0x04, 0xef, 0xd7, 0x47, 0x38, 0x09, 0xf0, 0x0a,
  0xfc, 0xed, 0xf1, 0xd6, 0xed, 0xfa, 0x12, 0x29, 0x30, 0x2e, 0xfa, 0xfc,
  0xf7, 0xf5, 0xfe, 0xf6, 0x24, 0xe0, 0x10, 0x1d, 0x32, 0xe6, 0x36, 0x08,
  0x18, 0x04, 0x1f, 0x06, 0x01, 0xe5, 0xdb, 0x07, 0x1b, 0xfc, 0x00, 0xde,
  0x0e, 0x09, 0xfc, 0x15, 0xe1, 0xe3, 0xe1, 0x09, 0x10, 0x0f, 0xf1, 0xf7,
  0x03, 0xfd, 0xef, 0xe6, 0xf5, 0x06, 0xec, 0x09, 0xf3, 0xee, 0xf6, 0xe3,
  0x17, 0xef, 0x1d, 0x09, 0xf2, 0xda, 0xfa, 0x17, 0x20, 0x1a, 0xe9, 0x0f,
  0xff, 0x1d, 0xeb, 0xe3, 0xe2, 0x1b, 0xf3, 0x03, 0x00, 0xf0, 0x06, 0x01,
  0xfb, 0x0f, 0xe7, 0xe1, 0x02, 0xef, 0xdb, 0x23, 0xfd, 0xe3, 0x1a, 0x09,
  0x0d, 0x13, 0xf5, 0xf9, 0xec, 0xf4, 0xe5, 0xfb, 0x19, 0xfa, 0xe6, 0xdf,
  0x01, 0xee, 0xdc, 0x1b, 0x02, 0x00, 0x11, 0xfd, 0xf0, 0x1e, 0x15, 0xf7,
  0x15, 0x09, 0xfe, 0x1b, 0x05, 0x14, 0xdb, 0xf0, 0x02, 0xf8, 0xea, 0x0d,
  0x08, 0xe5, 0x0c, 0x11, 0xec, 0xe4, 0xf7, 0x1d, 0xed, 0x10, 0xef, 0xe6,
  0xe2, 0xe9, 0x1c, 0x0c, 0xf4, 0x1a, 0x0d, 0x1d, 0xea, 0x04, 0x14, 0xf7,
  0xfe, 0x04, 0xf1, 0xef, 0xe3, 0xeb, 0x18, 0xf7, 0x0b, 0x20, 0x1a, 0xdb,
  0x0d, 0xf5, 0x11, 0x0f, 0xdd, 0x1c, 0x05, 0xe0, 0x00, 0xdc, 0xdb, 0xe4,
  0xef, 0x19, 0xfd, 0x00, 0x0e, 0x05, 0xf8, 0xee, 0x18, 0xff, 0x0d, 0x0c,
  0x1d, 0x10, 0x0d, 0xf7, 0xf5, 0xf2, 0xe6, 0x12, 0xee, 0x05, 0xfc, 0x0e,
  0xf4, 0xf1, 0xf1, 0x21, 0xed, 0x0d, 0x12, 0xee, 0x10, 0xe3, 0xf5, 0x1f,
  0xf5, 0x05, 0xe1, 0x1d, 0xf9, 0x1d, 0x10, 0x07, 0x10, 0xeb, 0xdd, 0xe6,
  0x14, 0xf0, 0x11, 0xed, 0x01, 0x1f, 0xed, 0xe9, 0x04, 0x01, 0xdd, 0xda,
  0xde, 0x20, 0x1f, 0xe8, 0x09, 0xeb, 0xef, 0x21, 0x13, 0xe8, 0x17, 0xed,
  0x15, 0xdb, 0xf9, 0x1a, 0x10, 0x1f, 0x1f, 0xeb, 0x1f, 0xf2, 0x05, 0xe1,
  0xe9, 0x01, 0xe3, 0x15, 0xf4, 0x05, 0x10, 0xe2, 0x0c, 0xfa, 0xf7, 0x0a,
  0x05, 0xf0, 0x0c, 0xd9, 0x20, 0x10, 0xdf, 0xf6, 0xeb, 0xff, 0x07, 0xed,
  0xdd, 0xf4, 0x0c, 0x0d, 0x19, 0x11, 0x02, 0x22, 0xf6, 0x19, 0x04, 0xde,
  0xe0, 0xe8, 0x1d, 0x17, 0xe7, 0x0d, 0xff, 0xea, 0xea, 0x0b, 0xf5, 0xf8,
  0xdd, 0xff, 0x1c, 0x1d, 0x04, 0x18, 0x13, 0xe9, 0x0a, 0xe0, 0xf7, 0xde,
  0xed, 0xdd, 0x16, 0x06, 0xf8, 0xe8, 0xdc, 0x06, 0xe3, 0xdf, 0xe2, 0x14,
  0xf2, 0xeb, 0xf1, 0x0b, 0x09, 0x11, 0xf1, 0x13, 0xe5, 0x20, 0x05, 0xea,
  0x1a, 0xff, 0x15, 0x25, 0xfc, 0xf0, 0x12, 0xfe, 0xe9, 0x11, 0x0a, 0x0b,
  0xe9, 0xeb, 0x0d, 0x06, 0x13, 0x1d, 0xf9, 0xed, 0x06, 0xf1, 0x01, 0xec,
  0x10, 0x1c, 0x13, 0xe4, 0xf7, 0x19, 0xe7, 0xe8, 0xe9, 0xec, 0xdd, 0x09,
  0x07, 0xfc, 0x01, 0x09, 0x03, 0x06, 0xde, 0x06, 0x01, 0x11, 0x1d, 0x02,
  0xee, 0xf5, 0xfc, 0xf9, 0x11, 0xdd, 0xf1, 0x02, 0xe0, 0x11, 0xd9, 0xde,
  0x00, 0xfb, 0x06, 0xe4, 0x15, 0x18, 0x16, 0xf3, 0x1c, 0xd9, 0xe3, 0xf1,
  0xee, 0x1b, 0x07, 0x09, 0xdc, 0xe8, 0xe1, 0xe6, 0x21, 0xf3, 0x14, 0x10,
  0xf8, 0xf8, 0xdc, 0xec, 0xdf, 0x16, 0x20, 0x1c, 0x1f, 0x0b, 0xd9, 0xe4,
  0xed, 0xf6, 0xee, 0xe6, 0xe6, 0x19, 0xde, 0x0d, 0x10, 0x06, 0x03, 0x1b,
  0xe5, 0x0a, 0x18, 0xf2, 0xdc, 0xe1, 0xf8, 0xec, 0xfc, 0xf1, 0xf0, 0xe3,
  0x1d, 0xef, 0xe3, 0x14, 0x1b, 0xfb, 0x1e, 0x17, 0xf1, 0x07, 0x20, 0xed,
  0x1b, 0xdf, 0x16, 0x1d, 0xdb, 0x04, 0xdc, 0x04, 0xfa, 0x19, 0xec, 0xe4,
  0xfc, 0xe9, 0xe4, 0x08, 0xf0, 0xf2, 0x06, 0xeb, 0x0f, 0xfa, 0xf4, 0xe4,
  0x1e, 0xeb, 0x07, 0xeb, 0x01, 0xe9, 0x12, 0x1a, 0x00, 0x21, 0x03, 0xf9,
  0x17, 0xeb, 0xdb, 0x1d, 0x20, 0x02, 0xe3, 0xf9, 0x1b, 0x18, 0xde, 0xed,
  0x13, 0x00, 0xf5, 0x20, 0xfa, 0x15, 0xe6, 0xdc, 0x14, 0x0b, 0x19, 0x0f,
  0x04, 0xf8, 0xee, 0xf7, 0x19, 0xf0, 0x0a, 0xe9, 0xe5, 0xdd, 0xff, 0x16,
  0x04, 0x2c, 0xf9, 0xf4, 0x1d, 0x23, 0xf8, 0x19, 0x13, 0x0f, 0xf5, 0xee,
  0xf5, 0xf2, 0x1c, 0xe6, 0x06, 0xeb, 0x01, 0xf5, 0x09, 0x16, 0xfc, 0xf7,
  0x0f, 0xe7, 0xe8, 0xfb, 0xdc, 0xe0, 0xef, 0x00, 0xea, 0xfc, 0x08, 0xe6,
  0xec, 0xf8, 0xf7, 0x27, 0xe8, 0x13, 0x13, 0xe0, 0x0a, 0xe9, 0x14, 0xfb,
  0x1e, 0xef, 0x06, 0x06, 0x07, 0xf8, 0x02, 0x09, 0xea, 0xe6, 0x1f, 0xf2,
  0x00, 0xf9, 0xfb, 0xfb, 0x17, 0xeb, 0xf9, 0xe2, 0x0e, 0xe1, 0x11, 0xdf,
  0xea, 0x02, 0x03, 0x1b, 0x0b, 0xdd, 0x06, 0x10, 0x09, 0x15, 0xe0, 0xfd,
  0x0b, 0x02, 0x17, 0x04, 0x21, 0xee, 0xfc, 0xfd, 0x1f, 0x00, 0xf3, 0xec,
  0x23, 0xfd, 0x04, 0x12, 0xde, 0x17, 0xdd, 0x16, 0xf9, 0xdd, 0xfe, 0xff,
  0xec, 0x1c, 0x1e, 0x12, 0x0b, 0xed, 0x1a, 0x10, 0x13, 0xe1, 0xe0, 0xf1,
  0xfd, 0xe3, 0x12, 0x02, 0x0f, 0xff, 0xdb, 0xff, 0xe9, 0x16, 0xfe, 0x1d,
  0xea, 0x08, 0x0d, 0xe3, 0x17, 0xec, 0x0a, 0xe5, 0xfe, 0x1b, 0x1f, 0x03,
  0xea, 0x04, 0x10, 0xf9, 0xe2, 0x23, 0xfb, 0xdf, 0xf9, 0xfd, 0x1f, 0x08,
  0x0e, 0xf7, 0xe6, 0xf1, 0xef, 0xe2, 0x20, 0xeb, 0xe6, 0x13, 0x22, 0xe2,
  0xe7, 0xe7, 0x20, 0x09, 0x0c, 0xf9, 0x0d, 0x11, 0x13, 0xf9, 0xfb, 0x1e,
  0xe5, 0xe8, 0x0d, 0xef, 0xee, 0xfa, 0x11, 0x0e, 0x0c, 0x17, 0xef, 0xfe,
  0x16, 0x0c, 0x11, 0xe5, 0xe6, 0x04, 0x1e, 0x16, 0xf4, 0x11, 0xdd, 0x17,
  0x07, 0x20, 0xda, 0xe3, 0x09, 0xf9, 0x0a, 0xf5, 0x18, 0x1b, 0xe5, 0xf3,
  0x23, 0x04, 0xef, 0xec, 0xf2, 0xef, 0xdb, 0x02, 0xe7, 0xee, 0x01, 0xee,
  0x06, 0xf0, 0xe9, 0xe2, 0x1b, 0x1c, 0xfb, 0x00, 0x0f, 0x03, 0xec, 0x19,
  0x09, 0xe0, 0x1b, 0x1c, 0xe4, 0x19, 0x0a, 0x09, 0x21, 0x0e, 0x0a, 0xe6,
  0xfb, 0xdb, 0x18, 0xfc, 0x09, 0x1d, 0xe9, 0x0c, 0x14, 0x09, 0xdf, 0xe0,
  0x23, 0xed, 0x11, 0xf5, 0xe4, 0xe0, 0xf7, 0xec, 0x1e, 0xff, 0x1b, 0x0d,
  0xf7, 0x1d, 0xec, 0x13, 0x0a, 0x0b, 0xf8, 0x0c, 0x1f, 0xfe, 0x0d, 0x1b,
  0xef, 0x14, 0xf7, 0x06, 0x01, 0xe8, 0xf5, 0x06, 0xea, 0x03, 0x08, 0x12,
  0xe9, 0xfb, 0x13, 0xf6, 0xf2, 0x0f, 0x1c, 0xf6, 0xf3, 0xfb, 0xe1, 0xe7,
  0x03, 0x09, 0xe2, 0xe6, 0xdd, 0xe0, 0x00, 0x22, 0x24, 0xdf, 0xdc, 0x0e,
  0x1e, 0x0d, 0xf1, 0x11, 0x14, 0x0c, 0xf0, 0xf5, 0x03, 0xf1, 0x09, 0x1e,
  0x16, 0x13, 0xf5, 0x21, 0x1e, 0xef, 0x0b, 0xfa, 0xf9, 0x15, 0xea, 0x08,
  0xeb, 0x16, 0xf8, 0xe7, 0x0a, 0x1b, 0x01, 0x27, 0xe5, 0x0f, 0xed, 0xfe,
  0xf7, 0xfe, 0x18, 0xfb, 0xe8, 0x22, 0x1e, 0x0a, 0xf7, 0x1b, 0x0f, 0xe9,
  0x17, 0x1e, 0x0a, 0x13, 0xf2, 0x20, 0x1e, 0x11, 0xf9, 0xfa, 0x21, 0xf0,
  0xfa, 0xf3, 0xf4, 0x1e, 0x15, 0xe7, 0xf0, 0x16, 0xfe, 0xe0, 0xf1, 0xdc,
  0x1b, 0xde, 0xee, 0xf1, 0xf0, 0x1b, 0xf7, 0xf3, 0x0b, 0x18, 0x1a, 0x0c,
  0xf9, 0xf2, 0x18, 0x14, 0xdd, 0xe6, 0xe2, 0x17, 0x1b, 0x13, 0xea, 0x01,
  0xe3, 0xe3, 0xeb, 0x14, 0x18, 0xe7, 0x1d, 0xe4, 0x02, 0xe5, 0x13, 0xdf,
  0x05, 0x23, 0xe3, 0xef, 0xf2, 0xfc, 0x19, 0xe7, 0x15, 0x1a, 0x09, 0x02,
  0x14, 0xe9, 0xf6, 0xf2, 0xe6, 0x02, 0xe3, 0x16, 0xf2, 0xeb, 0x14, 0x1b,
  0x1b, 0x0b, 0x04, 0x09, 0xe6, 0xf1, 0xe7, 0x09, 0x1d, 0x04, 0xe5, 0xe3,
  0x1c, 0x0e, 0x1b, 0x02, 0xf1, 0xf0, 0x10, 0xec, 0x1e, 0xef, 0x03, 0x10,
  0x13, 0xdc, 0xeb, 0xe6, 0x05, 0xec, 0xde, 0x14, 0x03, 0xec, 0xf8, 0x13,
  0xe6, 0x0c, 0xf5, 0x0d, 0x01, 0x14, 0xf5, 0xfb, 0x17, 0xf9, 0xff, 0x1a,
  0x04, 0xe2, 0xdd, 0xde, 0x0c, 0xe6, 0x20, 0xed, 0x03, 0xed, 0xe1, 0xde,
  0x20, 0xe9, 0xdd, 0xe4, 0x14, 0x13, 0xe0, 0x1d, 0xe9, 0xf7, 0x1b, 0x0b,
  0x19, 0xfb, 0xfc, 0xec, 0x16, 0x12, 0x17, 0x1d, 0xfd, 0x14, 0xff, 0xdd,
  0xdb, 0xf0, 0x19, 0x05, 0xde, 0x16, 0xfe, 0x1c, 0x05, 0x17, 0xf8, 0xf4,
  0x0a, 0x22, 0x1d, 0xec, 0x1b, 0xf0, 0xf1, 0xfe, 0x0e, 0x16, 0x09, 0xfe,
  0xe2, 0xeb, 0xe8, 0xfe, 0x06, 0x0b, 0x21, 0x18, 0xe1, 0xf5, 0x1f, 0x02,
  0x1f, 0x08, 0x07, 0xe7, 0xe4, 0x07, 0xf8, 0x17, 0xe0, 0x03, 0xfc, 0x02,
  0xe9, 0x23, 0x06, 0x09, 0x10, 0x02, 0x11, 0xe0, 0xfe, 0x1a, 0x19, 0x12,
  0xe8, 0xe8, 0xdf, 0xdd, 0xe6, 0x14, 0x09, 0xfb, 0x23, 0x11, 0x21, 0xfb,
  0xfa, 0xe1, 0xe0, 0xf8, 0xf7, 0xde, 0x14, 0x1b, 0x00, 0xe7, 0xe2, 0x1c,
  0xea, 0x21, 0x1f, 0x00, 0x0d, 0xf9, 0x1a, 0xf6, 0x21, 0xe6, 0xec, 0xfc,
  0xef, 0x0c, 0xe8, 0xfd, 0x15, 0x02, 0xfe, 0xff, 0xfc, 0xfc, 0xfd, 0xf6,
  0xe8, 0xdd, 0x15, 0x07, 0x07, 0xf6, 0x18, 0xe4, 0x0f, 0xf5, 0xde, 0xea,
  0x17, 0xed, 0x20, 0x0f, 0xe9, 0xdc, 0xe2, 0xf8, 0xef, 0x16, 0xe6, 0x14,
  0x16, 0x20, 0xef, 0xec, 0xdb, 0x0a, 0xed, 0x1e, 0x18, 0xe8, 0xe7, 0x03,
  0x09, 0xf0, 0xec, 0x1c, 0x05, 0xdd, 0x18, 0xec, 0x00, 0xe6, 0xdf, 0x15,
  0xe4, 0xe4, 0x0b, 0x02, 0xf6, 0x0b, 0x04, 0xf8, 0x07, 0x11, 0x23, 0xe8,
  0xda, 0x1e, 0xfe, 0x0a, 0xe4, 0x05, 0xf9, 0xdf, 0xfd, 0xf1, 0x03, 0xec,
  0x0d, 0xee, 0xf4, 0x01, 0x13, 0x0d, 0x06, 0x15, 0x1d, 0x1d, 0x03, 0x08,
  0x00, 0x0f, 0xe0, 0x1e, 0x1d, 0xeb, 0x1d, 0xe3, 0xde, 0x20, 0xe5, 0xe8,
  0x09, 0x0a, 0xfe, 0x1d, 0xec, 0x01, 0x05, 0x08, 0xfa, 0xf4, 0x1e, 0x11,
  0xec, 0x03, 0x17, 0xff, 0x0e, 0x20, 0xe2, 0x0b, 0xf8, 0x08, 0xdd, 0xe2,
  0xfe, 0x05, 0xef, 0xf6, 0x04, 0xe0, 0xe4, 0x0d, 0x24, 0xe3, 0x0d, 0x07,
  0xe4, 0xfc, 0x1f, 0xf3, 0x1d, 0xe3, 0xf3, 0xf7, 0x23, 0xfa, 0x04, 0x04,
  0xe7, 0xf9, 0xe8, 0xff, 0xf8, 0xdf, 0x18, 0x15, 0xde, 0x16, 0xf4, 0xee,
  0xdd, 0x16, 0xdb, 0xfa, 0x09, 0x05, 0xdb, 0x10, 0x21, 0xfc, 0xe3, 0x05,
  0x0c, 0x05, 0x0b, 0x11, 0xed, 0xfb, 0xe0, 0xf1, 0xea, 0x0e, 0xe3, 0xfc,
  0x09, 0x00, 0xec, 0x07, 0x0c, 0xf4, 0x22, 0x14, 0xfe, 0xfb, 0x09, 0xea,
  0xfb, 0x08, 0x00, 0x04, 0x20, 0x17, 0x1c, 0xe5, 0xf3, 0x16, 0xf0, 0xdb,
  0x04, 0x0d, 0x09, 0xea, 0x0e, 0x00, 0xdf, 0x02, 0xfe, 0xdd, 0x12, 0x19,
  0xe1, 0x14, 0xe9, 0xe9, 0x17, 0x13, 0xed, 0x12, 0x13, 0xe5, 0x06, 0x06,
  0x02, 0xeb, 0xe8, 0xdf, 0x0a, 0xe0, 0x1c, 0x0b, 0x0e, 0xdd, 0x0c, 0xec,
  0xe9, 0x0a, 0xde, 0xf5, 0x1b, 0x21, 0x11, 0x15, 0xfd, 0xf8, 0xf1, 0x13,
  0x16, 0x10, 0xe1, 0xf4, 0xf1, 0xf3, 0xea, 0x1b, 0xdb, 0x0b, 0xec, 0x05,
  0x16, 0x01, 0x0a, 0xe8, 0xe9, 0x0f, 0x06, 0xf3, 0xf6, 0xe3, 0xe2, 0x0f,
  0x1a, 0xe8, 0xe8, 0xf7, 0x1a, 0xe2, 0xfb, 0x0f, 0xf4, 0x12, 0xea, 0x0b,
  0xea, 0xdd, 0xea, 0xf8, 0xf5, 0xdc, 0xe0, 0xf6, 0xee, 0xec, 0xf3, 0x1d,
  0xff, 0xf8, 0xfc, 0xf6, 0xe7, 0xe3, 0xe2, 0xfe, 0x05, 0x1a, 0xde, 0xe4,
  0x05, 0xee, 0x1e, 0xdf, 0x0d, 0x13, 0x11, 0x18, 0xfc, 0xec, 0xe2, 0x09,
  0xda, 0x04, 0xdb, 0xe4, 0xfc, 0xf4, 0xeb, 0x17, 0xfb, 0x11, 0xf8, 0x14,
  0x1d, 0xfd, 0xfb, 0x09, 0x06, 0x21, 0x10, 0xff, 0x13, 0x05, 0x24, 0xe2,
  0xfd, 0xde, 0xe8, 0xf6, 0xec, 0x1e, 0xea, 0xfd, 0x05, 0x23, 0xe4, 0xdd,
  0xda, 0xec, 0x06, 0xf8, 0x20, 0xec, 0xe8, 0xdd, 0xe9, 0x12, 0xe0, 0x00,
  0xf1, 0x20, 0x11, 0xf2, 0x0f, 0xde, 0x0e, 0x18, 0xdf, 0x20, 0xea, 0x16,
  0x06, 0xec, 0x0a, 0xe3, 0xe9, 0xfe, 0x0b, 0xe3, 0xec, 0x17, 0xfd, 0xee,
  0x06, 0xfa, 0x03, 0x04, 0xdc, 0xf3, 0xf6, 0x16, 0x19, 0xe6, 0x05, 0x0a,
  0x06, 0x22, 0xe7, 0x17, 0x1b, 0xf0, 0xe7, 0xfd, 0x0a, 0x0b, 0x20, 0xfb,
  0x15, 0xe8, 0x00, 0xec, 0xed, 0xe4, 0x07, 0xf1, 0x16, 0xdf, 0xe4, 0xeb,
  0x1e, 0x08, 0x19, 0x11, 0x0a, 0xf7, 0xe2, 0x1f, 0x11, 0xef, 0xf1, 0xed,
  0x13, 0x09, 0xf1, 0x1d, 0x0c, 0x08, 0x00, 0xea, 0xe8, 0x0f, 0xf2, 0xed,
  0xdd, 0x0d, 0x03, 0xf0, 0x1d, 0xf3, 0x22, 0x0a, 0x12, 0x03, 0xef, 0x0f,
  0xef, 0x0c, 0x1b, 0x14, 0xde, 0xf1, 0x10, 0xf8, 0xf2, 0xdf, 0x1e, 0x07,
  0x08, 0x14, 0x1f, 0x06, 0x0c, 0xf1, 0x13, 0xdf, 0xf8, 0xf8, 0xee, 0x15,
  0x13, 0x03, 0x15, 0xf4, 0x09, 0x17, 0xe1, 0x05, 0xea, 0xe0, 0x12, 0xed,
  0x0b, 0xe5, 0xfa, 0x22, 0x18, 0xee, 0x0b, 0x15, 0x16, 0xef, 0xe4, 0xff,
  0xe6, 0x1b, 0x07, 0x1a, 0x08, 0x09, 0xdd, 0xea, 0xe3, 0x20, 0xe3, 0x11,
  0x20, 0xe6, 0x1d, 0xfd, 0xe5, 0x15, 0x1c, 0xee, 0x22, 0x17, 0xe3, 0xf1,
  0x06, 0xe4, 0x18, 0x1c, 0x16, 0xe5, 0xf0, 0x17, 0x00, 0xeb, 0xdd, 0xf3,
  0x10, 0x06, 0xe8, 0xed, 0xf0, 0x1b, 0x14, 0x21, 0x23, 0xea, 0x00, 0x08,
  0xec, 0xf1, 0xed, 0x04, 0xfb, 0xde, 0x17, 0x07, 0xdb, 0x0c, 0xe7, 0x16,
  0xf7, 0x17, 0xe3, 0xde, 0x00, 0xe3, 0x24, 0xfb, 0x07, 0x03, 0xe7, 0xf9,
  0x12, 0xee, 0xf1, 0x08, 0x01, 0xfc, 0xeb, 0xf4, 0xe1, 0xf3, 0xe4, 0x03,
  0x06, 0x12, 0x06, 0xee, 0x1d, 0x01, 0x1f, 0x1f, 0xee, 0x22, 0xe5, 0xe3,
  0x16, 0x0c, 0xf6, 0x0a, 0x0f, 0xec, 0xf4, 0xec, 0x18, 0xfc, 0x1e, 0x15,
  0xdc, 0x19, 0xff, 0xe6, 0x09, 0x1c, 0x01, 0xe6, 0x0f, 0x01, 0x04, 0xda,
  0xfb, 0xe2, 0xda, 0xe3, 0x06, 0x04, 0x20, 0x1c, 0xfc, 0xee, 0x0b, 0x07,
  0xfd, 0x20, 0xe3, 0xec, 0xec, 0xdb, 0xdd, 0x1e, 0xf1, 0xf6, 0xde, 0xf1,
  0xdb, 0x15, 0xf8, 0x08, 0xff, 0xe5, 0x11, 0xe6, 0xe6, 0x0e, 0xf1, 0x02,
  0xf9, 0xdd, 0x16, 0xe4, 0xde, 0x0a, 0x21, 0x06, 0x05, 0x07, 0x10, 0x19,
  0xe5, 0xf3, 0x18, 0x0c, 0x21, 0xf2, 0xe6, 0x23, 0x1d, 0xe9, 0xfc, 0xe1,
  0xe5, 0x12, 0x01, 0xf9, 0xf6, 0x1a, 0xf5, 0xf6, 0xf0, 0xda, 0x04, 0xed,
  0xe5, 0x1a, 0xe2, 0xec, 0x00, 0x09, 0xf5, 0xf8, 0x15, 0xfe, 0x1b, 0x0d,
  0x0c, 0xea, 0x07, 0x08, 0xe6, 0xdf, 0xf2, 0xe3, 0x19, 0xeb, 0xf9, 0x21,
  0x03, 0x19, 0xf2, 0x15, 0xe4, 0x0d, 0xf2, 0x0d, 0xf6, 0xea, 0xfc, 0x08,
  0x0f, 0x22, 0xe9, 0x21, 0x17, 0xf2, 0x12, 0x01, 0x0d, 0xe8, 0xfc, 0xef,
  0x15, 0xfa, 0xf3, 0x0f, 0xe7, 0xe2, 0xde, 0x17, 0xe5, 0x10, 0x20, 0x1b,
  0x07, 0xe9, 0x1e, 0x0d, 0xdf, 0xf7, 0x1d, 0xf4, 0x21, 0xe6, 0xea, 0x0d,
  0x11, 0x01, 0xed, 0x1d, 0xf5, 0xf1, 0x00, 0x1b, 0x12, 0xf2, 0x0d, 0xfd,
  0x19, 0xe9, 0xfa, 0x19, 0x16, 0xff, 0xe7, 0xdf, 0x25, 0xf9, 0x04, 0xfc,
  0x1d, 0xe4, 0xfe, 0xfe, 0xe4, 0x1b, 0xe7, 0x46, 0x04, 0xe3, 0xf7, 0xf4,
  0xf3, 0x1c, 0xfe, 0xe4, 0x0a, 0x1d, 0xec, 0xe0, 0x48, 0x1d, 0xf1, 0x0d,
  0xfc, 0x05, 0x18, 0x1b, 0xe3, 0x17, 0xf8, 0x22, 0xfd, 0xf0, 0x17, 0xdc,
  0xef, 0x10, 0x0b, 0xe3, 0x11, 0xf9, 0xde, 0xf2, 0x0d, 0xfd, 0x19, 0x09,
  0x03, 0x0c, 0x21, 0x0c, 0xed, 0x01, 0x0b, 0x2a, 0x21, 0xe9, 0x17, 0xe5,
  0xed, 0x21, 0x05, 0xdd, 0x31, 0x1e, 0x08, 0x12, 0xf1, 0x10, 0xef, 0x1b,
  0x16, 0x24, 0x0d, 0x3a, 0x1c, 0x04, 0x19, 0x48, 0xf6, 0xeb, 0x2d, 0x03,
  0xf0, 0x06, 0x15, 0x19, 0x00, 0x01, 0x01, 0xf4, 0x70, 0x15, 0xf8, 0xdf,
  0xec, 0xf7, 0xfa, 0x16, 0xe8, 0x1b, 0xeb, 0xf6, 0x23, 0xfa, 0x2c, 0xfa,
  0xee, 0x5a, 0xe1, 0x0c, 0x1b, 0xf3, 0x04, 0x23, 0x31, 0x30, 0x0b, 0xfa,
  0x23, 0x0a, 0x08, 0x37, 0x1e, 0xdf, 0xf3, 0x43, 0x09, 0x1c, 0x10, 0xec,
  0xeb, 0xe8, 0xfc, 0x1f, 0x11, 0xda, 0x07, 0x01, 0x4d, 0x2b, 0x0b, 0x03,
  0xf6, 0xef, 0x15, 0xff, 0x24, 0xff, 0xe0, 0x19, 0xe6, 0x0f, 0xe4, 0xe7,
  0xdb, 0x3b, 0x16, 0x03, 0x0e, 0x1c, 0xfd, 0x2b, 0x02, 0xee, 0xe6, 0xe3,
  0x0d, 0x03, 0x12, 0x03, 0x23, 0x09, 0xdf, 0x33, 0xfd, 0xec, 0xea, 0xe5,
  0xe9, 0xbd, 0xf2, 0x0c, 0xf4, 0xed, 0x1a, 0x1f, 0x06, 0xe6, 0x14, 0x10,
  0xf5, 0xda, 0x0f, 0xc6, 0xf3, 0xf5, 0xe6, 0x09, 0x1b, 0x1e, 0xce, 0xdd,
  0xcc, 0xd7, 0xe0, 0xf9, 0x09, 0xf7, 0xfd, 0xe8, 0x04, 0x01, 0x09, 0xe2,
  0x15, 0x1c, 0x18, 0xda, 0x0b, 0xd8, 0x14, 0xeb, 0x21, 0xe7, 0xef, 0xeb,
  0xd6, 0x04, 0xfd, 0xe3, 0xf2, 0xd2, 0x14, 0xef, 0xfb, 0xe3, 0xf5, 0xf1,
  0xfa, 0x12, 0x11, 0xd2, 0xf8, 0xe9, 0xdf, 0x09, 0xd9, 0x16, 0x04, 0xea,
  0xf9, 0x19, 0x07, 0x0f, 0xdf, 0x04, 0x1a, 0x24, 0xf4, 0x13, 0x17, 0xf3,
  0xe8, 0x0f, 0xfb, 0xed, 0x12, 0xfa, 0x05, 0x03, 0xd7, 0x0f, 0x0b, 0xe3,
  0xc8, 0xde, 0xf9, 0xfc, 0xfa, 0x14, 0x18, 0xe1, 0xfa, 0xea, 0x07, 0xe4,
  0xe8, 0x0c, 0xdd, 0xf4, 0xe9, 0xe6, 0xef, 0xfc, 0xe2, 0xf2, 0xfb, 0xfc,
  0xdc, 0xe5, 0xdf, 0x16, 0x11, 0x13, 0x0e, 0xe1, 0xf1, 0x07, 0xf4, 0xea,
  0xf6, 0xdc, 0xed, 0xe2, 0xf3, 0xdc, 0x13, 0xee, 0x10, 0x0a, 0x09, 0xf8,
  0xd8, 0x01, 0xfd, 0xfb, 0xe8, 0xe5, 0xe7, 0xe9, 0x08, 0x21, 0xe3, 0x1d,
  0xf6, 0xf6, 0xea, 0x1b, 0x0c, 0xdd, 0xe7, 0xf5, 0x28, 0x1f, 0xf4, 0xde,
  0xf2, 0x25, 0xeb, 0xfb, 0x00, 0x00, 0xee, 0xfa, 0x23, 0x05, 0x0b, 0xdc,
  0xfa, 0x08, 0x04, 0xf0, 0x11, 0xdc, 0x0b, 0x02, 0xe0, 0x19, 0xe5, 0xfc,
  0xea, 0xd3, 0xe2, 0x18, 0xe5, 0x1c, 0x1b, 0x13, 0x21, 0x12, 0xe3, 0x13,
  0x05, 0x14, 0xe5, 0xf5, 0x23, 0x13, 0xfd, 0x24, 0x11, 0xe2, 0x13, 0x23,
  0xe9, 0x24, 0x04, 0x08, 0x00, 0x26, 0xe9, 0xf0, 0x5a, 0xf8, 0x0f, 0x13,
  0x0a, 0xf7, 0x0f, 0x31, 0xfd, 0xe1, 0xe3, 0x38, 0xef, 0x1b, 0x2e, 0x02,
  0xf6, 0xec, 0xdc, 0x08, 0x00, 0xf2, 0x09, 0x26, 0x48, 0x00, 0x24, 0x13,
  0x19, 0x16, 0xfd, 0xe3, 0x22, 0xe1, 0xe4, 0x24, 0xf1, 0x12, 0x15, 0x0f,
  0xda, 0x57, 0x0a, 0x15, 0x3f, 0x07, 0x07, 0x2d, 0x2d, 0x32, 0xf4, 0xf3,
  0xe8, 0xe3, 0x26, 0xf6, 0x26, 0x12, 0x20, 0x66, 0xf3, 0xdd, 0x2a, 0xfc,
  0x1d, 0x1a, 0xff, 0x0e, 0x2f, 0xfa, 0xf2, 0x1b, 0x3b, 0x18, 0x04, 0x01,
  0xe4, 0x02, 0xf2, 0x3f, 0x16, 0xfa, 0xe5, 0x1e, 0xee, 0xea, 0xe3, 0x26,
  0xf8, 0x01, 0xd9, 0x06, 0x25, 0xf2, 0x17, 0x0a, 0x23, 0x24, 0x23, 0x1f,
  0xf9, 0x19, 0xec, 0xf1, 0xe6, 0xf8, 0xf9, 0x11, 0x07, 0xe9, 0x06, 0x17,
  0xec, 0xed, 0x0b, 0x16, 0xf5, 0xe0, 0xe4, 0x22, 0x34, 0x32, 0x19, 0xff,
  0x19, 0x04, 0x05, 0xf9, 0x13, 0x21, 0x07, 0x31, 0xde, 0xf1, 0x00, 0xdf,
  0xd6, 0x26, 0xea, 0xfa, 0xfd, 0x09, 0x1d, 0xeb, 0x3b, 0xe1, 0xe9, 0x00,
  0x16, 0xf8, 0x08, 0xd9, 0x1d, 0x12, 0xf0, 0x30, 0x0b, 0xf6, 0x05, 0x06,
  0xf0, 0xf9, 0xe4, 0x04, 0xf7, 0x02, 0xea, 0x0b, 0x43, 0xf8, 0x2e, 0x20,
  0x1b, 0xe9, 0x03, 0x33, 0x14, 0x18, 0x17, 0x2d, 0x17, 0xe6, 0xfe, 0x17,
  0x10, 0x10, 0x20, 0xfa, 0xf0, 0x05, 0xed, 0x3b, 0x1e, 0x21, 0x26, 0x1f,
  0x07, 0x1b, 0xe1, 0xf4, 0x1a, 0x1d, 0xdf, 0x48, 0x08, 0xde, 0x0a, 0x03,
  0xf0, 0x28, 0xe3, 0xea, 0x0c, 0xf2, 0xf5, 0x21, 0x21, 0x0b, 0x25, 0x0a,
  0xe8, 0xf0, 0x07, 0x19, 0x0b, 0xf2, 0x1b, 0x2b, 0x14, 0xe6, 0xe2, 0xdb,
  0xd7, 0xe5, 0x19, 0x04, 0xdf, 0x09, 0xec, 0x22, 0x04, 0xfe, 0xe1, 0x17,
  0x0d, 0x17, 0xe5, 0xef, 0xec, 0xf7, 0xe0, 0xd5, 0x22, 0x0f, 0xed, 0xdd,
  0xe9, 0x18, 0x00, 0x06, 0x16, 0xee, 0x13, 0x12, 0x00, 0xe9, 0x07, 0x03,
  0x1b, 0xda, 0xed, 0xfb, 0x0c, 0xdd, 0x01, 0x13, 0xd2, 0x1c, 0xfa, 0xdd,
  0xf0, 0xe7, 0x20, 0x06, 0x13, 0x02, 0x17, 0x1b, 0xf3, 0x08, 0xea, 0xe1,
  0xe5, 0xd8, 0xf9, 0xeb, 0x13, 0xe9, 0x04, 0x17, 0xe2, 0xee, 0x0d, 0x1b,
  0xc7, 0x18, 0x01, 0xfd, 0x03, 0x0b, 0x1f, 0xff, 0x2c, 0x09, 0xfa, 0x08,
  0xf9, 0xeb, 0x1c, 0xd4, 0x1b, 0x07, 0x0d, 0x18, 0xf9, 0xeb, 0xd1, 0xf4,
  0xcf, 0x03, 0x16, 0x13, 0x03, 0xdc, 0x17, 0xea, 0x27, 0xfb, 0xf7, 0xfa,
  0xde, 0x0d, 0x09, 0x10, 0xfb, 0xe0, 0xdc, 0x2a, 0x03, 0x16, 0xf7, 0xeb,
  0xdb, 0x0e, 0x0f, 0x1e, 0x0e, 0xe5, 0xdb, 0x1b, 0x10, 0xe5, 0xdc, 0xeb,
  0xdf, 0xfb, 0x16, 0xf5, 0x0a, 0xe2, 0x08, 0xdf, 0x24, 0xe7, 0xe9, 0x1b,
  0xc8, 0x1b, 0x20, 0x22, 0xd7, 0xd3, 0x10, 0x11, 0x54, 0x06, 0x0f, 0xf7,
  0x04, 0xde, 0x03, 0x09, 0x2c, 0xe6, 0xda, 0x2f, 0xd8, 0xf5, 0xc7, 0x12,
  0xe1, 0xff, 0x02, 0x09, 0x24, 0xec, 0x00, 0x04, 0xf0, 0x10, 0x04, 0x05,
  0xfd, 0xd8, 0xf5, 0xfd, 0xf9, 0x0e, 0xda, 0x0f, 0xe6, 0x1e, 0xdd, 0x25,
  0xfd, 0x0a, 0xd9, 0xe4, 0x1f, 0x07, 0x14, 0x1e, 0x5b, 0x03, 0xf0, 0xfa,
  0xfa, 0x0e, 0x12, 0x23, 0xf8, 0x1c, 0x06, 0xe8, 0x10, 0xe6, 0xea, 0x11,
  0x0b, 0xef, 0xf6, 0xf5, 0x16, 0x22, 0xf7, 0xe8, 0x05, 0x36, 0xe0, 0xe0,
  0x08, 0x00, 0xfe, 0x0f, 0x01, 0xf3, 0x03, 0x26, 0x1f, 0x0b, 0x06, 0xfd,
  0xf9, 0x1c, 0xf0, 0xf2, 0x05, 0xec, 0x04, 0x0b, 0x38, 0x1a, 0x19, 0x03,
  0x05, 0x0d, 0x16, 0xfa, 0xef, 0x08, 0x14, 0x0a, 0x0b, 0x22, 0xfe, 0xfc,
  0xf5, 0x26, 0xee, 0x20, 0xe9, 0xf4, 0xfb, 0x05, 0x14, 0xf2, 0x14, 0xe0,
  0xde, 0x26, 0x22, 0x18, 0x1d, 0x1c, 0xe2, 0x29, 0x1d, 0xe6, 0x0d, 0x15,
  0xec, 0x0c, 0x1e, 0xf6, 0x08, 0x03, 0xf7, 0x1a, 0x24, 0xf0, 0x03, 0xee,
  0x0a, 0xff, 0x1e, 0x10, 0x01, 0x11, 0xfe, 0x13, 0xf3, 0x20, 0xe4, 0x1f,
  0x02, 0xf4, 0x08, 0xdf, 0xe0, 0x20, 0x1f, 0x2e, 0x20, 0x14, 0x08, 0x00,
  0xea, 0xe4, 0x21, 0x29, 0x1d, 0xe5, 0xdb, 0x0c, 0xf1, 0xf4, 0xfb, 0x08,
  0xfb, 0x08, 0x0b, 0x09, 0xe4, 0x08, 0xe5, 0x0b, 0x19, 0x0a, 0xe6, 0xe4,
  0x1d, 0xfe, 0xec, 0xe0, 0xf5, 0xf1, 0xf9, 0x13, 0xef, 0x09, 0xdd, 0xe1,
  0xf7, 0x1f, 0x03, 0x13, 0xe8, 0xf1, 0x0a, 0xde, 0x14, 0x0b, 0xed, 0x08,
  0xeb, 0x00, 0x11, 0xec, 0xf3, 0xff, 0xe8, 0x3d, 0xf2, 0xde, 0xdd, 0x0c,
  0xf4, 0x17, 0x0d, 0xec, 0x1c, 0x1a, 0xf0, 0xf8, 0x12, 0xec, 0x14, 0xfd,
  0xef, 0x1f, 0xfe, 0xfa, 0xea, 0xf7, 0x1a, 0x37, 0x05, 0xf9, 0x27, 0x11,
  0xf6, 0x4e, 0xf1, 0xf8, 0xfd, 0x05, 0x12, 0xe2, 0xe8, 0x0d, 0xde, 0xe1,
  0x21, 0xe4, 0xdd, 0xe2, 0x15, 0xe2, 0x09, 0x11, 0x1f, 0x11, 0x17, 0xd8,
  0x1f, 0x28, 0x10, 0xe0, 0x01, 0xf8, 0x19, 0x23, 0x15, 0xef, 0x0a, 0xf0,
  0x0a, 0x15, 0xe6, 0xfb, 0xee, 0xff, 0xef, 0xec, 0x19, 0xde, 0xe6, 0x01,
  0x21, 0x3c, 0x28, 0x1a, 0xd3, 0x11, 0xdf, 0x0d, 0x39, 0xe1, 0xf2, 0xe6,
  0xde, 0xdd, 0xe3, 0xe1, 0x11, 0xeb, 0x1d, 0x45, 0x08, 0x02, 0x0b, 0xed,
  0x0f, 0x08, 0xf0, 0x07, 0xec, 0xe2, 0xdc, 0xfc, 0x18, 0x1e, 0x18, 0xef,
  0x0d, 0x01, 0xf3, 0xfe, 0x08, 0x13, 0xf9, 0x41, 0x05, 0xfb, 0xe0, 0x12,
  0x21, 0x17, 0x19, 0x0a, 0xfa, 0x08, 0x13, 0x10, 0xd7, 0x07, 0x05, 0xe7,
  0x0c, 0xff, 0xdb, 0x16, 0x19, 0xf1, 0xfd, 0x32, 0x25, 0xf4, 0xfa, 0x0b,
  0x18, 0x21, 0xe6, 0xe8, 0xfc, 0xf9, 0x02, 0x00, 0x17, 0xfc, 0xed, 0xee,
  0x1f, 0x10, 0xf2, 0x23, 0xeb, 0x01, 0x10, 0x2a, 0x08, 0xfd, 0x1d, 0xde,
  0xf4, 0x0d, 0x20, 0xfd, 0xdb, 0xf2, 0xed, 0xe6, 0x04, 0xff, 0x13, 0xdd,
  0xf8, 0x04, 0x11, 0xea, 0x08, 0xfa, 0xe1, 0x0d, 0x16, 0xe4, 0xcf, 0x13,
  0x0f, 0x13, 0x1a, 0xe4, 0x1b, 0x10, 0x17, 0x0a, 0x20, 0xeb, 0xe7, 0xfa,
  0x02, 0xf3, 0x0f, 0x11, 0xeb, 0xe9, 0xe0, 0x09, 0x14, 0xec, 0x0e, 0x13,
  0xf2, 0x03, 0x1e, 0xfc, 0xf6, 0xf0, 0xfe, 0x02, 0xfc, 0xe3, 0x1d, 0x1c,
  0xe5, 0xf8, 0x13, 0x14, 0xee, 0x11, 0x0c, 0x3a, 0xea, 0xf3, 0xe7, 0x14,
  0xf7, 0xfc, 0x24, 0x09, 0xe3, 0xfc, 0x03, 0xf1, 0x18, 0xdf, 0xe6, 0xe7,
  0x16, 0xf1, 0x02, 0x21, 0x15, 0x14, 0x09, 0x21, 0xf3, 0x16, 0x1d, 0xde,
  0x0f, 0xed, 0xef, 0x10, 0x24, 0xf2, 0xdb, 0xe7, 0x15, 0x06, 0x0a, 0x09,
  0xe4, 0x19, 0xe8, 0xe8, 0x0b, 0x15, 0x0e, 0x29, 0x03, 0xff, 0xf1, 0x23,
  0x0b, 0x03, 0xd8, 0xf2, 0x24, 0x0a, 0xeb, 0x0d, 0x1e, 0xe3, 0xda, 0x1a,
  0x23, 0x12, 0x0d, 0xf0, 0xe0, 0xfc, 0xf8, 0x31, 0x13, 0x20, 0x11, 0x23,
  0x17, 0xf3, 0x23, 0x1a, 0x13, 0xe6, 0xff, 0x09, 0x18, 0xed, 0xdd, 0x0b,
  0x08, 0x20, 0x0c, 0xee, 0xf9, 0x1d, 0x0c, 0x11, 0x28, 0xe2, 0x03, 0x0f,
  0xfc, 0x21, 0xf8, 0xfa, 0xf2, 0x03, 0x09, 0x1a, 0x0e, 0x0f, 0xe2, 0x0f,
  0x0d, 0xe8, 0xeb, 0x0e, 0x08, 0x10, 0x10, 0x6c, 0x21, 0x0c, 0x24, 0x01,
  0x14, 0x20, 0xe3, 0xec, 0xff, 0xf0, 0x10, 0x15, 0xf4, 0x0f, 0xe6, 0xef,
  0xe8, 0xe4, 0x08, 0x1b, 0x1a, 0xf3, 0xef, 0x35, 0xec, 0xfd, 0xe1, 0xf9,
  0xfe, 0x26, 0x14, 0x21, 0x19, 0xeb, 0xfb, 0xee, 0x28, 0xe4, 0x08, 0xe2,
  0x15, 0xe1, 0xef, 0x10, 0xde, 0xe9, 0x1d, 0x04, 0xf4, 0x18, 0xe0, 0x1d,
  0xe6, 0x3a, 0x00, 0xfa, 0x0a, 0x19, 0x0a, 0x03, 0x45, 0x06, 0x20, 0x14,
  0xe2, 0x00, 0xed, 0x15, 0x05, 0xf6, 0xed, 0x69, 0xfb, 0x14, 0xf9, 0x15,
  0xdc, 0x09, 0x1a, 0x1d, 0xe8, 0x11, 0xfb, 0xe9, 0x11, 0x09, 0x0c, 0xdf,
  0x04, 0xef, 0x07, 0xe8, 0x01, 0xfb, 0xdb, 0x58, 0x03, 0x18, 0x02, 0x17,
  0x10, 0x2d, 0xe8, 0xf1, 0xf9, 0x12, 0xf1, 0x19, 0x33, 0xfa, 0x09, 0x06,
  0xdc, 0xf8, 0x16, 0xec, 0x08, 0xf7, 0xfa, 0x41, 0xf8, 0xff, 0x14, 0x03,
  0xf6, 0x19, 0xe7, 0xe6, 0xf3, 0x17, 0xe4, 0x1d, 0x1f, 0xed, 0xec, 0xef,
  0x1f, 0x10, 0xe7, 0x29, 0x20, 0x21, 0xdc, 0x4a, 0x05, 0x07, 0x1e, 0xe8,
  0x07, 0x03, 0x12, 0xe8, 0xfc, 0x0e, 0x21, 0x28, 0x1f, 0xf3, 0xfc, 0x1c,
  0xe2, 0xde, 0x0f, 0xf3, 0x0c, 0xe6, 0xec, 0x6a, 0x14, 0xed, 0xea, 0xed,
  0xf1, 0xf2, 0x10, 0xf8, 0x02, 0x0b, 0xfa, 0x08, 0x2e, 0x10, 0x1b, 0xea,
  0x12, 0x16, 0x0b, 0x1e, 0xe9, 0x0a, 0xdb, 0x4d, 0xf5, 0xf5, 0xf7, 0xdd,
  0xe2, 0x06, 0x02, 0x14, 0xee, 0xdf, 0xdc, 0xf5, 0x13, 0x15, 0xf4, 0xff,
  0x1a, 0x15, 0xe4, 0x07, 0xf7, 0xe5, 0x18, 0x3f, 0xf7, 0x0b, 0xf5, 0xef,
  0x21, 0x02, 0xec, 0x0b, 0x05, 0x0b, 0xfa, 0x01, 0x0f, 0xe5, 0x0e, 0xdb,
  0xdc, 0xec, 0x0c, 0x0d, 0xf6, 0x19, 0xf1, 0x5a, 0x14, 0x02, 0xdb, 0xe6,
  0x1f, 0xd4, 0xfd, 0x17, 0xf1, 0x0a, 0xf6, 0xf9, 0x04, 0x0c, 0xe2, 0x1a,
  0xfa, 0x1b, 0x03, 0xf3, 0xdb, 0xf4, 0xef, 0x28, 0xeb, 0xeb, 0x10, 0xf1,
  0xe6, 0x00, 0x03, 0x08, 0xdf, 0x1a, 0xfd, 0xf8, 0x07, 0xe5, 0xef, 0x0c,
  0xfb, 0x15, 0xe1, 0x07, 0xe8, 0xd9, 0x13, 0x4f, 0xfe, 0xe0, 0x0d, 0x0b,
  0x3b, 0x17, 0x1e, 0x06, 0x27, 0xf1, 0xe7, 0x28, 0x5d, 0x14, 0xdd, 0x0d,
  0x14, 0x07, 0x1a, 0xf4, 0x21, 0x20, 0x09, 0x34, 0xe7, 0xe4, 0x20, 0x11,
  0xed, 0x3b, 0x17, 0xe8, 0x0e, 0x18, 0xe5, 0xfc, 0x3d, 0x28, 0xe0, 0xe9,
  0x1d, 0x20, 0x0d, 0xe5, 0x0c, 0xf5, 0x14, 0x2d, 0xf8, 0xe4, 0x18, 0xe2,
  0xf3, 0x16, 0x25, 0xe5, 0x1b, 0xe5, 0x1a, 0x1d, 0x29, 0x11, 0xe4, 0x06,
  0x0e, 0x01, 0xf1, 0x02, 0xec, 0x16, 0x05, 0x3c, 0x12, 0xfe, 0x02, 0xf9,
  0x0d, 0x22, 0xf0, 0x04, 0x0e, 0x1b, 0xdf, 0x2b, 0x2d, 0x16, 0xe3, 0x11,
  0xff, 0xee, 0x1f, 0x12, 0x12, 0xef, 0x1b, 0x34, 0x0f, 0x22, 0x19, 0xf8,
  0xff, 0xfc, 0xfe, 0x13, 0xf2, 0xe7, 0x15, 0xde, 0x5e, 0x18, 0xfc, 0x11,
  0xf7, 0x15, 0xe7, 0xf4, 0x15, 0x0c, 0xf0, 0x5d, 0xcf, 0x21, 0xed, 0x06,
  0xe5, 0xf7, 0x0c, 0xe9, 0x00, 0x0d, 0x0b, 0xe9, 0x00, 0xef, 0xe0, 0x07,
  0x04, 0x02, 0xef, 0xe0, 0xfd, 0x0f, 0x04, 0x1d, 0xf4, 0xf6, 0x0a, 0xe3,
  0x15, 0x25, 0x06, 0x13, 0xf0, 0x21, 0xe3, 0xdc, 0x30, 0xf9, 0xe5, 0x1f,
  0x06, 0x0d, 0x06, 0x17, 0xdd, 0x0e, 0xe1, 0x5c, 0x14, 0x20, 0x16, 0x15,
  0xd6, 0x20, 0x1e, 0xe8, 0x1b, 0xfa, 0x1f, 0xfc, 0xfc, 0xe8, 0xfc, 0xe1,
  0xe7, 0xde, 0x05, 0x16, 0xf7, 0x1b, 0x1a, 0x52, 0x29, 0x10, 0x06, 0xed,
  0xf0, 0x01, 0xe2, 0x21, 0xe3, 0x16, 0xfd, 0x1b, 0x23, 0x0d, 0x15, 0x11,
  0x0c, 0x1c, 0x20, 0xeb, 0xf2, 0x04, 0xfc, 0x21, 0x0f, 0xf4, 0xef, 0xfd,
  0x10, 0x2d, 0xe4, 0xf5, 0x11, 0xf1, 0x0f, 0xf6, 0x09, 0xf5, 0x12, 0x04,
  0xf7, 0xfe, 0xe6, 0x0d, 0x08, 0x01, 0xdc, 0x37, 0x27, 0x1d, 0x02, 0x13,
  0xe7, 0xf2, 0xe4, 0xe4, 0x1a, 0xdf, 0x02, 0xfb, 0x4d, 0x0f, 0xe6, 0x1b,
  0x11, 0x0a, 0xe0, 0x20, 0x19, 0x0f, 0x06, 0x47, 0xec, 0x1c, 0x1e, 0xe0,
  0xf2, 0xe6, 0x09, 0x1c, 0xe9, 0xea, 0xf3, 0xe3, 0x0c, 0xe6, 0x0f, 0xf8,
  0xe9, 0xe8, 0xfa, 0xf5, 0x1a, 0xfb, 0x0c, 0xfe, 0xe0, 0xd9, 0x07, 0xf7,
  0xe9, 0xe6, 0x15, 0xf3, 0xfb, 0x00, 0xf9, 0x10, 0x13, 0xdc, 0xf9, 0xf3,
  0x0a, 0x0e, 0x12, 0x10, 0xfe, 0x1a, 0x02, 0x08, 0xe2, 0x00, 0x00, 0xfa,
  0xe7, 0xf7, 0x05, 0xf7, 0x16, 0x08, 0xdf, 0x18, 0x0f, 0x10, 0x1b, 0xef,
  0x20, 0x00, 0xee, 0x2b, 0x10, 0x08, 0x18, 0xe6, 0xf5, 0x1f, 0xde, 0x1d,
  0x0f, 0xf7, 0x1e, 0xd9, 0xe6, 0xe7, 0x1d, 0x04, 0xf9, 0x17, 0xdb, 0xf3,
  0x11, 0x1d, 0xfd, 0xe2, 0xe0, 0x16, 0xe6, 0x06, 0xee, 0xe0, 0xd8, 0xe4,
  0x13, 0x10, 0xe1, 0xfc, 0x1c, 0x20, 0xed, 0x22, 0x1b, 0xee, 0xf6, 0x02,
  0xe4, 0xdf, 0x17, 0x1d, 0x0e, 0xf3, 0xf2, 0x0a, 0x1f, 0xf5, 0xee, 0x1d,
  0x0d, 0xdc, 0x11, 0xe0, 0xe9, 0x08, 0xe1, 0xe2, 0xf5, 0xee, 0xe7, 0xd6,
  0x1a, 0xec, 0x14, 0x15, 0xe2, 0xf3, 0xd9, 0xf7, 0x04, 0x0b, 0xf0, 0xe4,
  0xe5, 0xe3, 0x12, 0xe0, 0x19, 0x09, 0xea, 0x15, 0x15, 0x06, 0xe6, 0xe4,
  0x12, 0x10, 0xed, 0x01, 0x12, 0x0b, 0x0e, 0x29, 0xf8, 0x0c, 0x19, 0xd8,
  0xf1, 0xfa, 0x20, 0xe8, 0x19, 0x15, 0x0f, 0xed, 0x0f, 0x0e, 0x08, 0xf9,
  0x19, 0xda, 0x13, 0x14, 0xf9, 0xf9, 0xdf, 0x22, 0x28, 0x13, 0xd5, 0xfd,
  0x0b, 0xe3, 0xf8, 0xf2, 0x01, 0xe7, 0xf0, 0xf4, 0x10, 0xf3, 0xf0, 0x20,
  0xe5, 0x17, 0xf9, 0x0c, 0xfc, 0xf2, 0xf2, 0xeb, 0x19, 0x15, 0x07, 0x12,
  0xe9, 0x0c, 0xe4, 0x02, 0x06, 0x1c, 0x2a, 0xe1, 0x17, 0xfe, 0x22, 0xfb,
  0xdc, 0x0d, 0x1d, 0xf7, 0xed, 0xe5, 0xe0, 0x17, 0xeb, 0x1b, 0xd6, 0x19,
  0xfc, 0xf5, 0x06, 0xfa, 0xed, 0xde, 0x01, 0xf5, 0x12, 0xf9, 0x0b, 0xf3,
  0xf6, 0xec, 0x14, 0x18, 0x1a, 0xed, 0x22, 0x02, 0xf8, 0x11, 0x17, 0x21,
  0xdd, 0x26, 0x18, 0x0b, 0xea, 0xf5, 0xdf, 0x12, 0xe2, 0x19, 0xec, 0xdc,
  0xdb, 0xf1, 0x0e, 0x0a, 0xf1, 0xf4, 0xe7, 0xfc, 0x1a, 0xfd, 0xe1, 0x10,
  0x0f, 0x18, 0xf3, 0xfd, 0xeb, 0xe0, 0x09, 0x08, 0x28, 0x03, 0xe6, 0xe1,
  0xdc, 0xe1, 0xff, 0x01, 0x25, 0x10, 0xdb, 0x12, 0x19, 0x1d, 0xf7, 0x16,
  0xec, 0xea, 0x11, 0xe8, 0xdf, 0xfa, 0x1a, 0xe7, 0xe7, 0x13, 0x1e, 0xe3,
  0x17, 0x13, 0xe3, 0x0e, 0xf1, 0x00, 0xf1, 0xf3, 0x03, 0xfd, 0x04, 0x0a,
  0x01, 0xef, 0xda, 0xf0, 0xf8, 0x10, 0x0b, 0xeb, 0x13, 0xf4, 0xef, 0xfe,
  0x1c, 0x1b, 0x17, 0xdf, 0xf9, 0xe9, 0xf9, 0x21, 0xf2, 0xfb, 0xfd, 0xda,
  0xfa, 0xf0, 0x1e, 0xf6, 0xf9, 0xf5, 0x03, 0xe1, 0xfa, 0xe4, 0xe2, 0xf6,
  0x0a, 0x10, 0xfe, 0xfc, 0x03, 0xdf, 0xf3, 0xff, 0x17, 0x04, 0xde, 0xe3,
  0xf1, 0xfa, 0x03, 0x02, 0xe6, 0xfd, 0xde, 0x03, 0xef, 0x09, 0xf8, 0x18,
  0xd8, 0x04, 0xf0, 0x05, 0xe3, 0xdc, 0xf3, 0x20, 0x01, 0x03, 0xf1, 0xe8,
  0x1f, 0x17, 0x14, 0x0e, 0x12, 0x02, 0xf2, 0xdc, 0x26, 0x10, 0x1c, 0xfd,
  0xed, 0x03, 0xde, 0xf7, 0xe7, 0xeb, 0xe7, 0xf4, 0x13, 0x16, 0xeb, 0xe6,
  0xed, 0xfa, 0x03, 0x20, 0x0c, 0xf0, 0xf9, 0xf1, 0xf3, 0x05, 0xf1, 0x17,
  0x05, 0x12, 0x1e, 0xfa, 0x21, 0x1b, 0x07, 0x1f, 0x12, 0x1b, 0xf4, 0xe3,
  0xdc, 0x0f, 0x0f, 0xea, 0x11, 0x06, 0x11, 0xed, 0x1a, 0xe4, 0xda, 0x13,
  0xdd, 0x12, 0x0d, 0x09, 0x1a, 0xe3, 0xf9, 0xfd, 0xef, 0xf7, 0xec, 0x11,
  0xe3, 0x05, 0xde, 0xe9, 0x15, 0xe9, 0x01, 0xe6, 0x00, 0xf4, 0xfa, 0xdf,
  0xe7, 0x1d, 0x08, 0x0b, 0xfa, 0xf9, 0x1b, 0xf5, 0x11, 0xe5, 0xe3, 0xe5,
  0xe6, 0xdd, 0x14, 0xf6, 0xee, 0xea, 0xfa, 0x0e, 0x0f, 0x09, 0xe1, 0x1a,
  0xfb, 0xdb, 0x18, 0xde, 0x23, 0xea, 0x10, 0xfd, 0xee, 0xe6, 0x0e, 0xf2,
  0x07, 0x25, 0xf4, 0xdc, 0xfd, 0x14, 0xf2, 0x01, 0xf6, 0x02, 0x1f, 0x08,
  0xfb, 0x00, 0xeb, 0x0d, 0xef, 0xf0, 0xff, 0x1a, 0x2e, 0x09, 0xe6, 0xd8,
  0xf5, 0x15, 0xfc, 0x0d, 0xf3, 0x07, 0xf0, 0xfa, 0x0a, 0xf6, 0xfb, 0x04,
  0xe7, 0x0c, 0x00, 0x02, 0x0f, 0x17, 0x20, 0xe5, 0xf6, 0xf2, 0xde, 0x10,
  0xef, 0xfd, 0xf0, 0x05, 0xec, 0xe6, 0xde, 0x1b, 0xee, 0x0b, 0x12, 0xd9,
  0xf8, 0x0d, 0xdb, 0xeb, 0x00, 0x13, 0xf5, 0x20, 0x04, 0xe7, 0xf8, 0xe1,
  0xe1, 0xfc, 0x15, 0xff, 0xd9, 0xf7, 0xf0, 0x05, 0x27, 0x16, 0xe6, 0x00,
  0xda, 0xfc, 0x0b, 0xfa, 0x22, 0xd9, 0xf5, 0x1a, 0xef, 0x1f, 0x1c, 0xde,
  0xf8, 0x24, 0x07, 0x11, 0x09, 0x09, 0xf1, 0x22, 0x0e, 0xea, 0xeb, 0xfb,
  0xef, 0xf2, 0x00, 0xf7, 0xf8, 0x1f, 0x0c, 0x24, 0x16, 0xe2, 0xfa, 0x19,
  0xf6, 0xea, 0xf9, 0x10, 0xf3, 0xe7, 0x05, 0xe5, 0x03, 0xea, 0xea, 0x0b,
  0xfa, 0xee, 0xf7, 0x31, 0xf1, 0x18, 0x00, 0xee, 0x1f, 0xe0, 0xe9, 0xe4,
  0x04, 0x04, 0x01, 0xdb, 0x07, 0xfe, 0xfe, 0xe6, 0x13, 0xe4, 0xef, 0xf5,
  0x00, 0x09, 0x17, 0x07, 0xf8, 0xdc, 0xe3, 0x0a, 0xfb, 0x0f, 0xe1, 0xdf,
  0xf1, 0xfe, 0x00, 0x09, 0xd9, 0xdd, 0x05, 0x06, 0x2e, 0xd7, 0x1e, 0xf2,
  0x11, 0x15, 0x1d, 0x25, 0xf2, 0x04, 0xf7, 0xfc, 0xfe, 0x14, 0xda, 0xe0,
  0xd8, 0x07, 0xeb, 0xf3, 0x1c, 0xf0, 0x0f, 0x1b, 0x06, 0x12, 0x04, 0xda,
  0xe1, 0x18, 0x0b, 0x0a, 0xeb, 0xfc, 0xfc, 0xf6, 0xff, 0xea, 0xec, 0x19,
  0xf4, 0xdf, 0xf2, 0x0c, 0xfb, 0x1e, 0xde, 0x14, 0xf8, 0x09, 0x22, 0xfa,
  0xe9, 0xf0, 0xec, 0x07, 0xe4, 0x1b, 0x1b, 0xde, 0xe4, 0xda, 0xfc, 0xf0,
  0x1e, 0xeb, 0xfc, 0xfa, 0x0e, 0xe7, 0xfa, 0x18, 0x19, 0xdb, 0x14, 0x0d,
  0xe4, 0xfe, 0x1c, 0x1a, 0xdf, 0x0a, 0x1c, 0x14, 0xee, 0x19, 0x08, 0x22,
  0x1f, 0x20, 0x0b, 0xfd, 0x12, 0x06, 0xe9, 0xe9, 0x09, 0x0f, 0xf1, 0xf0,
  0x16, 0x07, 0xeb, 0x24, 0xe7, 0xf9, 0x19, 0xff, 0xe6, 0x1d, 0xf8, 0xf8,
  0x13, 0x1c, 0x12, 0xee, 0xe1, 0x00, 0x20, 0xed, 0xfd, 0x13, 0xfe, 0x18,
  0x0f, 0x16, 0xe6, 0x03, 0xf5, 0x0c, 0xe1, 0xee, 0xee, 0xf9, 0x02, 0x00,
  0xfb, 0x27, 0x24, 0xde, 0x14, 0x0b, 0xf5, 0x08, 0x1d, 0xd8, 0xee, 0xee,
  0xd7, 0x16, 0x08, 0x00, 0x1d, 0xfb, 0xfa, 0xe7, 0xfb, 0xfb, 0xf4, 0x07,
  0xeb, 0x06, 0xf8, 0x00, 0xff, 0x01, 0x1c, 0x0e, 0x03, 0x0e, 0xea, 0xd4,
  0x05, 0xfc, 0x20, 0xf8, 0x08, 0x1f, 0xe8, 0xf1, 0xe7, 0xfd, 0x16, 0xe2,
  0xff, 0x16, 0x00, 0xfa, 0x1a, 0xf8, 0x01, 0x07, 0x27, 0x14, 0xef, 0xfd,
  0xd6, 0xf9, 0x06, 0xea, 0x22, 0xf9, 0x04, 0xd9, 0xdb, 0x21, 0xf3, 0xdf,
  0x14, 0x11, 0x1f, 0xee, 0x0a, 0xf0, 0xe6, 0x1b, 0xdc, 0x09, 0x12, 0xff,
  0xe3, 0x0e, 0x05, 0x26, 0xfa, 0xfd, 0xed, 0xdb, 0x02, 0xf8, 0xed, 0x01,
  0xf0, 0xf9, 0x00, 0x1f, 0xe4, 0x16, 0x08, 0x0c, 0x0a, 0x10, 0x07, 0xf9,
  0xf3, 0xf8, 0x03, 0xf1, 0x11, 0xfe, 0x17, 0xf9, 0x1e, 0x1e, 0xde, 0xe4,
  0x0b, 0x14, 0x15, 0xfc, 0xea, 0x10, 0x07, 0xe7, 0xe3, 0xf4, 0xf5, 0xf2,
  0xdc, 0x06, 0xe2, 0xff, 0x09, 0xfc, 0xfb, 0x3d, 0xf6, 0xf3, 0x13, 0x01,
  0xd9, 0x16, 0x18, 0xe8, 0x08, 0xf5, 0x1e, 0xfb, 0x15, 0x02, 0x16, 0x08,
  0xdc, 0x21, 0x1e, 0x15, 0xfa, 0xef, 0x18, 0x2c, 0x11, 0x08, 0xe3, 0x08,
  0x00, 0x00, 0x00, 0x00, 0x1e, 0xfe, 0xff, 0xff, 0x04, 0x00, 0x00, 0x00,
  0x08, 0x00, 0x00, 0x00, 0xff, 0xff, 0xff, 0xff, 0xd8, 0x03, 0x00, 0x00,
  0x00, 0x00, 0x00, 0x00, 0x00, 0x00, 0x00, 0x00, 0x00, 0x00, 0x00, 0x00,
  0x3e, 0xfe, 0xff, 0xff, 0x04, 0x00, 0x00, 0x00, 0x08, 0x00, 0x00, 0x00,
  0x47, 0xfe, 0xff, 0xff, 0xb9, 0x01, 0x00, 0x00, 0x00, 0x00, 0x00, 0x00,
  0x00, 0x00, 0x00, 0x00, 0x00, 0x00, 0x00, 0x00, 0x5e, 0xfe, 0xff, 0xff,
  0x04, 0x00, 0x00, 0x00, 0x20, 0x00, 0x00, 0x00, 0xd3, 0xff, 0xff, 0xff,
  0x49, 0x00, 0x00, 0x00, 0xf4, 0x00, 0x00, 0x00, 0xf1, 0xff, 0xff, 0xff,
  0xf4, 0xff, 0xff, 0xff, 0x44, 0x00, 0x00, 0x00, 0x02, 0x00, 0x00, 0x00,
  0xde, 0xff, 0xff, 0xff, 0x00, 0x00, 0x00, 0x00, 0x8e, 0xfe, 0xff, 0xff,
  0x04, 0x00, 0x00, 0x00, 0x60, 0x00, 0x00, 0x00, 0xd8, 0xff, 0xff, 0xff,
  0x66, 0x00, 0x00, 0x00, 0xeb, 0xff, 0xff, 0xff, 0xfd, 0xff, 0xff, 0xff,
  0x4d, 0x00, 0x00, 0x00, 0xc2, 0xff, 0xff, 0xff, 0xd3, 0xff, 0xff, 0xff,
  0xee, 0xff, 0xff, 0xff, 0x50, 0x00, 0x00, 0x00, 0x24, 0x00, 0x00, 0x00,
  0x1e, 0x00, 0x00, 0x00, 0xa9, 0xff, 0xff, 0xff, 0xfc, 0xff, 0xff, 0xff,
  0x7b, 0xff, 0xff, 0xff, 0xe1, 0xff, 0xff, 0xff, 0x1b, 0x00, 0x00, 0x00,
  0xf4, 0xff, 0xff, 0xff, 0x76, 0xff, 0xff, 0xff, 0x97, 0xff, 0xff, 0xff,
  0x37, 0x00, 0x00, 0x00, 0xed, 0xff, 0xff, 0xff, 0x9d, 0xff, 0xff, 0xff,
  0x9b, 0xff, 0xff, 0xff, 0xd2, 0xff, 0xff, 0xff, 0x00, 0x00, 0x00, 0x00,
  0xfe, 0xfe, 0xff, 0xff, 0x04, 0x00, 0x00, 0x00, 0x40, 0x00, 0x00, 0x00,
  0xe1, 0xff, 0xff, 0xff, 0xe5, 0xff, 0xff, 0xff, 0xfc, 0xff, 0xff, 0xff,
  0xd5, 0xff, 0xff, 0xff, 0xea, 0xff, 0xff, 0xff, 0xef, 0xff, 0xff, 0xff,
  0xee, 0xff, 0xff, 0xff, 0xf2, 0xff, 0xff, 0xff, 0x05, 0x00, 0x00, 0x00,
  0x20, 0x00, 0x00, 0x00, 0xec, 0xff, 0xff, 0xff, 0xf0, 0xff, 0xff, 0xff,
  0xed, 0xff, 0xff, 0xff, 0xf6, 0xff, 0xff, 0xff, 0xee, 0xff, 0xff, 0xff,
  0xed, 0xff, 0xff, 0xff, 0x00, 0x00, 0x00, 0x00, 0x00, 0x00, 0x00, 0x00,
  0x00, 0x00, 0x00, 0x00, 0x64, 0xf2, 0xff, 0xff, 0x00, 0x00, 0x00, 0x00,
  0x00, 0x00, 0x00, 0x00, 0x00, 0x00, 0x00, 0x00, 0x74, 0xf2, 0xff, 0xff,
  0x00, 0x00, 0x00, 0x00, 0x00, 0x00, 0x00, 0x00, 0x0f, 0x00, 0x00, 0x00,
  0x4d, 0x4c, 0x49, 0x52, 0x20, 0x43, 0x6f, 0x6e, 0x76, 0x65, 0x72, 0x74,
  0x65, 0x64, 0x2e, 0x00, 0x01, 0x00, 0x00, 0x00, 0x14, 0x00, 0x00, 0x00,
  0x00, 0x00, 0x0e, 0x00, 0x18, 0x00, 0x04, 0x00, 0x08, 0x00, 0x0c, 0x00,
  0x10, 0x00, 0x14, 0x00, 0x0e, 0x00, 0x00, 0x00, 0x74, 0x02, 0x00, 0x00,
  0x68, 0x02, 0x00, 0x00, 0x5c, 0x02, 0x00, 0x00, 0x14, 0x00, 0x00, 0x00,
  0x04, 0x00, 0x00, 0x00, 0x04, 0x00, 0x00, 0x00, 0x6d, 0x61, 0x69, 0x6e,
  0x00, 0x00, 0x00, 0x00, 0x08, 0x00, 0x00, 0x00, 0xf8, 0x01, 0x00, 0x00,
  0x94, 0x01, 0x00, 0x00, 0x44, 0x01, 0x00, 0x00, 0x00, 0x01, 0x00, 0x00,
  0xc8, 0x00, 0x00, 0x00, 0x78, 0x00, 0x00, 0x00, 0x40, 0x00, 0x00, 0x00,
  0x04, 0x00, 0x00, 0x00, 0x96, 0xfe, 0xff, 0xff, 0x00, 0x00, 0x00, 0x09,
  0x04, 0x00, 0x00, 0x00, 0x24, 0x00, 0x00, 0x00, 0x18, 0x00, 0x00, 0x00,
  0x0c, 0x00, 0x00, 0x00, 0x00, 0x00, 0x06, 0x00, 0x08, 0x00, 0x04, 0x00,
  0x06, 0x00, 0x00, 0x00, 0x00, 0x00, 0x80, 0x3f, 0x01, 0x00, 0x00, 0x00,
  0x11, 0x00, 0x00, 0x00, 0x01, 0x00, 0x00, 0x00, 0x10, 0x00, 0x00, 0x00,
  0x5a, 0xff, 0xff, 0xff, 0x00, 0x00, 0x00, 0x08, 0x03, 0x00, 0x00, 0x00,
  0x18, 0x00, 0x00, 0x00, 0x0c, 0x00, 0x00, 0x00, 0x04, 0x00, 0x00, 0x00,
  0x44, 0xf3, 0xff, 0xff, 0x01, 0x00, 0x00, 0x00, 0x10, 0x00, 0x00, 0x00,
  0x03, 0x00, 0x00, 0x00, 0x0f, 0x00, 0x00, 0x00, 0x07, 0x00, 0x00, 0x00,
  0x04, 0x00, 0x00, 0x00, 0x02, 0xff, 0xff, 0xff, 0x00, 0x00, 0x00, 0x08,
  0x03, 0x00, 0x00, 0x00, 0x24, 0x00, 0x00, 0x00, 0x18, 0x00, 0x00, 0x00,
  0x0c, 0x00, 0x00, 0x00, 0x00, 0x00, 0x06, 0x00, 0x08, 0x00, 0x07, 0x00,
  0x06, 0x00, 0x00, 0x00, 0x00, 0x00, 0x00, 0x01, 0x01, 0x00, 0x00, 0x00,
  0x0f, 0x00, 0x00, 0x00, 0x03, 0x00, 0x00, 0x00, 0x0e, 0x00, 0x00, 0x00,
  0x06, 0x00, 0x00, 0x00, 0x03, 0x00, 0x00, 0x00, 0x00, 0x00, 0x0a, 0x00,
  0x10, 0x00, 0x04, 0x00, 0x08, 0x00, 0x0c, 0x00, 0x0a, 0x00, 0x00, 0x00,
  0x02, 0x00, 0x00, 0x00, 0x10, 0x00, 0x00, 0x00, 0x04, 0x00, 0x00, 0x00,
  0x01, 0x00, 0x00, 0x00, 0x0e, 0x00, 0x00, 0x00, 0x02, 0x00, 0x00, 0x00,
  0x0d, 0x00, 0x00, 0x00, 0x05, 0x00, 0x00, 0x00, 0x00, 0x00, 0x0e, 0x00,
  0x18, 0x00, 0x08, 0x00, 0x0c, 0x00, 0x10, 0x00, 0x07, 0x00, 0x14, 0x00,
  0x0e, 0x00, 0x00, 0x00, 0x00, 0x00, 0x00, 0x05, 0x01, 0x00, 0x00, 0x00,
  0x2c, 0x00, 0x00, 0x00, 0x20, 0x00, 0x00, 0x00, 0x04, 0x00, 0x00, 0x00,
  0x72, 0xff, 0xff, 0xff, 0x00, 0x00, 0x00, 0x01, 0x01, 0x00, 0x00, 0x00,
  0x03, 0x00, 0x00, 0x00, 0x01, 0x00, 0x00, 0x00, 0x03, 0x00, 0x00, 0x00,
  0x01, 0x00, 0x00, 0x00, 0x0d, 0x00, 0x00, 0x00, 0x01, 0x00, 0x00, 0x00,
  0x0c, 0x00, 0x00, 0x00, 0x62, 0xff, 0xff, 0xff, 0x00, 0x00, 0x00, 0x01,
  0x24, 0x00, 0x00, 0x00, 0x18, 0x00, 0x00, 0x00, 0x04, 0x00, 0x00, 0x00,
  0x54, 0xff, 0xff, 0xff, 0x00, 0x00, 0x00, 0x01, 0x01, 0x00, 0x00, 0x00,
  0x01, 0x00, 0x00, 0x00, 0x01, 0x00, 0x00, 0x00, 0x0c, 0x00, 0x00, 0x00,
  0x03, 0x00, 0x00, 0x00, 0x0b, 0x00, 0x00, 0x00, 0x09, 0x00, 0x00, 0x00,
  0x02, 0x00, 0x00, 0x00, 0x00, 0x00, 0x0e, 0x00, 0x1a, 0x00, 0x08, 0x00,
  0x0c, 0x00, 0x10, 0x00, 0x07, 0x00, 0x14, 0x00, 0x0e, 0x00, 0x00, 0x00,
  0x00, 0x00, 0x00, 0x05, 0x01, 0x00, 0x00, 0x00, 0x3c, 0x00, 0x00, 0x00,
  0x30, 0x00, 0x00, 0x00, 0x14, 0x00, 0x00, 0x00, 0x00, 0x00, 0x0e, 0x00,
  0x18, 0x00, 0x07, 0x00, 0x08, 0x00, 0x0c, 0x00, 0x10, 0x00, 0x14, 0x00,
  0x0e, 0x00, 0x00, 0x00, 0x00, 0x00, 0x00, 0x01, 0x01, 0x00, 0x00, 0x00,
  0x03, 0x00, 0x00, 0x00, 0x01, 0x00, 0x00, 0x00, 0x03, 0x00, 0x00, 0x00,
  0x01, 0x00, 0x00, 0x00, 0x0b, 0x00, 0x00, 0x00, 0x01, 0x00, 0x00, 0x00,
  0x0a, 0x00, 0x00, 0x00, 0x00, 0x00, 0x0e, 0x00, 0x14, 0x00, 0x00, 0x00,
  0x08, 0x00, 0x0c, 0x00, 0x07, 0x00, 0x10, 0x00, 0x0e, 0x00, 0x00, 0x00,
  0x00, 0x00, 0x00, 0x01, 0x30, 0x00, 0x00, 0x00, 0x24, 0x00, 0x00, 0x00,
  0x10, 0x00, 0x00, 0x00, 0x0c, 0x00, 0x10, 0x00, 0x00, 0x00, 0x08, 0x00,
  0x0c, 0x00, 0x07, 0x00, 0x0c, 0x00, 0x00, 0x00, 0x00, 0x00, 0x00, 0x01,
  0x01, 0x00, 0x00, 0x00, 0x01, 0x00, 0x00, 0x00, 0x01, 0x00, 0x00, 0x00,
  0x0a, 0x00, 0x00, 0x00, 0x03, 0x00, 0x00, 0x00, 0x00, 0x00, 0x00, 0x00,
  0x08, 0x00, 0x00, 0x00, 0x01, 0x00, 0x00, 0x00, 0x01, 0x00, 0x00, 0x00,
  0x11, 0x00, 0x00, 0x00, 0x01, 0x00, 0x00, 0x00, 0x00, 0x00, 0x00, 0x00,
  0x12, 0x00, 0x00, 0x00, 0xe4, 0x0e, 0x00, 0x00, 0x90, 0x0d, 0x00, 0x00,
  0xf0, 0x0b, 0x00, 0x00, 0x74, 0x0b, 0x00, 0x00, 0xf8, 0x0a, 0x00, 0x00,
  0xac, 0x0a, 0x00, 0x00, 0x30, 0x0a, 0x00, 0x00, 0xac, 0x09, 0x00, 0x00,
  0xf8, 0x07, 0x00, 0x00, 0xa4, 0x05, 0x00, 0x00, 0xa0, 0x04, 0x00, 0x00,
  0xf4, 0x03, 0x00, 0x00, 0xe8, 0x02, 0x00, 0x00, 0x3c, 0x02, 0x00, 0x00,
  0xa8, 0x01, 0x00, 0x00, 0x04, 0x01, 0x00, 0x00, 0x70, 0x00, 0x00, 0x00,
  0x04, 0x00, 0x00, 0x00, 0x78, 0xf1, 0xff, 0xff, 0x00, 0x00, 0x00, 0x09,
  0x54, 0x00, 0x00, 0x00, 0x12, 0x00, 0x00, 0x00, 0x3c, 0x00, 0x00, 0x00,
  0x14, 0x00, 0x00, 0x00, 0x04, 0x00, 0x00, 0x00, 0x02, 0x00, 0x00, 0x00,
  0xff, 0xff, 0xff, 0xff, 0x02, 0x00, 0x00, 0x00, 0xc4, 0xf2, 0xff, 0xff,
  0x18, 0x00, 0x00, 0x00, 0x04, 0x00, 0x00, 0x00, 0x01, 0x00, 0x00, 0x00,
  0x80, 0xff, 0xff, 0xff, 0xff, 0xff, 0xff, 0xff, 0x00, 0x00, 0x00, 0x00,
  0x01, 0x00, 0x00, 0x00, 0x00, 0x00, 0x80, 0x3b, 0x08, 0x00, 0x00, 0x00,
  0x49, 0x64, 0x65, 0x6e, 0x74, 0x69, 0x74, 0x79, 0x00, 0x00, 0x00, 0x00,
  0x02, 0x00, 0x00, 0x00, 0x01, 0x00, 0x00, 0x00, 0x02, 0x00, 0x00, 0x00,
  0xe0, 0xf1, 0xff, 0xff, 0x00, 0x00, 0x00, 0x09, 0x7c, 0x00, 0x00, 0x00,
  0x11, 0x00, 0x00, 0x00, 0x54, 0x00, 0x00, 0x00, 0x14, 0x00, 0x00, 0x00,
  0x04, 0x00, 0x00, 0x00, 0x02, 0x00, 0x00, 0x00, 0xff, 0xff, 0xff, 0xff,
  0x02, 0x00, 0x00, 0x00, 0xc4, 0xf1, 0xff, 0xff, 0x30, 0x00, 0x00, 0x00,
  0x24, 0x00, 0x00, 0x00, 0x18, 0x00, 0x00, 0x00, 0x04, 0x00, 0x00, 0x00,
  0x01, 0x00, 0x00, 0x00, 0x0f, 0x00, 0x00, 0x00, 0x00, 0x00, 0x00, 0x00,
  0x00, 0x00, 0x00, 0x00, 0x01, 0x00, 0x00, 0x00, 0x4a, 0xf5, 0x58, 0x3e,
  0x01, 0x00, 0x00, 0x00, 0x03, 0x17, 0xbe, 0x41, 0x01, 0x00, 0x00, 0x00,
  0xa7, 0x21, 0xf2, 0xc1, 0x1a, 0x00, 0x00, 0x00, 0x73, 0x65, 0x71, 0x75,
  0x65, 0x6e, 0x74, 0x69, 0x61, 0x6c, 0x2f, 0x64, 0x65, 0x6e, 0x73, 0x65,
  0x5f, 0x31, 0x2f, 0x42, 0x69, 0x61, 0x73, 0x41, 0x64, 0x64, 0x00, 0x00,
  0x02, 0x00, 0x00, 0x00, 0x01, 0x00, 0x00, 0x00, 0x02, 0x00, 0x00, 0x00,
  0x70, 0xf2, 0xff, 0xff, 0x00, 0x00, 0x00, 0x09, 0x8c, 0x00, 0x00, 0x00,
  0x10, 0x00, 0x00, 0x00, 0x50, 0x00, 0x00, 0x00, 0x14, 0x00, 0x00, 0x00,
  0x04, 0x00, 0x00, 0x00, 0x02, 0x00, 0x00, 0x00, 0xff, 0xff, 0xff, 0xff,
  0x08, 0x00, 0x00, 0x00, 0x54, 0xf2, 0xff, 0xff, 0x2c, 0x00, 0x00, 0x00,
  0x20, 0x00, 0x00, 0x00, 0x14, 0x00, 0x00, 0x00, 0x04, 0x00, 0x00, 0x00,
  0x01, 0x00, 0x00, 0x00, 0x80, 0xff, 0xff, 0xff, 0xff, 0xff, 0xff, 0xff,
  0x01, 0x00, 0x00, 0x00, 0xa7, 0xd1, 0x67, 0x3e, 0x01, 0x00, 0x00, 0x00,
  0xd5, 0xe9, 0x66, 0x42, 0x01, 0x00, 0x00, 0x00, 0x00, 0x00, 0x00, 0x00,
  0x2e, 0x00, 0x00, 0x00, 0x73, 0x65, 0x71, 0x75, 0x65, 0x6e, 0x74, 0x69,
  0x61, 0x6c, 0x2f, 0x64, 0x65, 0x6e, 0x73, 0x65, 0x2f, 0x52, 0x65, 0x6c,
  0x75, 0x3b, 0x73, 0x65, 0x71, 0x75, 0x65, 0x6e, 0x74, 0x69, 0x61, 0x6c,
  0x2f, 0x64, 0x65, 0x6e, 0x73, 0x65, 0x2f, 0x42, 0x69, 0x61, 0x73, 0x41,
  0x64, 0x64, 0x00, 0x00, 0x02, 0x00, 0x00, 0x00, 0x01, 0x00, 0x00, 0x00,
  0x08, 0x00, 0x00, 0x00, 0x10, 0xf3, 0xff, 0xff, 0x00, 0x00, 0x00, 0x09,
  0x7c, 0x00, 0x00, 0x00, 0x0f, 0x00, 0x00, 0x00, 0x54, 0x00, 0x00, 0x00,
  0x14, 0x00, 0x00, 0x00, 0x04, 0x00, 0x00, 0x00, 0x02, 0x00, 0x00, 0x00,
  0xff, 0xff, 0xff, 0xff, 0xd8, 0x03, 0x00, 0x00, 0xf4, 0xf2, 0xff, 0xff,
  0x30, 0x00, 0x00, 0x00, 0x24, 0x00, 0x00, 0x00, 0x18, 0x00, 0x00, 0x00,
  0x04, 0x00, 0x00, 0x00, 0x01, 0x00, 0x00, 0x00, 0x80, 0xff, 0xff, 0xff,
  0xff, 0xff, 0xff, 0xff, 0x00, 0x00, 0x00, 0x00, 0x01, 0x00, 0x00, 0x00,
  0x6e, 0xdb, 0x29, 0x3e, 0x01, 0x00, 0x00, 0x00, 0x93, 0x31, 0x29, 0x42,
  0x01, 0x00, 0x00, 0x00, 0x00, 0x00, 0x00, 0x00, 0x1a, 0x00, 0x00, 0x00,
  0x73, 0x65, 0x71, 0x75, 0x65, 0x6e, 0x74, 0x69, 0x61, 0x6c, 0x2f, 0x66,
  0x6c, 0x61, 0x74, 0x74, 0x65, 0x6e, 0x2f, 0x52, 0x65, 0x73, 0x68, 0x61,
  0x70, 0x65, 0x00, 0x00, 0x02, 0x00, 0x00, 0x00, 0x01, 0x00, 0x00, 0x00,
  0xd8, 0x03, 0x00, 0x00, 0xa0, 0xf3, 0xff, 0xff, 0x00, 0x00, 0x00, 0x09,
  0x8c, 0x00, 0x00, 0x00, 0x0e, 0x00, 0x00, 0x00, 0x5c, 0x00, 0x00, 0x00,
  0x1c, 0x00, 0x00, 0x00, 0x04, 0x00, 0x00, 0x00, 0x04, 0x00, 0x00, 0x00,
  0xff, 0xff, 0xff, 0xff, 0x29, 0x00, 0x00, 0x00, 0x01, 0x00, 0x00, 0x00,
  0x18, 0x00, 0x00, 0x00, 0x8c, 0xf3, 0xff, 0xff, 0x30, 0x00, 0x00, 0x00,
  0x24, 0x00, 0x00, 0x00, 0x18, 0x00, 0x00, 0x00, 0x04, 0x00, 0x00, 0x00,
  0x01, 0x00, 0x00, 0x00, 0x80, 0xff, 0xff, 0xff, 0xff, 0xff, 0xff, 0xff,
  0x00, 0x00, 0x00, 0x00, 0x01, 0x00, 0x00, 0x00, 0x6e, 0xdb, 0x29, 0x3e,
  0x01, 0x00, 0x00, 0x00, 0x93, 0x31, 0x29, 0x42, 0x01, 0x00, 0x00, 0x00,
  0x00, 0x00, 0x00, 0x00, 0x22, 0x00, 0x00, 0x00, 0x73, 0x65, 0x71, 0x75,
  0x65, 0x6e, 0x74, 0x69, 0x61, 0x6c, 0x2f, 0x6d, 0x61, 0x78, 0x5f, 0x70,
  0x6f, 0x6f, 0x6c, 0x69, 0x6e, 0x67, 0x32, 0x64, 0x5f, 0x31, 0x2f, 0x4d,
  0x61, 0x78, 0x50, 0x6f, 0x6f, 0x6c, 0x00, 0x00, 0x04, 0x00, 0x00, 0x00,
  0x01, 0x00, 0x00, 0x00, 0x29, 0x00, 0x00, 0x00, 0x01, 0x00, 0x00, 0x00,
  0x18, 0x00, 0x00, 0x00, 0x48, 0xf4, 0xff, 0xff, 0x00, 0x00, 0x00, 0x09,
  0xec, 0x00, 0x00, 0x00, 0x0d, 0x00, 0x00, 0x00, 0x5c, 0x00, 0x00, 0x00,
  0x1c, 0x00, 0x00, 0x00, 0x04, 0x00, 0x00, 0x00, 0x04, 0x00, 0x00, 0x00,
  0xff, 0xff, 0xff, 0xff, 0x7b, 0x00, 0x00, 0x00, 0x01, 0x00, 0x00, 0x00,
  0x18, 0x00, 0x00, 0x00, 0x34, 0xf4, 0xff, 0xff, 0x30, 0x00, 0x00, 0x00,
  0x24, 0x00, 0x00, 0x00, 0x18, 0x00, 0x00, 0x00, 0x04, 0x00, 0x00, 0x00,
  0x01, 0x00, 0x00, 0x00, 0x80, 0xff, 0xff, 0xff, 0xff, 0xff, 0xff, 0xff,
  0x00, 0x00, 0x00, 0x00, 0x01, 0x00, 0x00, 0x00, 0x6e, 0xdb, 0x29, 0x3e,
  0x01, 0x00, 0x00, 0x00, 0x93, 0x31, 0x29, 0x42, 0x01, 0x00, 0x00, 0x00,
  0x00, 0x00, 0x00, 0x00, 0x83, 0x00, 0x00, 0x00, 0x73, 0x65, 0x71, 0x75,
  0x65, 0x6e, 0x74, 0x69, 0x61, 0x6c, 0x2f, 0x63, 0x6f, 0x6e, 0x76, 0x32,
  0x64, 0x5f, 0x31, 0x2f, 0x52, 0x65, 0x6c, 0x75, 0x3b, 0x73, 0x65, 0x71,
  0x75, 0x65, 0x6e, 0x74, 0x69, 0x61, 0x6c, 0x2f, 0x63, 0x6f, 0x6e, 0x76,
  0x32, 0x64, 0x5f, 0x31, 0x2f, 0x42, 0x69, 0x61, 0x73, 0x41, 0x64, 0x64,
  0x3b, 0x73, 0x65, 0x71, 0x75, 0x65, 0x6e, 0x74, 0x69, 0x61, 0x6c, 0x2f,
  0x63, 0x6f, 0x6e, 0x76, 0x32, 0x64, 0x5f, 0x31, 0x2f, 0x43, 0x6f, 0x6e,
  0x76, 0x32, 0x44, 0x3b, 0x73, 0x65, 0x71, 0x75, 0x65, 0x6e, 0x74, 0x69,
  0x61, 0x6c, 0x2f, 0x63, 0x6f, 0x6e, 0x76, 0x32, 0x64, 0x5f, 0x31, 0x2f,
  0x42, 0x69, 0x61, 0x73, 0x41, 0x64, 0x64, 0x2f, 0x52, 0x65, 0x61, 0x64,
  0x56, 0x61, 0x72, 0x69, 0x61, 0x62, 0x6c, 0x65, 0x4f, 0x70, 0x2f, 0x72,
  0x65, 0x73, 0x6f, 0x75, 0x72, 0x63, 0x65, 0x00, 0x04, 0x00, 0x00, 0x00,
  0x01, 0x00, 0x00, 0x00, 0x7b, 0x00, 0x00, 0x00, 0x01, 0x00, 0x00, 0x00,
  0x18, 0x00, 0x00, 0x00, 0x50, 0xf5, 0xff, 0xff, 0x00, 0x00, 0x00, 0x09,
  0x8c, 0x00, 0x00, 0x00, 0x0c, 0x00, 0x00, 0x00, 0x5c, 0x00, 0x00, 0x00,
  0x1c, 0x00, 0x00, 0x00, 0x04, 0x00, 0x00, 0x00, 0x04, 0x00, 0x00, 0x00,
  0xff, 0xff, 0xff, 0xff, 0x7b, 0x00, 0x00, 0x00, 0x01, 0x00, 0x00, 0x00,
  0x10, 0x00, 0x00, 0x00, 0x3c, 0xf5, 0xff, 0xff, 0x30, 0x00, 0x00, 0x00,
  0x24, 0x00, 0x00, 0x00, 0x18, 0x00, 0x00, 0x00, 0x04, 0x00, 0x00, 0x00,
  0x01, 0x00, 0x00, 0x00, 0x80, 0xff, 0xff, 0xff, 0xff, 0xff, 0xff, 0xff,
  0x00, 0x00, 0x00, 0x00, 0x01, 0x00, 0x00, 0x00, 0x0e, 0x1b, 0x8e, 0x3e,
  0x01, 0x00, 0x00, 0x00, 0xf3, 0x8c, 0x8d, 0x42, 0x01, 0x00, 0x00, 0x00,
  0x00, 0x00, 0x00, 0x00, 0x20, 0x00, 0x00, 0x00, 0x73, 0x65, 0x71, 0x75,
  0x65, 0x6e, 0x74, 0x69, 0x61, 0x6c, 0x2f, 0x6d, 0x61, 0x78, 0x5f, 0x70,
  0x6f, 0x6f, 0x6c, 0x69, 0x6e, 0x67, 0x32, 0x64, 0x2f, 0x4d, 0x61, 0x78,
  0x50, 0x6f, 0x6f, 0x6c, 0x00, 0x00, 0x00, 0x00, 0x04, 0x00, 0x00, 0x00,
  0x01, 0x00, 0x00, 0x00, 0x7b, 0x00, 0x00, 0x00, 0x01, 0x00, 0x00, 0x00,
  0x10, 0x00, 0x00, 0x00, 0xf8, 0xf5, 0xff, 0xff, 0x00, 0x00, 0x00, 0x09,
  0xe4, 0x00, 0x00, 0x00, 0x0b, 0x00, 0x00, 0x00, 0x5c, 0x00, 0x00, 0x00,
  0x1c, 0x00, 0x00, 0x00, 0x04, 0x00, 0x00, 0x00, 0x04, 0x00, 0x00, 0x00,
  0xff, 0xff, 0xff, 0xff, 0x72, 0x01, 0x00, 0x00, 0x01, 0x00, 0x00, 0x00,
  0x10, 0x00, 0x00, 0x00, 0xe4, 0xf5, 0xff, 0xff, 0x30, 0x00, 0x00, 0x00,
  0x24, 0x00, 0x00, 0x00, 0x18, 0x00, 0x00, 0x00, 0x04, 0x00, 0x00, 0x00,
  0x01, 0x00, 0x00, 0x00, 0x80, 0xff, 0xff, 0xff, 0xff, 0xff, 0xff, 0xff,
  0x00, 0x00, 0x00, 0x00, 0x01, 0x00, 0x00, 0x00, 0x0e, 0x1b, 0x8e, 0x3e,
  0x01, 0x00, 0x00, 0x00, 0xf3, 0x8c, 0x8d, 0x42, 0x01, 0x00, 0x00, 0x00,
  0x00, 0x00, 0x00, 0x00, 0x7b, 0x00, 0x00, 0x00, 0x73, 0x65, 0x71, 0x75,
  0x65, 0x6e, 0x74, 0x69, 0x61, 0x6c, 0x2f, 0x63, 0x6f, 0x6e, 0x76, 0x32,
  0x64, 0x2f, 0x52, 0x65, 0x6c, 0x75, 0x3b, 0x73, 0x65, 0x71, 0x75, 0x65,
  0x6e, 0x74, 0x69, 0x61, 0x6c, 0x2f, 0x63, 0x6f, 0x6e, 0x76, 0x32, 0x64,
  0x2f, 0x42, 0x69, 0x61, 0x73, 0x41, 0x64, 0x64, 0x3b, 0x73, 0x65, 0x71,
  0x75, 0x65, 0x6e, 0x74, 0x69, 0x61, 0x6c, 0x2f, 0x63, 0x6f, 0x6e, 0x76,
  0x32, 0x64, 0x2f, 0x43, 0x6f, 0x6e, 0x76, 0x32, 0x44, 0x3b, 0x73, 0x65,
  0x71, 0x75, 0x65, 0x6e, 0x74, 0x69, 0x61, 0x6c, 0x2f, 0x63, 0x6f, 0x6e,
  0x76, 0x32, 0x64, 0x2f, 0x42, 0x69, 0x61, 0x73, 0x41, 0x64, 0x64, 0x2f,
  0x52, 0x65, 0x61, 0x64, 0x56, 0x61, 0x72, 0x69, 0x61, 0x62, 0x6c, 0x65,
  0x4f, 0x70, 0x2f, 0x72, 0x65, 0x73, 0x6f, 0x75, 0x72, 0x63, 0x65, 0x00,
  0x04, 0x00, 0x00, 0x00, 0x01, 0x00, 0x00, 0x00, 0x72, 0x01, 0x00, 0x00,
  0x01, 0x00, 0x00, 0x00, 0x10, 0x00, 0x00, 0x00, 0x42, 0xf8, 0xff, 0xff,
  0x00, 0x00, 0x00, 0x09, 0x34, 0x02, 0x00, 0x00, 0x0a, 0x00, 0x00, 0x00,
  0x0c, 0x02, 0x00, 0x00, 0x04, 0x00, 0x00, 0x00, 0xcc, 0xf6, 0xff, 0xff,
  0x9c, 0x01, 0x00, 0x00, 0x34, 0x01, 0x00, 0x00, 0xcc, 0x00, 0x00, 0x00,
  0x04, 0x00, 0x00, 0x00, 0x18, 0x00, 0x00, 0x00, 0x00, 0x00, 0x00, 0x00,
  0x00, 0x00, 0x00, 0x00, 0x00, 0x00, 0x00, 0x00, 0x00, 0x00, 0x00, 0x00,
  0x00, 0x00, 0x00, 0x00, 0x00, 0x00, 0x00, 0x00, 0x00, 0x00, 0x00, 0x00,
  0x00, 0x00, 0x00, 0x00, 0x00, 0x00, 0x00, 0x00, 0x00, 0x00, 0x00, 0x00,
  0x00, 0x00, 0x00, 0x00, 0x00, 0x00, 0x00, 0x00, 0x00, 0x00, 0x00, 0x00,
  0x00, 0x00, 0x00, 0x00, 0x00, 0x00, 0x00, 0x00, 0x00, 0x00, 0x00, 0x00,
  0x00, 0x00, 0x00, 0x00, 0x00, 0x00, 0x00, 0x00, 0x00, 0x00, 0x00, 0x00,
  0x00, 0x00, 0x00, 0x00, 0x00, 0x00, 0x00, 0x00, 0x00, 0x00, 0x00, 0x00,
  0x00, 0x00, 0x00, 0x00, 0x00, 0x00, 0x00, 0x00, 0x00, 0x00, 0x00, 0x00,
  0x00, 0x00, 0x00, 0x00, 0x00, 0x00, 0x00, 0x00, 0x00, 0x00, 0x00, 0x00,
  0x00, 0x00, 0x00, 0x00, 0x00, 0x00, 0x00, 0x00, 0x00, 0x00, 0x00, 0x00,
  0x00, 0x00, 0x00, 0x00, 0x00, 0x00, 0x00, 0x00, 0x00, 0x00, 0x00, 0x00,
  0x00, 0x00, 0x00, 0x00, 0x00, 0x00, 0x00, 0x00, 0x00, 0x00, 0x00, 0x00,
  0x00, 0x00, 0x00, 0x00, 0x00, 0x00, 0x00, 0x00, 0x00, 0x00, 0x00, 0x00,
  0x00, 0x00, 0x00, 0x00, 0x00, 0x00, 0x00, 0x00, 0x00, 0x00, 0x00, 0x00,
  0x00, 0x00, 0x00, 0x00, 0x00, 0x00, 0x00, 0x00, 0x00, 0x00, 0x00, 0x00,
  0x00, 0x00, 0x00, 0x00, 0x00, 0x00, 0x00, 0x00, 0x18, 0x00, 0x00, 0x00,
  0xe6, 0x98, 0x6b, 0x3b, 0x5a, 0x14, 0x12, 0x3b, 0x68, 0x67, 0xde, 0x3a,
  0x25, 0x67, 0xf1, 0x3a, 0x26, 0x41, 0x1b, 0x3b, 0x9d, 0x0f, 0x0c, 0x3b,
  0xc8, 0x0c, 0xf6, 0x3a, 0x2f, 0x04, 0xe6, 0x3a, 0x43, 0x83, 0x6d, 0x3b,
  0xaf, 0xc0, 0x27, 0x3b, 0xad, 0x83, 0x05, 0x3b, 0xa2, 0xe1, 0xe0, 0x3a,
  0x30, 0x31, 0xfa, 0x3a, 0xbc, 0x4c, 0xf7, 0x3a, 0x86, 0xa6, 0xfc, 0x3a,
  0x5b, 0xf9, 0x0a, 0x3b, 0x51, 0xb8, 0xe2, 0x3a, 0xf6, 0x24, 0xef, 0x3a,
  0x30, 0x16, 0x17, 0x3b, 0x4f, 0xc0, 0x2f, 0x3b, 0xec, 0xd4, 0xe3, 0x3a,
  0x92, 0x7d, 0xf3, 0x3a, 0xc8, 0x29, 0xe7, 0x3a, 0x3a, 0x12, 0xf7, 0x3a,
  0x18, 0x00, 0x00, 0x00, 0xb4, 0xc1, 0xe9, 0x3e, 0x31, 0xf0, 0x90, 0x3e,
  0x99, 0xaa, 0x5c, 0x3e, 0x39, 0x5d, 0x6a, 0x3e, 0xa5, 0xe6, 0x4f, 0x3e,
  0x35, 0xc7, 0x2d, 0x3e, 0xc0, 0x4d, 0x48, 0x3e, 0x3a, 0xa9, 0x4f, 0x3e,
  0x18, 0xb2, 0x80, 0x3e, 0x96, 0x85, 0x59, 0x3e, 0x22, 0x26, 0x3c, 0x3e,
  0x0d, 0x0a, 0x55, 0x3e, 0x06, 0xf6, 0x4a, 0x3e, 0x23, 0x5e, 0x75, 0x3e,
  0xc8, 0x1f, 0x41, 0x3e, 0x7b, 0x12, 0x5d, 0x3e, 0x50, 0x6e, 0x59, 0x3e,
  0xe7, 0x15, 0x65, 0x3e, 0x04, 0xe8, 0x95, 0x3e, 0xb3, 0x7a, 0x72, 0x3e,
  0x3d, 0x49, 0x5b, 0x3e, 0x76, 0xc6, 0x47, 0x3e, 0xd3, 0xfb, 0x60, 0x3e,
  0x1a, 0xf6, 0x5c, 0x3e, 0x18, 0x00, 0x00, 0x00, 0x56, 0xd9, 0x28, 0xbe,
  0xf9, 0x23, 0x79, 0xbe, 0x5f, 0x5a, 0x55, 0xbe, 0x57, 0x84, 0x6f, 0xbe,
  0xa4, 0x0a, 0x9a, 0xbe, 0x7e, 0xf7, 0x8a, 0xbe, 0xae, 0x20, 0x74, 0xbe,
  0x27, 0x38, 0x64, 0xbe, 0x3c, 0xa8, 0xeb, 0xbe, 0x2e, 0x71, 0xa6, 0xbe,
  0xa6, 0x78, 0x84, 0xbe, 0xdf, 0x1f, 0x5f, 0xbe, 0xce, 0x3c, 0x78, 0xbe,
  0x60, 0x46, 0x63, 0xbe, 0x39, 0xad, 0x7a, 0xbe, 0x68, 0xe3, 0x89, 0xbe,
  0xe0, 0xf2, 0x60, 0xbe, 0xac, 0x46, 0x6d, 0xbe, 0x93, 0xc2, 0x81, 0xbe,
  0xce, 0x60, 0xae, 0xbe, 0x42, 0x0d, 0x62, 0xbe, 0x97, 0x96, 0x71, 0xbe,
  0x74, 0x5b, 0x65, 0xbe, 0x16, 0x24, 0x75, 0xbe, 0x1a, 0x00, 0x00, 0x00,
  0x73, 0x65, 0x71, 0x75, 0x65, 0x6e, 0x74, 0x69, 0x61, 0x6c, 0x2f, 0x63,
  0x6f, 0x6e, 0x76, 0x32, 0x64, 0x5f, 0x31, 0x2f, 0x43, 0x6f, 0x6e, 0x76,
  0x32, 0x44, 0x00, 0x00, 0x04, 0x00, 0x00, 0x00, 0x18, 0x00, 0x00, 0x00,
  0x03, 0x00, 0x00, 0x00, 0x01, 0x00, 0x00, 0x00, 0x10, 0x00, 0x00, 0x00,
  0x92, 0xfa, 0xff, 0xff, 0x00, 0x00, 0x00, 0x09, 0x94, 0x01, 0x00, 0x00,
  0x09, 0x00, 0x00, 0x00, 0x6c, 0x01, 0x00, 0x00, 0x04, 0x00, 0x00, 0x00,
  0x1c, 0xf9, 0xff, 0xff, 0x1c, 0x01, 0x00, 0x00, 0xd4, 0x00, 0x00, 0x00,
  0x8c, 0x00, 0x00, 0x00, 0x04, 0x00, 0x00, 0x00, 0x10, 0x00, 0x00, 0x00,
  0x00, 0x00, 0x00, 0x00, 0x00, 0x00, 0x00, 0x00, 0x00, 0x00, 0x00, 0x00,
  0x00, 0x00, 0x00, 0x00, 0x00, 0x00, 0x00, 0x00, 0x00, 0x00, 0x00, 0x00,
  0x00, 0x00, 0x00, 0x00, 0x00, 0x00, 0x00, 0x00, 0x00, 0x00, 0x00, 0x00,
  0x00, 0x00, 0x00, 0x00, 0x00, 0x00, 0x00, 0x00, 0x00, 0x00, 0x00, 0x00,
  0x00, 0x00, 0x00, 0x00, 0x00, 0x00, 0x00, 0x00, 0x00, 0x00, 0x00, 0x00,
  0x00, 0x00, 0x00, 0x00, 0x00, 0x00, 0x00, 0x00, 0x00, 0x00, 0x00, 0x00,
  0x00, 0x00, 0x00, 0x00, 0x00, 0x00, 0x00, 0x00, 0x00, 0x00, 0x00, 0x00,
  0x00, 0x00, 0x00, 0x00, 0x00, 0x00, 0x00, 0x00, 0x00, 0x00, 0x00, 0x00,
  0x00, 0x00, 0x00, 0x00, 0x00, 0x00, 0x00, 0x00, 0x00, 0x00, 0x00, 0x00,
  0x00, 0x00, 0x00, 0x00, 0x00, 0x00, 0x00, 0x00, 0x00, 0x00, 0x00, 0x00,
  0x00, 0x00, 0x00, 0x00, 0x00, 0x00, 0x00, 0x00, 0x10, 0x00, 0x00, 0x00,
  0x8e, 0xb6, 0x0a, 0x3b, 0x79, 0x39, 0x17, 0x3b, 0xf3, 0xf3, 0x35, 0x3b,
  0xe9, 0x87, 0xb3, 0x3a, 0xe0, 0xb2, 0x16, 0x3b, 0x38, 0x46, 0x99, 0x3a,
  0x6c, 0x99, 0x0e, 0x3b, 0xe7, 0x18, 0xc4, 0x3a, 0x04, 0xef, 0x3d, 0x3b,
  0x1f, 0x45, 0xd8, 0x3a, 0x29, 0x3f, 0x28, 0x3b, 0xe1, 0x74, 0x24, 0x3b,
  0x50, 0x39, 0x22, 0x3b, 0x45, 0xa8, 0xce, 0x3a, 0xac, 0xe9, 0x12, 0x3b,
  0xe2, 0x9e, 0xd5, 0x3a, 0x10, 0x00, 0x00, 0x00, 0xb9, 0x60, 0xf1, 0x3d,
  0x06, 0x0b, 0x96, 0x3e, 0xd1, 0xf8, 0xa7, 0x3e, 0x76, 0x8a, 0x1e, 0x3e,
  0x0a, 0x14, 0x81, 0xbb, 0xac, 0x13, 0x18, 0x3e, 0xbb, 0x69, 0x46, 0x3e,
  0xb5, 0x90, 0x42, 0x3e, 0x21, 0xd9, 0x46, 0x3e, 0xf7, 0xae, 0x98, 0x3d,
  0x8c, 0x27, 0x8c, 0x3d, 0x41, 0x7c, 0x88, 0x3e, 0xdd, 0xf4, 0xa0, 0x3e,
  0xf4, 0x0a, 0x4d, 0x3e, 0xd9, 0xc3, 0x91, 0x3e, 0x5d, 0x4d, 0xe4, 0x3d,
  0x10, 0x00, 0x00, 0x00, 0x21, 0xa1, 0x89, 0xbe, 0x1c, 0x6c, 0x41, 0xbe,
  0x0b, 0x88, 0xb4, 0xbe, 0xd9, 0x20, 0x32, 0xbe, 0x7a, 0x85, 0x95, 0xbe,
  0x63, 0x11, 0x54, 0xbd, 0x39, 0x7c, 0x8d, 0xbe, 0xa8, 0x3d, 0x93, 0x3d,
  0x26, 0x73, 0xbc, 0xbe, 0x95, 0x94, 0x56, 0xbe, 0xab, 0xee, 0xa6, 0xbe,
  0xf7, 0x2b, 0xa3, 0xbe, 0xe3, 0xe7, 0xf4, 0xbd, 0x41, 0x21, 0xe1, 0xbc,
  0x62, 0x77, 0x83, 0xbe, 0xa4, 0xf3, 0x53, 0xbe, 0x18, 0x00, 0x00, 0x00,
  0x73, 0x65, 0x71, 0x75, 0x65, 0x6e, 0x74, 0x69, 0x61, 0x6c, 0x2f, 0x63,
  0x6f, 0x6e, 0x76, 0x32, 0x64, 0x2f, 0x43, 0x6f, 0x6e, 0x76, 0x32, 0x44,
  0x00, 0x00, 0x00, 0x00, 0x04, 0x00, 0x00, 0x00, 0x10, 0x00, 0x00, 0x00,
  0x03, 0x00, 0x00, 0x00, 0x01, 0x00, 0x00, 0x00, 0x01, 0x00, 0x00, 0x00,
  0x42, 0xfc, 0xff, 0xff, 0x00, 0x00, 0x00, 0x09, 0x6c, 0x00, 0x00, 0x00,
  0x08, 0x00, 0x00, 0x00, 0x44, 0x00, 0x00, 0x00, 0x04, 0x00, 0x00, 0x00,
  0xcc, 0xfa, 0xff, 0xff, 0x30, 0x00, 0x00, 0x00, 0x24, 0x00, 0x00, 0x00,
  0x18, 0x00, 0x00, 0x00, 0x04, 0x00, 0x00, 0x00, 0x01, 0x00, 0x00, 0x00,
  0x00, 0x00, 0x00, 0x00, 0x00, 0x00, 0x00, 0x00, 0x00, 0x00, 0x00, 0x00,
  0x01, 0x00, 0x00, 0x00, 0x51, 0x08, 0xa9, 0x3b, 0x01, 0x00, 0x00, 0x00,
  0x40, 0xb6, 0x27, 0x3f, 0x01, 0x00, 0x00, 0x00, 0x51, 0x4f, 0x24, 0xbf,
  0x19, 0x00, 0x00, 0x00, 0x73, 0x65, 0x71, 0x75, 0x65, 0x6e, 0x74, 0x69,
  0x61, 0x6c, 0x2f, 0x64, 0x65, 0x6e, 0x73, 0x65, 0x5f, 0x31, 0x2f, 0x4d,
  0x61, 0x74, 0x4d, 0x75, 0x6c, 0x00, 0x00, 0x00, 0x02, 0x00, 0x00, 0x00,
  0x02, 0x00, 0x00, 0x00, 0x08, 0x00, 0x00, 0x00, 0xc2, 0xfc, 0xff, 0xff,
  0x00, 0x00, 0x00, 0x09, 0x64, 0x00, 0x00, 0x00, 0x07, 0x00, 0x00, 0x00,
  0x40, 0x00, 0x00, 0x00, 0x04, 0x00, 0x00, 0x00, 0x4c, 0xfb, 0xff, 0xff,
  0x2c, 0x00, 0x00, 0x00, 0x20, 0x00, 0x00, 0x00, 0x14, 0x00, 0x00, 0x00,
  0x04, 0x00, 0x00, 0x00, 0x01, 0x00, 0x00, 0x00, 0x00, 0x00, 0x00, 0x00,
  0x00, 0x00, 0x00, 0x00, 0x01, 0x00, 0x00, 0x00, 0x49, 0x1e, 0x0e, 0x3b,
  0x01, 0x00, 0x00, 0x00, 0x0c, 0x02, 0x8d, 0x3e, 0x01, 0x00, 0x00, 0x00,
  0xb5, 0x15, 0x59, 0xbe, 0x17, 0x00, 0x00, 0x00, 0x73, 0x65, 0x71, 0x75,
  0x65, 0x6e, 0x74, 0x69, 0x61, 0x6c, 0x2f, 0x64, 0x65, 0x6e, 0x73, 0x65,
  0x2f, 0x4d, 0x61, 0x74, 0x4d, 0x75, 0x6c, 0x00, 0x02, 0x00, 0x00, 0x00,
  0x08, 0x00, 0x00, 0x00, 0xd8, 0x03, 0x00, 0x00, 0x3a, 0xfd, 0xff, 0xff,
  0x00, 0x00, 0x00, 0x02, 0x38, 0x00, 0x00, 0x00, 0x06, 0x00, 0x00, 0x00,
  0x10, 0x00, 0x00, 0x00, 0x08, 0x00, 0x00, 0x00, 0x04, 0x00, 0x04, 0x00,
  0x04, 0x00, 0x00, 0x00, 0x18, 0x00, 0x00, 0x00, 0x73, 0x65, 0x71, 0x75,
  0x65, 0x6e, 0x74, 0x69, 0x61, 0x6c, 0x2f, 0x66, 0x6c, 0x61, 0x74, 0x74,
  0x65, 0x6e, 0x2f, 0x43, 0x6f, 0x6e, 0x73, 0x74, 0x00, 0x00, 0x00, 0x00,
  0x01, 0x00, 0x00, 0x00, 0x02, 0x00, 0x00, 0x00, 0x82, 0xfd, 0xff, 0xff,
  0x00, 0x00, 0x00, 0x02, 0x68, 0x00, 0x00, 0x00, 0x05, 0x00, 0x00, 0x00,
  0x28, 0x00, 0x00, 0x00, 0x04, 0x00, 0x00, 0x00, 0x74, 0xfd, 0xff, 0xff,
  0x14, 0x00, 0x00, 0x00, 0x04, 0x00, 0x00, 0x00, 0x01, 0x00, 0x00, 0x00,
  0x00, 0x00, 0x00, 0x00, 0x00, 0x00, 0x00, 0x00, 0x01, 0x00, 0x00, 0x00,
  0xef, 0x10, 0x99, 0x3a, 0x32, 0x00, 0x00, 0x00, 0x73, 0x65, 0x71, 0x75,
  0x65, 0x6e, 0x74, 0x69, 0x61, 0x6c, 0x2f, 0x64, 0x65, 0x6e, 0x73, 0x65,
  0x5f, 0x31, 0x2f, 0x42, 0x69, 0x61, 0x73, 0x41, 0x64, 0x64, 0x2f, 0x52,
  0x65, 0x61, 0x64, 0x56, 0x61, 0x72, 0x69, 0x61, 0x62, 0x6c, 0x65, 0x4f,
  0x70, 0x2f, 0x72, 0x65, 0x73, 0x6f, 0x75, 0x72, 0x63, 0x65, 0x00, 0x00,
  0x01, 0x00, 0x00, 0x00, 0x02, 0x00, 0x00, 0x00, 0xfa, 0xfd, 0xff, 0xff,
  0x00, 0x00, 0x00, 0x02, 0x68, 0x00, 0x00, 0x00, 0x04, 0x00, 0x00, 0x00,
  0x28, 0x00, 0x00, 0x00, 0x04, 0x00, 0x00, 0x00, 0xec, 0xfd, 0xff, 0xff,
  0x14, 0x00, 0x00, 0x00, 0x04, 0x00, 0x00, 0x00, 0x01, 0x00, 0x00, 0x00,
  0x00, 0x00, 0x00, 0x00, 0x00, 0x00, 0x00, 0x00, 0x01, 0x00, 0x00, 0x00,
  0x9e, 0x97, 0xbc, 0x39, 0x30, 0x00, 0x00, 0x00, 0x73, 0x65, 0x71, 0x75,
  0x65, 0x6e, 0x74, 0x69, 0x61, 0x6c, 0x2f, 0x64, 0x65, 0x6e, 0x73, 0x65,
  0x2f, 0x42, 0x69, 0x61, 0x73, 0x41, 0x64, 0x64, 0x2f, 0x52, 0x65, 0x61,
  0x64, 0x56, 0x61, 0x72, 0x69, 0x61, 0x62, 0x6c, 0x65, 0x4f, 0x70, 0x2f,
  0x72, 0x65, 0x73, 0x6f, 0x75, 0x72, 0x63, 0x65, 0x00, 0x00, 0x00, 0x00,
  0x01, 0x00, 0x00, 0x00, 0x08, 0x00, 0x00, 0x00, 0x72, 0xfe, 0xff, 0xff,
  0x00, 0x00, 0x00, 0x02, 0x7c, 0x01, 0x00, 0x00, 0x03, 0x00, 0x00, 0x00,
  0x3c, 0x01, 0x00, 0x00, 0x04, 0x00, 0x00, 0x00, 0x64, 0xfe, 0xff, 0xff,
  0xcc, 0x00, 0x00, 0x00, 0x04, 0x00, 0x00, 0x00, 0x18, 0x00, 0x00, 0x00,
  0x00, 0x00, 0x00, 0x00, 0x00, 0x00, 0x00, 0x00, 0x00, 0x00, 0x00, 0x00,
  0x00, 0x00, 0x00, 0x00, 0x00, 0x00, 0x00, 0x00, 0x00, 0x00, 0x00, 0x00,
  0x00, 0x00, 0x00, 0x00, 0x00, 0x00, 0x00, 0x00, 0x00, 0x00, 0x00, 0x00,
  0x00, 0x00, 0x00, 0x00, 0x00, 0x00, 0x00, 0x00, 0x00, 0x00, 0x00, 0x00,
  0x00, 0x00, 0x00, 0x00, 0x00, 0x00, 0x00, 0x00, 0x00, 0x00, 0x00, 0x00,
  0x00, 0x00, 0x00, 0x00, 0x00, 0x00, 0x00, 0x00, 0x00, 0x00, 0x00, 0x00,
  0x00, 0x00, 0x00, 0x00, 0x00, 0x00, 0x00, 0x00, 0x00, 0x00, 0x00, 0x00,
  0x00, 0x00, 0x00, 0x00, 0x00, 0x00, 0x00, 0x00, 0x00, 0x00, 0x00, 0x00,
  0x00, 0x00, 0x00, 0x00, 0x00, 0x00, 0x00, 0x00, 0x00, 0x00, 0x00, 0x00,
  0x00, 0x00, 0x00, 0x00, 0x00, 0x00, 0x00, 0x00, 0x00, 0x00, 0x00, 0x00,
  0x00, 0x00, 0x00, 0x00, 0x00, 0x00, 0x00, 0x00, 0x00, 0x00, 0x00, 0x00,
  0x00, 0x00, 0x00, 0x00, 0x00, 0x00, 0x00, 0x00, 0x00, 0x00, 0x00, 0x00,
  0x00, 0x00, 0x00, 0x00, 0x00, 0x00, 0x00, 0x00, 0x00, 0x00, 0x00, 0x00,
  0x00, 0x00, 0x00, 0x00, 0x00, 0x00, 0x00, 0x00, 0x00, 0x00, 0x00, 0x00,
  0x00, 0x00, 0x00, 0x00, 0x00, 0x00, 0x00, 0x00, 0x00, 0x00, 0x00, 0x00,
  0x00, 0x00, 0x00, 0x00, 0x00, 0x00, 0x00, 0x00, 0x00, 0x00, 0x00, 0x00,
  0x18, 0x00, 0x00, 0x00, 0xb6, 0xc7, 0x82, 0x3a, 0x74, 0x2d, 0x22, 0x3a,
  0xba, 0xe9, 0xf6, 0x39, 0xba, 0x00, 0x06, 0x3a, 0x17, 0x5d, 0x2c, 0x3a,
  0xed, 0x7e, 0x1b, 0x3a, 0x18, 0x95, 0x08, 0x3a, 0x42, 0x5d, 0xff, 0x39,
  0xe9, 0xd7, 0x83, 0x3a, 0x37, 0x3d, 0x3a, 0x3a, 0x4c, 0x3a, 0x14, 0x3a,
  0xd8, 0xa9, 0xf9, 0x39, 0xb9, 0xe1, 0x0a, 0x3a, 0xb3, 0x46, 0x09, 0x3a,
  0x12, 0x3f, 0x0c, 0x3a, 0x01, 0x4a, 0x1a, 0x3a, 0x66, 0xb4, 0xfb, 0x39,
  0xc6, 0xbf, 0x04, 0x3a, 0x8c, 0xbc, 0x27, 0x3a, 0x7d, 0x1e, 0x43, 0x3a,
  0x5e, 0xf0, 0xfc, 0x39, 0x63, 0x29, 0x07, 0x3a, 0x9b, 0x51, 0x00, 0x3a,
  0x39, 0x26, 0x09, 0x3a, 0x33, 0x00, 0x00, 0x00, 0x73, 0x65, 0x71, 0x75,
  0x65, 0x6e, 0x74, 0x69, 0x61, 0x6c, 0x2f, 0x63, 0x6f, 0x6e, 0x76, 0x32,
  0x64, 0x5f, 0x31, 0x2f, 0x42, 0x69, 0x61, 0x73, 0x41, 0x64, 0x64, 0x2f,
  0x52, 0x65, 0x61, 0x64, 0x56, 0x61, 0x72, 0x69, 0x61, 0x62, 0x6c, 0x65,
  0x4f, 0x70, 0x2f, 0x72, 0x65, 0x73, 0x6f, 0x75, 0x72, 0x63, 0x65, 0x00,
  0x01, 0x00, 0x00, 0x00, 0x18, 0x00, 0x00, 0x00, 0x00, 0x00, 0x0e, 0x00,
  0x18, 0x00, 0x08, 0x00, 0x07, 0x00, 0x0c, 0x00, 0x10, 0x00, 0x14, 0x00,
  0x0e, 0x00, 0x00, 0x00, 0x00, 0x00, 0x00, 0x02, 0x2c, 0x01, 0x00, 0x00,
  0x02, 0x00, 0x00, 0x00, 0xec, 0x00, 0x00, 0x00, 0x10, 0x00, 0x00, 0x00,
  0x0c, 0x00, 0x0c, 0x00, 0x00, 0x00, 0x00, 0x00, 0x04, 0x00, 0x08, 0x00,
  0x0c, 0x00, 0x00, 0x00, 0x90, 0x00, 0x00, 0x00, 0x04, 0x00, 0x00, 0x00,
  0x10, 0x00, 0x00, 0x00, 0x00, 0x00, 0x00, 0x00, 0x00, 0x00, 0x00, 0x00,
  0x00, 0x00, 0x00, 0x00, 0x00, 0x00, 0x00, 0x00, 0x00, 0x00, 0x00, 0x00,
  0x00, 0x00, 0x00, 0x00, 0x00, 0x00, 0x00, 0x00, 0x00, 0x00, 0x00, 0x00,
  0x00, 0x00, 0x00, 0x00, 0x00, 0x00, 0x00, 0x00, 0x00, 0x00, 0x00, 0x00,
  0x00, 0x00, 0x00, 0x00, 0x00, 0x00, 0x00, 0x00, 0x00, 0x00, 0x00, 0x00,
  0x00, 0x00, 0x00, 0x00, 0x00, 0x00, 0x00, 0x00, 0x00, 0x00, 0x00, 0x00,
  0x00, 0x00, 0x00, 0x00, 0x00, 0x00, 0x00, 0x00, 0x00, 0x00, 0x00, 0x00,
  0x00, 0x00, 0x00, 0x00, 0x00, 0x00, 0x00, 0x00, 0x00, 0x00, 0x00, 0x00,
  0x00, 0x00, 0x00, 0x00, 0x00, 0x00, 0x00, 0x00, 0x00, 0x00, 0x00, 0x00,
  0x00, 0x00, 0x00, 0x00, 0x00, 0x00, 0x00, 0x00, 0x00, 0x00, 0x00, 0x00,
  0x00, 0x00, 0x00, 0x00, 0x00, 0x00, 0x00, 0x00, 0x00, 0x00, 0x00, 0x00,
  0x00, 0x00, 0x00, 0x00, 0x10, 0x00, 0x00, 0x00, 0x8e, 0xb6, 0x0a, 0x3b,
  0x79, 0x39, 0x17, 0x3b, 0xf3, 0xf3, 0x35, 0x3b, 0xe9, 0x87, 0xb3, 0x3a,
  0xe0, 0xb2, 0x16, 0x3b, 0x38, 0x46, 0x99, 0x3a, 0x6c, 0x99, 0x0e, 0x3b,
  0xe7, 0x18, 0xc4, 0x3a, 0x04, 0xef, 0x3d, 0x3b, 0x1f, 0x45, 0xd8, 0x3a,
  0x29, 0x3f, 0x28, 0x3b, 0xe1, 0x74, 0x24, 0x3b, 0x50, 0x39, 0x22, 0x3b,
  0x45, 0xa8, 0xce, 0x3a, 0xac, 0xe9, 0x12, 0x3b, 0xe2, 0x9e, 0xd5, 0x3a,
  0x31, 0x00, 0x00, 0x00, 0x73, 0x65, 0x71, 0x75, 0x65, 0x6e, 0x74, 0x69,
  0x61, 0x6c, 0x2f, 0x63, 0x6f, 0x6e, 0x76, 0x32, 0x64, 0x2f, 0x42, 0x69,
  0x61, 0x73, 0x41, 0x64, 0x64, 0x2f, 0x52, 0x65, 0x61, 0x64, 0x56, 0x61,
  0x72, 0x69, 0x61, 0x62, 0x6c, 0x65, 0x4f, 0x70, 0x2f, 0x72, 0x65, 0x73,
  0x6f, 0x75, 0x72, 0x63, 0x65, 0x00, 0x00, 0x00, 0x01, 0x00, 0x00, 0x00,
  0x10, 0x00, 0x00, 0x00, 0x14, 0x00, 0x1c, 0x00, 0x08, 0x00, 0x07, 0x00,
  0x0c, 0x00, 0x10, 0x00, 0x14, 0x00, 0x00, 0x00, 0x00, 0x00, 0x18, 0x00,
  0x14, 0x00, 0x00, 0x00, 0x00, 0x00, 0x00, 0x09, 0x84, 0x00, 0x00, 0x00,
  0x01, 0x00, 0x00, 0x00, 0x68, 0x00, 0x00, 0x00, 0x28, 0x00, 0x00, 0x00,
  0x04, 0x00, 0x00, 0x00, 0x04, 0x00, 0x00, 0x00, 0xff, 0xff, 0xff, 0xff,
  0x72, 0x01, 0x00, 0x00, 0x01, 0x00, 0x00, 0x00, 0x01, 0x00, 0x00, 0x00,
  0x0c, 0x00, 0x14, 0x00, 0x04, 0x00, 0x08, 0x00, 0x0c, 0x00, 0x10, 0x00,
  0x0c, 0x00, 0x00, 0x00, 0x30, 0x00, 0x00, 0x00, 0x24, 0x00, 0x00, 0x00,
  0x18, 0x00, 0x00, 0x00, 0x04, 0x00, 0x00, 0x00, 0x01, 0x00, 0x00, 0x00,
  0x00, 0x00, 0x00, 0x00, 0x00, 0x00, 0x00, 0x00, 0x00, 0x00, 0x00, 0x00,
  0x01, 0x00, 0x00, 0x00, 0x00, 0x00, 0x80, 0x3f, 0x01, 0x00, 0x00, 0x00,
  0x00, 0x00, 0xfe, 0x42, 0x01, 0x00, 0x00, 0x00, 0x00, 0x00, 0x00, 0xc3,
  0x0c, 0x00, 0x00, 0x00, 0x63, 0x6f, 0x6e, 0x76, 0x32, 0x64, 0x5f, 0x69,
  0x6e, 0x70, 0x75, 0x74, 0x00, 0x00, 0x00, 0x00, 0x04, 0x00, 0x00, 0x00,
  0x01, 0x00, 0x00, 0x00, 0x72, 0x01, 0x00, 0x00, 0x01, 0x00, 0x00, 0x00,
  0x01, 0x00, 0x00, 0x00, 0x05, 0x00, 0x00, 0x00, 0x5c, 0x00, 0x00, 0x00,
  0x40, 0x00, 0x00, 0x00, 0x2c, 0x00, 0x00, 0x00, 0x14, 0x00, 0x00, 0x00,
  0x04, 0x00, 0x00, 0x00, 0xc2, 0xff, 0xff, 0xff, 0x00, 0x00, 0x00, 0x19,
  0x02, 0x00, 0x00, 0x00, 0xe6, 0xff, 0xff, 0xff, 0x00, 0x00, 0x00, 0x09,
  0x04, 0x00, 0x00, 0x00, 0x00, 0x00, 0x06, 0x00, 0x06, 0x00, 0x05, 0x00,
  0x06, 0x00, 0x00, 0x00, 0x00, 0x16, 0x0a, 0x00, 0x0e, 0x00, 0x07, 0x00,
  0x00, 0x00, 0x08, 0x00, 0x0a, 0x00, 0x00, 0x00, 0x00, 0x00, 0x00, 0x11,
  0x02, 0x00, 0x00, 0x00, 0x00, 0x00, 0x0a, 0x00, 0x0c, 0x00, 0x07, 0x00,
  0x00, 0x00, 0x08, 0x00, 0x0a, 0x00, 0x00, 0x00, 0x00, 0x00, 0x00, 0x03,
  0x03, 0x00, 0x00, 0x00
};
unsigned int tflite_model_quant_int8_c_tflite_len = 14608;
