unsigned char model_tflite[] = {
  0x20, 0x00, 0x00, 0x00, 0x54, 0x46, 0x4c, 0x33, 0x00, 0x00, 0x00, 0x00,
  0x14, 0x00, 0x20, 0x00, 0x04, 0x00, 0x08, 0x00, 0x0c, 0x00, 0x10, 0x00,
  0x14, 0x00, 0x00, 0x00, 0x18, 0x00, 0x1c, 0x00, 0x14, 0x00, 0x00, 0x00,
  0x03, 0x00, 0x00, 0x00, 0x18, 0x00, 0x00, 0x00, 0x40, 0x00, 0x00, 0x00,
  0xf8, 0x01, 0x00, 0x00, 0x40, 0x00, 0x00, 0x00, 0xa0, 0x01, 0x00, 0x00,
  0x0c, 0x01, 0x00, 0x00, 0x0a, 0x00, 0x00, 0x00, 0x40, 0x18, 0x00, 0x00,
  0x5c, 0x17, 0x00, 0x00, 0x70, 0x16, 0x00, 0x00, 0x3c, 0x15, 0x00, 0x00,
  0xc0, 0x12, 0x00, 0x00, 0xb8, 0x11, 0x00, 0x00, 0x70, 0x06, 0x00, 0x00,
  0x88, 0x05, 0x00, 0x00, 0xf8, 0x03, 0x00, 0x00, 0x60, 0x03, 0x00, 0x00,
  0x01, 0x00, 0x00, 0x00, 0xdc, 0x01, 0x00, 0x00, 0x34, 0x00, 0x00, 0x00,
  0xb4, 0x68, 0x00, 0x00, 0xb0, 0x68, 0x00, 0x00, 0xb8, 0x67, 0x00, 0x00,
  0x1c, 0x67, 0x00, 0x00, 0x90, 0x66, 0x00, 0x00, 0xa0, 0x65, 0x00, 0x00,
  0xc8, 0x64, 0x00, 0x00, 0xf8, 0x62, 0x00, 0x00, 0x1c, 0x62, 0x00, 0x00,
  0x10, 0x61, 0x00, 0x00, 0x2c, 0x60, 0x00, 0x00, 0xf8, 0x5c, 0x00, 0x00,
  0x9c, 0x5b, 0x00, 0x00, 0x68, 0x56, 0x00, 0x00, 0x0c, 0x55, 0x00, 0x00,
  0x98, 0x53, 0x00, 0x00, 0x34, 0x52, 0x00, 0x00, 0x40, 0x48, 0x00, 0x00,
  0xe4, 0x45, 0x00, 0x00, 0xf0, 0x33, 0x00, 0x00, 0x94, 0x31, 0x00, 0x00,
  0x30, 0x2f, 0x00, 0x00, 0xcc, 0x2c, 0x00, 0x00, 0x20, 0x2c, 0x00, 0x00,
  0x74, 0x2b, 0x00, 0x00, 0x00, 0x1b, 0x00, 0x00, 0x9c, 0x19, 0x00, 0x00,
  0xa4, 0x18, 0x00, 0x00, 0x38, 0x18, 0x00, 0x00, 0x40, 0x68, 0x00, 0x00,
  0x3c, 0x68, 0x00, 0x00, 0x38, 0x68, 0x00, 0x00, 0x34, 0x68, 0x00, 0x00,
  0x30, 0x68, 0x00, 0x00, 0x2c, 0x68, 0x00, 0x00, 0x28, 0x68, 0x00, 0x00,
  0x24, 0x68, 0x00, 0x00, 0x20, 0x68, 0x00, 0x00, 0x1c, 0x68, 0x00, 0x00,
  0x18, 0x68, 0x00, 0x00, 0x14, 0x68, 0x00, 0x00, 0x10, 0x68, 0x00, 0x00,
  0x0c, 0x68, 0x00, 0x00, 0x08, 0x68, 0x00, 0x00, 0x04, 0x68, 0x00, 0x00,
  0x00, 0x68, 0x00, 0x00, 0xfc, 0x67, 0x00, 0x00, 0xf8, 0x67, 0x00, 0x00,
  0xf4, 0x67, 0x00, 0x00, 0xf0, 0x67, 0x00, 0x00, 0xec, 0x67, 0x00, 0x00,
  0xc8, 0x00, 0x00, 0x00, 0x01, 0x00, 0x00, 0x00, 0x10, 0x00, 0x00, 0x00,
  0x00, 0x00, 0x0a, 0x00, 0x10, 0x00, 0x0c, 0x00, 0x08, 0x00, 0x04, 0x00,
  0x0a, 0x00, 0x00, 0x00, 0x0c, 0x00, 0x00, 0x00, 0x1c, 0x00, 0x00, 0x00,
  0x20, 0x00, 0x00, 0x00, 0x0f, 0x00, 0x00, 0x00, 0x73, 0x65, 0x72, 0x76,
  0x69, 0x6e, 0x67, 0x5f, 0x64, 0x65, 0x66, 0x61, 0x75, 0x6c, 0x74, 0x00,
  0x01, 0x00, 0x00, 0x00, 0x14, 0x00, 0x00, 0x00, 0x01, 0x00, 0x00, 0x00,
  0x24, 0x00, 0x00, 0x00, 0x08, 0x00, 0x0c, 0x00, 0x08, 0x00, 0x04, 0x00,
  0x08, 0x00, 0x00, 0x00, 0x31, 0x00, 0x00, 0x00, 0x04, 0x00, 0x00, 0x00,
  0x07, 0x00, 0x00, 0x00, 0x64, 0x65, 0x6e, 0x73, 0x65, 0x5f, 0x31, 0x00,
  0x7e, 0x99, 0xff, 0xff, 0x04, 0x00, 0x00, 0x00, 0x19, 0x00, 0x00, 0x00,
  0x62, 0x61, 0x74, 0x63, 0x68, 0x5f, 0x6e, 0x6f, 0x72, 0x6d, 0x61, 0x6c,
  0x69, 0x7a, 0x61, 0x74, 0x69, 0x6f, 0x6e, 0x5f, 0x69, 0x6e, 0x70, 0x75,
  0x74, 0x00, 0x00, 0x00, 0x01, 0x00, 0x00, 0x00, 0x0c, 0x00, 0x00, 0x00,
  0x08, 0x00, 0x0c, 0x00, 0x04, 0x00, 0x08, 0x00, 0x08, 0x00, 0x00, 0x00,
  0x08, 0x00, 0x00, 0x00, 0x33, 0x00, 0x00, 0x00, 0x13, 0x00, 0x00, 0x00,
  0x6d, 0x69, 0x6e, 0x5f, 0x72, 0x75, 0x6e, 0x74, 0x69, 0x6d, 0x65, 0x5f,
  0x76, 0x65, 0x72, 0x73, 0x69, 0x6f, 0x6e, 0x00, 0xda, 0x99, 0xff, 0xff,
  0x04, 0x00, 0x00, 0x00, 0x10, 0x00, 0x00, 0x00, 0x31, 0x2e, 0x31, 0x34,
  0x2e, 0x30, 0x00, 0x00, 0x00, 0x00, 0x00, 0x00, 0x00, 0x00, 0x00, 0x00,
  0x0f, 0x00, 0x00, 0x00, 0x4d, 0x4c, 0x49, 0x52, 0x20, 0x43, 0x6f, 0x6e,
  0x76, 0x65, 0x72, 0x74, 0x65, 0x64, 0x2e, 0x00, 0x00, 0x00, 0x0e, 0x00,
  0x18, 0x00, 0x04, 0x00, 0x08, 0x00, 0x0c, 0x00, 0x10, 0x00, 0x14, 0x00,
  0x0e, 0x00, 0x00, 0x00, 0x14, 0x00, 0x00, 0x00, 0xdc, 0x00, 0x00, 0x00,
  0xe0, 0x00, 0x00, 0x00, 0xe4, 0x00, 0x00, 0x00, 0x3c, 0x01, 0x00, 0x00,
  0x32, 0x00, 0x00, 0x00, 0x4c, 0x66, 0x00, 0x00, 0xf0, 0x65, 0x00, 0x00,
  0x40, 0x65, 0x00, 0x00, 0xb4, 0x64, 0x00, 0x00, 0xe0, 0x63, 0x00, 0x00,
  0x08, 0x63, 0x00, 0x00, 0x18, 0x62, 0x00, 0x00, 0x5c, 0x60, 0x00, 0x00,
  0x48, 0x5f, 0x00, 0x00, 0x6c, 0x5e, 0x00, 0x00, 0x18, 0x5d, 0x00, 0x00,
  0xfc, 0x59, 0x00, 0x00, 0x88, 0x58, 0x00, 0x00, 0x6c, 0x53, 0x00, 0x00,
  0xe8, 0x51, 0x00, 0x00, 0x94, 0x50, 0x00, 0x00, 0x60, 0x4e, 0x00, 0x00,
  0x84, 0x44, 0x00, 0x00, 0x10, 0x42, 0x00, 0x00, 0x34, 0x30, 0x00, 0x00,
  0xb0, 0x2d, 0x00, 0x00, 0x6c, 0x2b, 0x00, 0x00, 0x60, 0x2a, 0x00, 0x00,
  0xb4, 0x29, 0x00, 0x00, 0x20, 0x29, 0x00, 0x00, 0xbc, 0x18, 0x00, 0x00,
  0x44, 0x17, 0x00, 0x00, 0x60, 0x16, 0x00, 0x00, 0xd0, 0x15, 0x00, 0x00,
  0xd8, 0x14, 0x00, 0x00, 0xe4, 0x13, 0x00, 0x00, 0xb8, 0x12, 0x00, 0x00,
  0x6c, 0x11, 0x00, 0x00, 0x38, 0x10, 0x00, 0x00, 0x30, 0x0f, 0x00, 0x00,
  0xdc, 0x0d, 0x00, 0x00, 0xa8, 0x0c, 0x00, 0x00, 0x70, 0x0b, 0x00, 0x00,
  0x98, 0x0a, 0x00, 0x00, 0x64, 0x09, 0x00, 0x00, 0x30, 0x08, 0x00, 0x00,
  0xf8, 0x06, 0x00, 0x00, 0x20, 0x06, 0x00, 0x00, 0x40, 0x05, 0x00, 0x00,
  0x6c, 0x04, 0x00, 0x00, 0xc0, 0x03, 0x00, 0x00, 0xd8, 0x02, 0x00, 0x00,
  0xf4, 0x01, 0x00, 0x00, 0x44, 0x01, 0x00, 0x00, 0xac, 0x00, 0x00, 0x00,
  0x01, 0x00, 0x00, 0x00, 0x00, 0x00, 0x00, 0x00, 0x01, 0x00, 0x00, 0x00,
  0x31, 0x00, 0x00, 0x00, 0x16, 0x00, 0x00, 0x00, 0x18, 0x15, 0x00, 0x00,
  0x2c, 0x14, 0x00, 0x00, 0x34, 0x13, 0x00, 0x00, 0xf0, 0x11, 0x00, 0x00,
  0xc0, 0x10, 0x00, 0x00, 0x68, 0x0f, 0x00, 0x00, 0x68, 0x0e, 0x00, 0x00,
  0x30, 0x0d, 0x00, 0x00, 0xfc, 0x0b, 0x00, 0x00, 0xc0, 0x0a, 0x00, 0x00,
  0xf0, 0x09, 0x00, 0x00, 0xb8, 0x08, 0x00, 0x00, 0x84, 0x07, 0x00, 0x00,
  0x48, 0x06, 0x00, 0x00, 0x78, 0x05, 0x00, 0x00, 0xa4, 0x04, 0x00, 0x00,
  0xd0, 0x03, 0x00, 0x00, 0x20, 0x03, 0x00, 0x00, 0x1c, 0x02, 0x00, 0x00,
  0x54, 0x01, 0x00, 0x00, 0x98, 0x00, 0x00, 0x00, 0x10, 0x00, 0x00, 0x00,
  0x04, 0x00, 0x00, 0x00, 0x6d, 0x61, 0x69, 0x6e, 0x00, 0x00, 0x00, 0x00,
  0x0a, 0xfd, 0xff, 0xff, 0x09, 0x00, 0x00, 0x00, 0x10, 0x00, 0x00, 0x00,
  0x04, 0x00, 0x00, 0x00, 0x01, 0x00, 0x00, 0x00, 0x31, 0x00, 0x00, 0x00,
  0x01, 0x00, 0x00, 0x00, 0x30, 0x00, 0x00, 0x00, 0x50, 0xeb, 0xff, 0xff,
  0x06, 0x00, 0x00, 0x00, 0x00, 0x00, 0x00, 0x06, 0x02, 0x00, 0x00, 0x00,
  0x38, 0x9b, 0xff, 0xff, 0x14, 0x00, 0x00, 0x00, 0x32, 0x00, 0x00, 0x00,
  0x18, 0x00, 0x00, 0x00, 0x40, 0x00, 0x00, 0x00, 0x30, 0x00, 0x00, 0x00,
  0x02, 0x00, 0x00, 0x00, 0x01, 0x00, 0x00, 0x00, 0x02, 0x00, 0x00, 0x00,
  0x19, 0x00, 0x00, 0x00, 0x53, 0x74, 0x61, 0x74, 0x65, 0x66, 0x75, 0x6c,
  0x50, 0x61, 0x72, 0x74, 0x69, 0x74, 0x69, 0x6f, 0x6e, 0x65, 0x64, 0x43,
  0x61, 0x6c, 0x6c, 0x3a, 0x30, 0x00, 0x00, 0x00, 0x02, 0x00, 0x00, 0x00,
  0xff, 0xff, 0xff, 0xff, 0x02, 0x00, 0x00, 0x00, 0x00, 0x9b, 0xff, 0xff,
  0xc6, 0xec, 0xff, 0xff, 0x00, 0x00, 0x00, 0x09, 0x08, 0x00, 0x00, 0x00,
  0x1c, 0x00, 0x00, 0x00, 0x10, 0x00, 0x00, 0x00, 0x04, 0x00, 0x00, 0x00,
  0x12, 0x9c, 0xff, 0xff, 0x00, 0x00, 0x80, 0x3f, 0x01, 0x00, 0x00, 0x00,
  0x30, 0x00, 0x00, 0x00, 0x01, 0x00, 0x00, 0x00, 0x2f, 0x00, 0x00, 0x00,
  0xe4, 0xeb, 0xff, 0xff, 0x19, 0x00, 0x00, 0x00, 0x00, 0x00, 0x00, 0x19,
  0x02, 0x00, 0x00, 0x00, 0xd8, 0xeb, 0xff, 0xff, 0x00, 0x00, 0x00, 0x09,
  0x14, 0x00, 0x00, 0x00, 0x31, 0x00, 0x00, 0x00, 0x18, 0x00, 0x00, 0x00,
  0x40, 0x00, 0x00, 0x00, 0x30, 0x00, 0x00, 0x00, 0x02, 0x00, 0x00, 0x00,
  0x01, 0x00, 0x00, 0x00, 0x02, 0x00, 0x00, 0x00, 0x1a, 0x00, 0x00, 0x00,
  0x53, 0x74, 0x61, 0x74, 0x65, 0x66, 0x75, 0x6c, 0x50, 0x61, 0x72, 0x74,
  0x69, 0x74, 0x69, 0x6f, 0x6e, 0x65, 0x64, 0x43, 0x61, 0x6c, 0x6c, 0x3a,
  0x30, 0x31, 0x00, 0x00, 0x02, 0x00, 0x00, 0x00, 0xff, 0xff, 0xff, 0xff,
  0x02, 0x00, 0x00, 0x00, 0xbc, 0x9c, 0xff, 0xff, 0x08, 0x00, 0x00, 0x00,
  0x0c, 0x00, 0x00, 0x00, 0x01, 0x00, 0x00, 0x00, 0x00, 0x00, 0x80, 0x3b,
  0x01, 0x00, 0x00, 0x00, 0x80, 0xff, 0xff, 0xff, 0xff, 0xff, 0xff, 0xff,
  0x00, 0x00, 0x00, 0x00, 0x7e, 0xed, 0xff, 0xff, 0x00, 0x00, 0x00, 0x08,
  0x07, 0x00, 0x00, 0x00, 0x18, 0x00, 0x00, 0x00, 0x0c, 0x00, 0x00, 0x00,
  0x04, 0x00, 0x00, 0x00, 0xd4, 0x9b, 0xff, 0xff, 0x01, 0x00, 0x00, 0x00,
  0x2f, 0x00, 0x00, 0x00, 0x03, 0x00, 0x00, 0x00, 0x2e, 0x00, 0x00, 0x00,
  0x1a, 0x00, 0x00, 0x00, 0x1b, 0x00, 0x00, 0x00, 0x84, 0xec, 0xff, 0xff,
  0x00, 0x00, 0x00, 0x09, 0x14, 0x00, 0x00, 0x00, 0x30, 0x00, 0x00, 0x00,
  0x18, 0x00, 0x00, 0x00, 0x5c, 0x00, 0x00, 0x00, 0x4c, 0x00, 0x00, 0x00,
  0x02, 0x00, 0x00, 0x00, 0x01, 0x00, 0x00, 0x00, 0x02, 0x00, 0x00, 0x00,
  0x34, 0x00, 0x00, 0x00, 0x73, 0x65, 0x71, 0x75, 0x65, 0x6e, 0x74, 0x69,
  0x61, 0x6c, 0x2f, 0x64, 0x65, 0x6e, 0x73, 0x65, 0x5f, 0x31, 0x2f, 0x4d,
  0x61, 0x74, 0x4d, 0x75, 0x6c, 0x3b, 0x73, 0x65, 0x71, 0x75, 0x65, 0x6e,
  0x74, 0x69, 0x61, 0x6c, 0x2f, 0x64, 0x65, 0x6e, 0x73, 0x65, 0x5f, 0x31,
  0x2f, 0x42, 0x69, 0x61, 0x73, 0x41, 0x64, 0x64, 0x00, 0x00, 0x00, 0x00,
  0x02, 0x00, 0x00, 0x00, 0xff, 0xff, 0xff, 0xff, 0x02, 0x00, 0x00, 0x00,
  0x84, 0x9d, 0xff, 0xff, 0x08, 0x00, 0x00, 0x00, 0x0c, 0x00, 0x00, 0x00,
  0x01, 0x00, 0x00, 0x00, 0xf9, 0x67, 0x9e, 0x3d, 0x01, 0x00, 0x00, 0x00,
  0xff, 0xff, 0xff, 0xff, 0xff, 0xff, 0xff, 0xff, 0xf6, 0xf2, 0xff, 0xff,
  0x00, 0x00, 0x00, 0x08, 0x07, 0x00, 0x00, 0x00, 0x24, 0x00, 0x00, 0x00,
  0x18, 0x00, 0x00, 0x00, 0x0c, 0x00, 0x00, 0x00, 0x00, 0x00, 0x06, 0x00,
  0x08, 0x00, 0x07, 0x00, 0x06, 0x00, 0x00, 0x00, 0x00, 0x00, 0x00, 0x01,
  0x01, 0x00, 0x00, 0x00, 0x2e, 0x00, 0x00, 0x00, 0x03, 0x00, 0x00, 0x00,
  0x2d, 0x00, 0x00, 0x00, 0x18, 0x00, 0x00, 0x00, 0x19, 0x00, 0x00, 0x00,
  0x70, 0xed, 0xff, 0xff, 0x09, 0x00, 0x00, 0x00, 0x00, 0x00, 0x00, 0x09,
  0x04, 0x00, 0x00, 0x00, 0x64, 0xed, 0xff, 0xff, 0x00, 0x00, 0x00, 0x09,
  0x14, 0x00, 0x00, 0x00, 0x2f, 0x00, 0x00, 0x00, 0x18, 0x00, 0x00, 0x00,
  0x6c, 0x00, 0x00, 0x00, 0x5c, 0x00, 0x00, 0x00, 0x02, 0x00, 0x00, 0x00,
  0x01, 0x00, 0x00, 0x00, 0x40, 0x00, 0x00, 0x00, 0x46, 0x00, 0x00, 0x00,
  0x73, 0x65, 0x71, 0x75, 0x65, 0x6e, 0x74, 0x69, 0x61, 0x6c, 0x2f, 0x64,
  0x65, 0x6e, 0x73, 0x65, 0x2f, 0x4d, 0x61, 0x74, 0x4d, 0x75, 0x6c, 0x3b,
  0x73, 0x65, 0x71, 0x75, 0x65, 0x6e, 0x74, 0x69, 0x61, 0x6c, 0x2f, 0x64,
  0x65, 0x6e, 0x73, 0x65, 0x2f, 0x52, 0x65, 0x6c, 0x75, 0x3b, 0x73, 0x65,
  0x71, 0x75, 0x65, 0x6e, 0x74, 0x69, 0x61, 0x6c, 0x2f, 0x64, 0x65, 0x6e,
  0x73, 0x65, 0x2f, 0x42, 0x69, 0x61, 0x73, 0x41, 0x64, 0x64, 0x00, 0x00,
  0x02, 0x00, 0x00, 0x00, 0xff, 0xff, 0xff, 0xff, 0x40, 0x00, 0x00, 0x00,
  0x74, 0x9e, 0xff, 0xff, 0x08, 0x00, 0x00, 0x00, 0x0c, 0x00, 0x00, 0x00,
  0x01, 0x00, 0x00, 0x00, 0xc7, 0x70, 0xa2, 0x3e, 0x01, 0x00, 0x00, 0x00,
  0x80, 0xff, 0xff, 0xff, 0xff, 0xff, 0xff, 0xff, 0x00, 0x00, 0x00, 0x00,
  0x00, 0x00, 0x0a, 0x00, 0x10, 0x00, 0x04, 0x00, 0x08, 0x00, 0x0c, 0x00,
  0x0a, 0x00, 0x00, 0x00, 0x06, 0x00, 0x00, 0x00, 0x10, 0x00, 0x00, 0x00,
  0x04, 0x00, 0x00, 0x00, 0x01, 0x00, 0x00, 0x00, 0x2d, 0x00, 0x00, 0x00,
  0x02, 0x00, 0x00, 0x00, 0x2c, 0x00, 0x00, 0x00, 0x01, 0x00, 0x00, 0x00,
  0x54, 0xee, 0xff, 0xff, 0x16, 0x00, 0x00, 0x00, 0x00, 0x00, 0x00, 0x16,
  0x01, 0x00, 0x00, 0x00, 0x48, 0xee, 0xff, 0xff, 0x00, 0x00, 0x00, 0x09,
  0x14, 0x00, 0x00, 0x00, 0x2e, 0x00, 0x00, 0x00, 0x18, 0x00, 0x00, 0x00,
  0x40, 0x00, 0x00, 0x00, 0x30, 0x00, 0x00, 0x00, 0x02, 0x00, 0x00, 0x00,
  0x01, 0x00, 0x00, 0x00, 0x40, 0x00, 0x00, 0x00, 0x1a, 0x00, 0x00, 0x00,
  0x73, 0x65, 0x71, 0x75, 0x65, 0x6e, 0x74, 0x69, 0x61, 0x6c, 0x2f, 0x66,
  0x6c, 0x61, 0x74, 0x74, 0x65, 0x6e, 0x2f, 0x52, 0x65, 0x73, 0x68, 0x61,
  0x70, 0x65, 0x00, 0x00, 0x02, 0x00, 0x00, 0x00, 0xff, 0xff, 0xff, 0xff,
  0x40, 0x00, 0x00, 0x00, 0x2c, 0x9f, 0xff, 0xff, 0x08, 0x00, 0x00, 0x00,
  0x0c, 0x00, 0x00, 0x00, 0x01, 0x00, 0x00, 0x00, 0x9d, 0xe0, 0xab, 0x3d,
  0x01, 0x00, 0x00, 0x00, 0x94, 0xff, 0xff, 0xff, 0xff, 0xff, 0xff, 0xff,
  0x00, 0x00, 0x00, 0x00, 0xee, 0xef, 0xff, 0xff, 0x00, 0x00, 0x00, 0x0b,
  0x02, 0x00, 0x00, 0x00, 0x18, 0x00, 0x00, 0x00, 0x0c, 0x00, 0x00, 0x00,
  0x04, 0x00, 0x00, 0x00, 0x44, 0x9e, 0xff, 0xff, 0x01, 0x00, 0x00, 0x00,
  0x2c, 0x00, 0x00, 0x00, 0x02, 0x00, 0x00, 0x00, 0x2b, 0x00, 0x00, 0x00,
  0x17, 0x00, 0x00, 0x00, 0xf0, 0xee, 0xff, 0xff, 0x00, 0x00, 0x00, 0x09,
  0x14, 0x00, 0x00, 0x00, 0x2d, 0x00, 0x00, 0x00, 0x20, 0x00, 0x00, 0x00,
  0x68, 0x00, 0x00, 0x00, 0x50, 0x00, 0x00, 0x00, 0x04, 0x00, 0x00, 0x00,
  0x01, 0x00, 0x00, 0x00, 0x02, 0x00, 0x00, 0x00, 0x01, 0x00, 0x00, 0x00,
  0x20, 0x00, 0x00, 0x00, 0x32, 0x00, 0x00, 0x00, 0x73, 0x65, 0x71, 0x75,
  0x65, 0x6e, 0x74, 0x69, 0x61, 0x6c, 0x2f, 0x62, 0x61, 0x74, 0x63, 0x68,
  0x5f, 0x6e, 0x6f, 0x72, 0x6d, 0x61, 0x6c, 0x69, 0x7a, 0x61, 0x74, 0x69,
  0x6f, 0x6e, 0x5f, 0x31, 0x2f, 0x46, 0x75, 0x73, 0x65, 0x64, 0x42, 0x61,
  0x74, 0x63, 0x68, 0x4e, 0x6f, 0x72, 0x6d, 0x56, 0x33, 0x33, 0x00, 0x00,
  0x04, 0x00, 0x00, 0x00, 0xff, 0xff, 0xff, 0xff, 0x02, 0x00, 0x00, 0x00,
  0x01, 0x00, 0x00, 0x00, 0x20, 0x00, 0x00, 0x00, 0xfc, 0x9f, 0xff, 0xff,
  0x08, 0x00, 0x00, 0x00, 0x0c, 0x00, 0x00, 0x00, 0x01, 0x00, 0x00, 0x00,
  0x9d, 0xe0, 0xab, 0x3d, 0x01, 0x00, 0x00, 0x00, 0x94, 0xff, 0xff, 0xff,
  0xff, 0xff, 0xff, 0xff, 0x00, 0x00, 0x00, 0x00, 0xbe, 0xf0, 0xff, 0xff,
  0x00, 0x00, 0x00, 0x15, 0x01, 0x00, 0x00, 0x00, 0x18, 0x00, 0x00, 0x00,
  0x0c, 0x00, 0x00, 0x00, 0x04, 0x00, 0x00, 0x00, 0x14, 0x9f, 0xff, 0xff,
  0x01, 0x00, 0x00, 0x00, 0x2b, 0x00, 0x00, 0x00, 0x02, 0x00, 0x00, 0x00,
  0x2a, 0x00, 0x00, 0x00, 0x16, 0x00, 0x00, 0x00, 0xc0, 0xef, 0xff, 0xff,
  0x00, 0x00, 0x00, 0x09, 0x14, 0x00, 0x00, 0x00, 0x2c, 0x00, 0x00, 0x00,
  0x20, 0x00, 0x00, 0x00, 0x68, 0x00, 0x00, 0x00, 0x50, 0x00, 0x00, 0x00,
  0x04, 0x00, 0x00, 0x00, 0x01, 0x00, 0x00, 0x00, 0x02, 0x00, 0x00, 0x00,
  0x01, 0x00, 0x00, 0x00, 0x20, 0x00, 0x00, 0x00, 0x32, 0x00, 0x00, 0x00,
  0x73, 0x65, 0x71, 0x75, 0x65, 0x6e, 0x74, 0x69, 0x61, 0x6c, 0x2f, 0x62,
  0x61, 0x74, 0x63, 0x68, 0x5f, 0x6e, 0x6f, 0x72, 0x6d, 0x61, 0x6c, 0x69,
  0x7a, 0x61, 0x74, 0x69, 0x6f, 0x6e, 0x5f, 0x31, 0x2f, 0x46, 0x75, 0x73,
  0x65, 0x64, 0x42, 0x61, 0x74, 0x63, 0x68, 0x4e, 0x6f, 0x72, 0x6d, 0x56,
  0x33, 0x32, 0x00, 0x00, 0x04, 0x00, 0x00, 0x00, 0xff, 0xff, 0xff, 0xff,
  0x02, 0x00, 0x00, 0x00, 0x01, 0x00, 0x00, 0x00, 0x20, 0x00, 0x00, 0x00,
  0xcc, 0xa0, 0xff, 0xff, 0x08, 0x00, 0x00, 0x00, 0x0c, 0x00, 0x00, 0x00,
  0x01, 0x00, 0x00, 0x00, 0x9d, 0xe0, 0xab, 0x3d, 0x01, 0x00, 0x00, 0x00,
  0x80, 0xff, 0xff, 0xff, 0xff, 0xff, 0xff, 0xff, 0x00, 0x00, 0x00, 0x00,
  0x8e, 0xf1, 0xff, 0xff, 0x00, 0x00, 0x00, 0x05, 0x05, 0x00, 0x00, 0x00,
  0x28, 0x00, 0x00, 0x00, 0x1c, 0x00, 0x00, 0x00, 0x04, 0x00, 0x00, 0x00,
  0x2e, 0xf7, 0xff, 0xff, 0x01, 0x00, 0x00, 0x00, 0x02, 0x00, 0x00, 0x00,
  0x01, 0x00, 0x00, 0x00, 0x02, 0x00, 0x00, 0x00, 0x01, 0x00, 0x00, 0x00,
  0x2a, 0x00, 0x00, 0x00, 0x01, 0x00, 0x00, 0x00, 0x29, 0x00, 0x00, 0x00,
  0x9c, 0xf0, 0xff, 0xff, 0x00, 0x00, 0x00, 0x09, 0x14, 0x00, 0x00, 0x00,
  0x2b, 0x00, 0x00, 0x00, 0x20, 0x00, 0x00, 0x00, 0x5c, 0x00, 0x00, 0x00,
  0x44, 0x00, 0x00, 0x00, 0x04, 0x00, 0x00, 0x00, 0x01, 0x00, 0x00, 0x00,
  0x02, 0x00, 0x00, 0x00, 0x01, 0x00, 0x00, 0x00, 0x20, 0x00, 0x00, 0x00,
  0x26, 0x00, 0x00, 0x00, 0x73, 0x65, 0x71, 0x75, 0x65, 0x6e, 0x74, 0x69,
  0x61, 0x6c, 0x2f, 0x61, 0x76, 0x65, 0x72, 0x61, 0x67, 0x65, 0x5f, 0x70,
  0x6f, 0x6f, 0x6c, 0x69, 0x6e, 0x67, 0x32, 0x64, 0x5f, 0x32, 0x2f, 0x41,
  0x76, 0x67, 0x50, 0x6f, 0x6f, 0x6c, 0x00, 0x00, 0x04, 0x00, 0x00, 0x00,
  0xff, 0xff, 0xff, 0xff, 0x02, 0x00, 0x00, 0x00, 0x01, 0x00, 0x00, 0x00,
  0x20, 0x00, 0x00, 0x00, 0x9c, 0xa1, 0xff, 0xff, 0x08, 0x00, 0x00, 0x00,
  0x0c, 0x00, 0x00, 0x00, 0x01, 0x00, 0x00, 0x00, 0xac, 0x25, 0xf2, 0x3d,
  0x01, 0x00, 0x00, 0x00, 0x80, 0xff, 0xff, 0xff, 0xff, 0xff, 0xff, 0xff,
  0x5a, 0xf2, 0xff, 0xff, 0x00, 0x00, 0x00, 0x02, 0x04, 0x00, 0x00, 0x00,
  0x28, 0x00, 0x00, 0x00, 0x1c, 0x00, 0x00, 0x00, 0x04, 0x00, 0x00, 0x00,
  0xfe, 0xf6, 0xff, 0xff, 0x01, 0x00, 0x00, 0x00, 0x02, 0x00, 0x00, 0x00,
  0x02, 0x00, 0x00, 0x00, 0x00, 0x00, 0x00, 0x01, 0x01, 0x00, 0x00, 0x00,
  0x29, 0x00, 0x00, 0x00, 0x03, 0x00, 0x00, 0x00, 0x28, 0x00, 0x00, 0x00,
  0x14, 0x00, 0x00, 0x00, 0x15, 0x00, 0x00, 0x00, 0x70, 0xf1, 0xff, 0xff,
  0x00, 0x00, 0x00, 0x09, 0x14, 0x00, 0x00, 0x00, 0x2a, 0x00, 0x00, 0x00,
  0x20, 0x00, 0x00, 0x00, 0xc0, 0x00, 0x00, 0x00, 0xa8, 0x00, 0x00, 0x00,
  0x04, 0x00, 0x00, 0x00, 0x01, 0x00, 0x00, 0x00, 0x03, 0x00, 0x00, 0x00,
  0x01, 0x00, 0x00, 0x00, 0x20, 0x00, 0x00, 0x00, 0x88, 0x00, 0x00, 0x00,
  0x73, 0x65, 0x71, 0x75, 0x65, 0x6e, 0x74, 0x69, 0x61, 0x6c, 0x2f, 0x64,
  0x65, 0x70, 0x74, 0x68, 0x77, 0x69, 0x73, 0x65, 0x5f, 0x63, 0x6f, 0x6e,
  0x76, 0x32, 0x64, 0x5f, 0x32, 0x2f, 0x52, 0x65, 0x6c, 0x75, 0x3b, 0x73,
  0x65, 0x71, 0x75, 0x65, 0x6e, 0x74, 0x69, 0x61, 0x6c, 0x2f, 0x64, 0x65,
  0x70, 0x74, 0x68, 0x77, 0x69, 0x73, 0x65, 0x5f, 0x63, 0x6f, 0x6e, 0x76,
  0x32, 0x64, 0x5f, 0x32, 0x2f, 0x42, 0x69, 0x61, 0x73, 0x41, 0x64, 0x64,
  0x3b, 0x73, 0x65, 0x71, 0x75, 0x65, 0x6e, 0x74, 0x69, 0x61, 0x6c, 0x2f,
  0x64, 0x65, 0x70, 0x74, 0x68, 0x77, 0x69, 0x73, 0x65, 0x5f, 0x63, 0x6f,
  0x6e, 0x76, 0x32, 0x64, 0x5f, 0x32, 0x2f, 0x64, 0x65, 0x70, 0x74, 0x68,
  0x77, 0x69, 0x73, 0x65, 0x3b, 0x64, 0x65, 0x70, 0x74, 0x68, 0x77, 0x69,
  0x73, 0x65, 0x5f, 0x63, 0x6f, 0x6e, 0x76, 0x32, 0x64, 0x5f, 0x32, 0x2f,
  0x62, 0x69, 0x61, 0x73, 0x00, 0x00, 0x00, 0x00, 0x04, 0x00, 0x00, 0x00,
  0xff, 0xff, 0xff, 0xff, 0x03, 0x00, 0x00, 0x00, 0x01, 0x00, 0x00, 0x00,
  0x20, 0x00, 0x00, 0x00, 0xd4, 0xa2, 0xff, 0xff, 0x08, 0x00, 0x00, 0x00,
  0x0c, 0x00, 0x00, 0x00, 0x01, 0x00, 0x00, 0x00, 0xac, 0x25, 0xf2, 0x3d,
  0x01, 0x00, 0x00, 0x00, 0x80, 0xff, 0xff, 0xff, 0xff, 0xff, 0xff, 0xff,
  0x92, 0xf3, 0xff, 0xff, 0x00, 0x00, 0x00, 0x01, 0x03, 0x00, 0x00, 0x00,
  0x24, 0x00, 0x00, 0x00, 0x18, 0x00, 0x00, 0x00, 0x04, 0x00, 0x00, 0x00,
  0xb8, 0xf5, 0xff, 0xff, 0x02, 0x00, 0x00, 0x00, 0x02, 0x00, 0x00, 0x00,
  0x00, 0x00, 0x00, 0x01, 0x01, 0x00, 0x00, 0x00, 0x28, 0x00, 0x00, 0x00,
  0x03, 0x00, 0x00, 0x00, 0x27, 0x00, 0x00, 0x00, 0x12, 0x00, 0x00, 0x00,
  0x13, 0x00, 0x00, 0x00, 0xa4, 0xf2, 0xff, 0xff, 0x00, 0x00, 0x00, 0x09,
  0x14, 0x00, 0x00, 0x00, 0x29, 0x00, 0x00, 0x00, 0x20, 0x00, 0x00, 0x00,
  0xbc, 0x00, 0x00, 0x00, 0xa4, 0x00, 0x00, 0x00, 0x04, 0x00, 0x00, 0x00,
  0x01, 0x00, 0x00, 0x00, 0x06, 0x00, 0x00, 0x00, 0x01, 0x00, 0x00, 0x00,
  0x20, 0x00, 0x00, 0x00, 0x85, 0x00, 0x00, 0x00, 0x73, 0x65, 0x71, 0x75,
  0x65, 0x6e, 0x74, 0x69, 0x61, 0x6c, 0x2f, 0x63, 0x6f, 0x6e, 0x76, 0x32,
  0x64, 0x5f, 0x35, 0x2f, 0x52, 0x65, 0x6c, 0x75, 0x3b, 0x73, 0x65, 0x71,
  0x75, 0x65, 0x6e, 0x74, 0x69, 0x61, 0x6c, 0x2f, 0x63, 0x6f, 0x6e, 0x76,
  0x32, 0x64, 0x5f, 0x35, 0x2f, 0x42, 0x69, 0x61, 0x73, 0x41, 0x64, 0x64,
  0x3b, 0x73, 0x65, 0x71, 0x75, 0x65, 0x6e, 0x74, 0x69, 0x61, 0x6c, 0x2f,
  0x64, 0x65, 0x70, 0x74, 0x68, 0x77, 0x69, 0x73, 0x65, 0x5f, 0x63, 0x6f,
  0x6e, 0x76, 0x32, 0x64, 0x5f, 0x32, 0x2f, 0x64, 0x65, 0x70, 0x74, 0x68,
  0x77, 0x69, 0x73, 0x65, 0x3b, 0x73, 0x65, 0x71, 0x75, 0x65, 0x6e, 0x74,
  0x69, 0x61, 0x6c, 0x2f, 0x63, 0x6f, 0x6e, 0x76, 0x32, 0x64, 0x5f, 0x35,
  0x2f, 0x43, 0x6f, 0x6e, 0x76, 0x32, 0x44, 0x3b, 0x63, 0x6f, 0x6e, 0x76,
  0x32, 0x64, 0x5f, 0x35, 0x2f, 0x62, 0x69, 0x61, 0x73, 0x00, 0x00, 0x00,
  0x04, 0x00, 0x00, 0x00, 0xff, 0xff, 0xff, 0xff, 0x06, 0x00, 0x00, 0x00,
  0x01, 0x00, 0x00, 0x00, 0x20, 0x00, 0x00, 0x00, 0x04, 0xa4, 0xff, 0xff,
  0x08, 0x00, 0x00, 0x00, 0x0c, 0x00, 0x00, 0x00, 0x01, 0x00, 0x00, 0x00,
  0x6b, 0xac, 0x6e, 0x3e, 0x01, 0x00, 0x00, 0x00, 0x80, 0xff, 0xff, 0xff,
  0xff, 0xff, 0xff, 0xff, 0xc2, 0xf4, 0xff, 0xff, 0x00, 0x00, 0x00, 0x01,
  0x03, 0x00, 0x00, 0x00, 0x24, 0x00, 0x00, 0x00, 0x18, 0x00, 0x00, 0x00,
  0x04, 0x00, 0x00, 0x00, 0xe8, 0xf6, 0xff, 0xff, 0x02, 0x00, 0x00, 0x00,
  0x02, 0x00, 0x00, 0x00, 0x00, 0x00, 0x00, 0x01, 0x01, 0x00, 0x00, 0x00,
  0x27, 0x00, 0x00, 0x00, 0x03, 0x00, 0x00, 0x00, 0x26, 0x00, 0x00, 0x00,
  0x10, 0x00, 0x00, 0x00, 0x11, 0x00, 0x00, 0x00, 0xd4, 0xf3, 0xff, 0xff,
  0x00, 0x00, 0x00, 0x09, 0x14, 0x00, 0x00, 0x00, 0x28, 0x00, 0x00, 0x00,
  0x20, 0x00, 0x00, 0x00, 0xbc, 0x00, 0x00, 0x00, 0xa4, 0x00, 0x00, 0x00,
  0x04, 0x00, 0x00, 0x00, 0x01, 0x00, 0x00, 0x00, 0x0c, 0x00, 0x00, 0x00,
  0x01, 0x00, 0x00, 0x00, 0x20, 0x00, 0x00, 0x00, 0x85, 0x00, 0x00, 0x00,
  0x73, 0x65, 0x71, 0x75, 0x65, 0x6e, 0x74, 0x69, 0x61, 0x6c, 0x2f, 0x63,
  0x6f, 0x6e, 0x76, 0x32, 0x64, 0x5f, 0x34, 0x2f, 0x52, 0x65, 0x6c, 0x75,
  0x3b, 0x73, 0x65, 0x71, 0x75, 0x65, 0x6e, 0x74, 0x69, 0x61, 0x6c, 0x2f,
  0x63, 0x6f, 0x6e, 0x76, 0x32, 0x64, 0x5f, 0x34, 0x2f, 0x42, 0x69, 0x61,
  0x73, 0x41, 0x64, 0x64, 0x3b, 0x73, 0x65, 0x71, 0x75, 0x65, 0x6e, 0x74,
  0x69, 0x61, 0x6c, 0x2f, 0x64, 0x65, 0x70, 0x74, 0x68, 0x77, 0x69, 0x73,
  0x65, 0x5f, 0x63, 0x6f, 0x6e, 0x76, 0x32, 0x64, 0x5f, 0x32, 0x2f, 0x64,
  0x65, 0x70, 0x74, 0x68, 0x77, 0x69, 0x73, 0x65, 0x3b, 0x73, 0x65, 0x71,
  0x75, 0x65, 0x6e, 0x74, 0x69, 0x61, 0x6c, 0x2f, 0x63, 0x6f, 0x6e, 0x76,
  0x32, 0x64, 0x5f, 0x34, 0x2f, 0x43, 0x6f, 0x6e, 0x76, 0x32, 0x44, 0x3b,
  0x63, 0x6f, 0x6e, 0x76, 0x32, 0x64, 0x5f, 0x34, 0x2f, 0x62, 0x69, 0x61,
  0x73, 0x00, 0x00, 0x00, 0x04, 0x00, 0x00, 0x00, 0xff, 0xff, 0xff, 0xff,
  0x0c, 0x00, 0x00, 0x00, 0x01, 0x00, 0x00, 0x00, 0x20, 0x00, 0x00, 0x00,
  0x34, 0xa5, 0xff, 0xff, 0x08, 0x00, 0x00, 0x00, 0x0c, 0x00, 0x00, 0x00,
  0x01, 0x00, 0x00, 0x00, 0xfa, 0xf5, 0x17, 0x3e, 0x01, 0x00, 0x00, 0x00,
  0x80, 0xff, 0xff, 0xff, 0xff, 0xff, 0xff, 0xff, 0x00, 0x00, 0x00, 0x00,
  0xf6, 0xf5, 0xff, 0xff, 0x00, 0x00, 0x00, 0x05, 0x05, 0x00, 0x00, 0x00,
  0x28, 0x00, 0x00, 0x00, 0x1c, 0x00, 0x00, 0x00, 0x04, 0x00, 0x00, 0x00,
  0x96, 0xfb, 0xff, 0xff, 0x01, 0x00, 0x00, 0x00, 0x02, 0x00, 0x00, 0x00,
  0x01, 0x00, 0x00, 0x00, 0x02, 0x00, 0x00, 0x00, 0x01, 0x00, 0x00, 0x00,
  0x26, 0x00, 0x00, 0x00, 0x01, 0x00, 0x00, 0x00, 0x25, 0x00, 0x00, 0x00,
  0x04, 0xf5, 0xff, 0xff, 0x00, 0x00, 0x00, 0x09, 0x14, 0x00, 0x00, 0x00,
  0x27, 0x00, 0x00, 0x00, 0x20, 0x00, 0x00, 0x00, 0x5c, 0x00, 0x00, 0x00,
  0x44, 0x00, 0x00, 0x00, 0x04, 0x00, 0x00, 0x00, 0x01, 0x00, 0x00, 0x00,
  0x18, 0x00, 0x00, 0x00, 0x01, 0x00, 0x00, 0x00, 0x10, 0x00, 0x00, 0x00,
  0x26, 0x00, 0x00, 0x00, 0x73, 0x65, 0x71, 0x75, 0x65, 0x6e, 0x74, 0x69,
  0x61, 0x6c, 0x2f, 0x61, 0x76, 0x65, 0x72, 0x61, 0x67, 0x65, 0x5f, 0x70,
  0x6f, 0x6f, 0x6c, 0x69, 0x6e, 0x67, 0x32, 0x64, 0x5f, 0x31, 0x2f, 0x41,
  0x76, 0x67, 0x50, 0x6f, 0x6f, 0x6c, 0x00, 0x00, 0x04, 0x00, 0x00, 0x00,
  0xff, 0xff, 0xff, 0xff, 0x18, 0x00, 0x00, 0x00, 0x01, 0x00, 0x00, 0x00,
  0x10, 0x00, 0x00, 0x00, 0x04, 0xa6, 0xff, 0xff, 0x08, 0x00, 0x00, 0x00,
  0x0c, 0x00, 0x00, 0x00, 0x01, 0x00, 0x00, 0x00, 0x4e, 0x5f, 0x87, 0x3d,
  0x01, 0x00, 0x00, 0x00, 0x80, 0xff, 0xff, 0xff, 0xff, 0xff, 0xff, 0xff,
  0xc2, 0xf6, 0xff, 0xff, 0x00, 0x00, 0x00, 0x02, 0x04, 0x00, 0x00, 0x00,
  0x28, 0x00, 0x00, 0x00, 0x1c, 0x00, 0x00, 0x00, 0x04, 0x00, 0x00, 0x00,
  0x66, 0xfb, 0xff, 0xff, 0x01, 0x00, 0x00, 0x00, 0x02, 0x00, 0x00, 0x00,
  0x02, 0x00, 0x00, 0x00, 0x00, 0x00, 0x00, 0x01, 0x01, 0x00, 0x00, 0x00,
  0x25, 0x00, 0x00, 0x00, 0x03, 0x00, 0x00, 0x00, 0x24, 0x00, 0x00, 0x00,
  0x0e, 0x00, 0x00, 0x00, 0x0f, 0x00, 0x00, 0x00, 0xd8, 0xf5, 0xff, 0xff,
  0x00, 0x00, 0x00, 0x09, 0x14, 0x00, 0x00, 0x00, 0x26, 0x00, 0x00, 0x00,
  0x20, 0x00, 0x00, 0x00, 0xc0, 0x00, 0x00, 0x00, 0xa8, 0x00, 0x00, 0x00,
  0x04, 0x00, 0x00, 0x00, 0x01, 0x00, 0x00, 0x00, 0x2f, 0x00, 0x00, 0x00,
  0x01, 0x00, 0x00, 0x00, 0x10, 0x00, 0x00, 0x00, 0x88, 0x00, 0x00, 0x00,
  0x73, 0x65, 0x71, 0x75, 0x65, 0x6e, 0x74, 0x69, 0x61, 0x6c, 0x2f, 0x64,
  0x65, 0x70, 0x74, 0x68, 0x77, 0x69, 0x73, 0x65, 0x5f, 0x63, 0x6f, 0x6e,
  0x76, 0x32, 0x64, 0x5f, 0x31, 0x2f, 0x52, 0x65, 0x6c, 0x75, 0x3b, 0x73,
  0x65, 0x71, 0x75, 0x65, 0x6e, 0x74, 0x69, 0x61, 0x6c, 0x2f, 0x64, 0x65,
  0x70, 0x74, 0x68, 0x77, 0x69, 0x73, 0x65, 0x5f, 0x63, 0x6f, 0x6e, 0x76,
  0x32, 0x64, 0x5f, 0x31, 0x2f, 0x42, 0x69, 0x61, 0x73, 0x41, 0x64, 0x64,
  0x3b, 0x73, 0x65, 0x71, 0x75, 0x65, 0x6e, 0x74, 0x69, 0x61, 0x6c, 0x2f,
  0x64, 0x65, 0x70, 0x74, 0x68, 0x77, 0x69, 0x73, 0x65, 0x5f, 0x63, 0x6f,
  0x6e, 0x76, 0x32, 0x64, 0x5f, 0x31, 0x2f, 0x64, 0x65, 0x70, 0x74, 0x68,
  0x77, 0x69, 0x73, 0x65, 0x3b, 0x64, 0x65, 0x70, 0x74, 0x68, 0x77, 0x69,
  0x73, 0x65, 0x5f, 0x63, 0x6f, 0x6e, 0x76, 0x32, 0x64, 0x5f, 0x31, 0x2f,
  0x62, 0x69, 0x61, 0x73, 0x00, 0x00, 0x00, 0x00, 0x04, 0x00, 0x00, 0x00,
  0xff, 0xff, 0xff, 0xff, 0x2f, 0x00, 0x00, 0x00, 0x01, 0x00, 0x00, 0x00,
  0x10, 0x00, 0x00, 0x00, 0x3c, 0xa7, 0xff, 0xff, 0x08, 0x00, 0x00, 0x00,
  0x0c, 0x00, 0x00, 0x00, 0x01, 0x00, 0x00, 0x00, 0x4e, 0x5f, 0x87, 0x3d,
  0x01, 0x00, 0x00, 0x00, 0x80, 0xff, 0xff, 0xff, 0xff, 0xff, 0xff, 0xff,
  0xfa, 0xf7, 0xff, 0xff, 0x00, 0x00, 0x00, 0x01, 0x03, 0x00, 0x00, 0x00,
  0x24, 0x00, 0x00, 0x00, 0x18, 0x00, 0x00, 0x00, 0x04, 0x00, 0x00, 0x00,
  0x20, 0xfa, 0xff, 0xff, 0x02, 0x00, 0x00, 0x00, 0x02, 0x00, 0x00, 0x00,
  0x00, 0x00, 0x00, 0x01, 0x01, 0x00, 0x00, 0x00, 0x24, 0x00, 0x00, 0x00,
  0x03, 0x00, 0x00, 0x00, 0x23, 0x00, 0x00, 0x00, 0x0c, 0x00, 0x00, 0x00,
  0x0d, 0x00, 0x00, 0x00, 0x0c, 0xf7, 0xff, 0xff, 0x00, 0x00, 0x00, 0x09,
  0x14, 0x00, 0x00, 0x00, 0x25, 0x00, 0x00, 0x00, 0x20, 0x00, 0x00, 0x00,
  0xbc, 0x00, 0x00, 0x00, 0xa4, 0x00, 0x00, 0x00, 0x04, 0x00, 0x00, 0x00,
  0x01, 0x00, 0x00, 0x00, 0x5e, 0x00, 0x00, 0x00, 0x01, 0x00, 0x00, 0x00,
  0x10, 0x00, 0x00, 0x00, 0x85, 0x00, 0x00, 0x00, 0x73, 0x65, 0x71, 0x75,
  0x65, 0x6e, 0x74, 0x69, 0x61, 0x6c, 0x2f, 0x63, 0x6f, 0x6e, 0x76, 0x32,
  0x64, 0x5f, 0x33, 0x2f, 0x52, 0x65, 0x6c, 0x75, 0x3b, 0x73, 0x65, 0x71,
  0x75, 0x65, 0x6e, 0x74, 0x69, 0x61, 0x6c, 0x2f, 0x63, 0x6f, 0x6e, 0x76,
  0x32, 0x64, 0x5f, 0x33, 0x2f, 0x42, 0x69, 0x61, 0x73, 0x41, 0x64, 0x64,
  0x3b, 0x73, 0x65, 0x71, 0x75, 0x65, 0x6e, 0x74, 0x69, 0x61, 0x6c, 0x2f,
  0x64, 0x65, 0x70, 0x74, 0x68, 0x77, 0x69, 0x73, 0x65, 0x5f, 0x63, 0x6f,
  0x6e, 0x76, 0x32, 0x64, 0x5f, 0x31, 0x2f, 0x64, 0x65, 0x70, 0x74, 0x68,
  0x77, 0x69, 0x73, 0x65, 0x3b, 0x73, 0x65, 0x71, 0x75, 0x65, 0x6e, 0x74,
  0x69, 0x61, 0x6c, 0x2f, 0x63, 0x6f, 0x6e, 0x76, 0x32, 0x64, 0x5f, 0x33,
  0x2f, 0x43, 0x6f, 0x6e, 0x76, 0x32, 0x44, 0x3b, 0x63, 0x6f, 0x6e, 0x76,
  0x32, 0x64, 0x5f, 0x33, 0x2f, 0x62, 0x69, 0x61, 0x73, 0x00, 0x00, 0x00,
  0x04, 0x00, 0x00, 0x00, 0xff, 0xff, 0xff, 0xff, 0x5e, 0x00, 0x00, 0x00,
  0x01, 0x00, 0x00, 0x00, 0x10, 0x00, 0x00, 0x00, 0x6c, 0xa8, 0xff, 0xff,
  0x08, 0x00, 0x00, 0x00, 0x0c, 0x00, 0x00, 0x00, 0x01, 0x00, 0x00, 0x00,
  0x87, 0x11, 0xd6, 0x3d, 0x01, 0x00, 0x00, 0x00, 0x80, 0xff, 0xff, 0xff,
  0xff, 0xff, 0xff, 0xff, 0x2a, 0xf9, 0xff, 0xff, 0x00, 0x00, 0x00, 0x01,
  0x03, 0x00, 0x00, 0x00, 0x24, 0x00, 0x00, 0x00, 0x18, 0x00, 0x00, 0x00,
  0x04, 0x00, 0x00, 0x00, 0x50, 0xfb, 0xff, 0xff, 0x02, 0x00, 0x00, 0x00,
  0x02, 0x00, 0x00, 0x00, 0x00, 0x00, 0x00, 0x01, 0x01, 0x00, 0x00, 0x00,
  0x23, 0x00, 0x00, 0x00, 0x03, 0x00, 0x00, 0x00, 0x22, 0x00, 0x00, 0x00,
  0x0a, 0x00, 0x00, 0x00, 0x0b, 0x00, 0x00, 0x00, 0x3c, 0xf8, 0xff, 0xff,
  0x00, 0x00, 0x00, 0x09, 0x14, 0x00, 0x00, 0x00, 0x24, 0x00, 0x00, 0x00,
  0x20, 0x00, 0x00, 0x00, 0xbc, 0x00, 0x00, 0x00, 0xa4, 0x00, 0x00, 0x00,
  0x04, 0x00, 0x00, 0x00, 0x01, 0x00, 0x00, 0x00, 0xbc, 0x00, 0x00, 0x00,
  0x01, 0x00, 0x00, 0x00, 0x10, 0x00, 0x00, 0x00, 0x85, 0x00, 0x00, 0x00,
  0x73, 0x65, 0x71, 0x75, 0x65, 0x6e, 0x74, 0x69, 0x61, 0x6c, 0x2f, 0x63,
  0x6f, 0x6e, 0x76, 0x32, 0x64, 0x5f, 0x32, 0x2f, 0x52, 0x65, 0x6c, 0x75,
  0x3b, 0x73, 0x65, 0x71, 0x75, 0x65, 0x6e, 0x74, 0x69, 0x61, 0x6c, 0x2f,
  0x63, 0x6f, 0x6e, 0x76, 0x32, 0x64, 0x5f, 0x32, 0x2f, 0x42, 0x69, 0x61,
  0x73, 0x41, 0x64, 0x64, 0x3b, 0x73, 0x65, 0x71, 0x75, 0x65, 0x6e, 0x74,
  0x69, 0x61, 0x6c, 0x2f, 0x64, 0x65, 0x70, 0x74, 0x68, 0x77, 0x69, 0x73,
  0x65, 0x5f, 0x63, 0x6f, 0x6e, 0x76, 0x32, 0x64, 0x5f, 0x31, 0x2f, 0x64,
  0x65, 0x70, 0x74, 0x68, 0x77, 0x69, 0x73, 0x65, 0x3b, 0x73, 0x65, 0x71,
  0x75, 0x65, 0x6e, 0x74, 0x69, 0x61, 0x6c, 0x2f, 0x63, 0x6f, 0x6e, 0x76,
  0x32, 0x64, 0x5f, 0x32, 0x2f, 0x43, 0x6f, 0x6e, 0x76, 0x32, 0x44, 0x3b,
  0x63, 0x6f, 0x6e, 0x76, 0x32, 0x64, 0x5f, 0x32, 0x2f, 0x62, 0x69, 0x61,
  0x73, 0x00, 0x00, 0x00, 0x04, 0x00, 0x00, 0x00, 0xff, 0xff, 0xff, 0xff,
  0xbc, 0x00, 0x00, 0x00, 0x01, 0x00, 0x00, 0x00, 0x10, 0x00, 0x00, 0x00,
  0x9c, 0xa9, 0xff, 0xff, 0x08, 0x00, 0x00, 0x00, 0x0c, 0x00, 0x00, 0x00,
  0x01, 0x00, 0x00, 0x00, 0x53, 0x19, 0x1e, 0x3d, 0x01, 0x00, 0x00, 0x00,
  0x80, 0xff, 0xff, 0xff, 0xff, 0xff, 0xff, 0xff, 0x00, 0x00, 0x00, 0x00,
  0x12, 0xff, 0xff, 0xff, 0x00, 0x00, 0x00, 0x05, 0x05, 0x00, 0x00, 0x00,
  0x38, 0x00, 0x00, 0x00, 0x2c, 0x00, 0x00, 0x00, 0x14, 0x00, 0x00, 0x00,
  0x00, 0x00, 0x0e, 0x00, 0x14, 0x00, 0x00, 0x00, 0x04, 0x00, 0x08, 0x00,
  0x0c, 0x00, 0x10, 0x00, 0x0e, 0x00, 0x00, 0x00, 0x01, 0x00, 0x00, 0x00,
  0x02, 0x00, 0x00, 0x00, 0x01, 0x00, 0x00, 0x00, 0x02, 0x00, 0x00, 0x00,
  0x01, 0x00, 0x00, 0x00, 0x22, 0x00, 0x00, 0x00, 0x01, 0x00, 0x00, 0x00,
  0x21, 0x00, 0x00, 0x00, 0x98, 0xf9, 0xff, 0xff, 0x01, 0x00, 0x00, 0x00,
  0x00, 0x00, 0x00, 0x01, 0x02, 0x00, 0x00, 0x00, 0x8c, 0xf9, 0xff, 0xff,
  0x00, 0x00, 0x00, 0x09, 0x14, 0x00, 0x00, 0x00, 0x23, 0x00, 0x00, 0x00,
  0x20, 0x00, 0x00, 0x00, 0x5c, 0x00, 0x00, 0x00, 0x44, 0x00, 0x00, 0x00,
  0x04, 0x00, 0x00, 0x00, 0x01, 0x00, 0x00, 0x00, 0x77, 0x01, 0x00, 0x00,
  0x01, 0x00, 0x00, 0x00, 0x08, 0x00, 0x00, 0x00, 0x24, 0x00, 0x00, 0x00,
  0x73, 0x65, 0x71, 0x75, 0x65, 0x6e, 0x74, 0x69, 0x61, 0x6c, 0x2f, 0x61,
  0x76, 0x65, 0x72, 0x61, 0x67, 0x65, 0x5f, 0x70, 0x6f, 0x6f, 0x6c, 0x69,
  0x6e, 0x67, 0x32, 0x64, 0x2f, 0x41, 0x76, 0x67, 0x50, 0x6f, 0x6f, 0x6c,
  0x00, 0x00, 0x00, 0x00, 0x04, 0x00, 0x00, 0x00, 0xff, 0xff, 0xff, 0xff,
  0x77, 0x01, 0x00, 0x00, 0x01, 0x00, 0x00, 0x00, 0x08, 0x00, 0x00, 0x00,
  0x8c, 0xaa, 0xff, 0xff, 0x08, 0x00, 0x00, 0x00, 0x0c, 0x00, 0x00, 0x00,
  0x01, 0x00, 0x00, 0x00, 0x55, 0x27, 0x3b, 0x3d, 0x01, 0x00, 0x00, 0x00,
  0x80, 0xff, 0xff, 0xff, 0xff, 0xff, 0xff, 0xff, 0x00, 0x00, 0x0e, 0x00,
  0x1a, 0x00, 0x08, 0x00, 0x0c, 0x00, 0x10, 0x00, 0x07, 0x00, 0x14, 0x00,
  0x0e, 0x00, 0x00, 0x00, 0x00, 0x00, 0x00, 0x02, 0x04, 0x00, 0x00, 0x00,
  0x38, 0x00, 0x00, 0x00, 0x2c, 0x00, 0x00, 0x00, 0x14, 0x00, 0x00, 0x00,
  0x00, 0x00, 0x0e, 0x00, 0x14, 0x00, 0x00, 0x00, 0x08, 0x00, 0x0c, 0x00,
  0x04, 0x00, 0x13, 0x00, 0x0e, 0x00, 0x00, 0x00, 0x01, 0x00, 0x00, 0x00,
  0x02, 0x00, 0x00, 0x00, 0x02, 0x00, 0x00, 0x00, 0x00, 0x00, 0x00, 0x01,
  0x01, 0x00, 0x00, 0x00, 0x21, 0x00, 0x00, 0x00, 0x03, 0x00, 0x00, 0x00,
  0x20, 0x00, 0x00, 0x00, 0x08, 0x00, 0x00, 0x00, 0x09, 0x00, 0x00, 0x00,
  0x9c, 0xfa, 0xff, 0xff, 0x04, 0x00, 0x00, 0x00, 0x00, 0x00, 0x00, 0x04,
  0x03, 0x00, 0x00, 0x00, 0x90, 0xfa, 0xff, 0xff, 0x00, 0x00, 0x00, 0x09,
  0x14, 0x00, 0x00, 0x00, 0x22, 0x00, 0x00, 0x00, 0x20, 0x00, 0x00, 0x00,
  0xb8, 0x00, 0x00, 0x00, 0xa0, 0x00, 0x00, 0x00, 0x04, 0x00, 0x00, 0x00,
  0x01, 0x00, 0x00, 0x00, 0xee, 0x02, 0x00, 0x00, 0x01, 0x00, 0x00, 0x00,
  0x08, 0x00, 0x00, 0x00, 0x80, 0x00, 0x00, 0x00, 0x73, 0x65, 0x71, 0x75,
  0x65, 0x6e, 0x74, 0x69, 0x61, 0x6c, 0x2f, 0x64, 0x65, 0x70, 0x74, 0x68,
  0x77, 0x69, 0x73, 0x65, 0x5f, 0x63, 0x6f, 0x6e, 0x76, 0x32, 0x64, 0x2f,
  0x52, 0x65, 0x6c, 0x75, 0x3b, 0x73, 0x65, 0x71, 0x75, 0x65, 0x6e, 0x74,
  0x69, 0x61, 0x6c, 0x2f, 0x64, 0x65, 0x70, 0x74, 0x68, 0x77, 0x69, 0x73,
  0x65, 0x5f, 0x63, 0x6f, 0x6e, 0x76, 0x32, 0x64, 0x2f, 0x42, 0x69, 0x61,
  0x73, 0x41, 0x64, 0x64, 0x3b, 0x73, 0x65, 0x71, 0x75, 0x65, 0x6e, 0x74,
  0x69, 0x61, 0x6c, 0x2f, 0x64, 0x65, 0x70, 0x74, 0x68, 0x77, 0x69, 0x73,
  0x65, 0x5f, 0x63, 0x6f, 0x6e, 0x76, 0x32, 0x64, 0x2f, 0x64, 0x65, 0x70,
  0x74, 0x68, 0x77, 0x69, 0x73, 0x65, 0x3b, 0x64, 0x65, 0x70, 0x74, 0x68,
  0x77, 0x69, 0x73, 0x65, 0x5f, 0x63, 0x6f, 0x6e, 0x76, 0x32, 0x64, 0x2f,
  0x62, 0x69, 0x61, 0x73, 0x00, 0x00, 0x00, 0x00, 0x04, 0x00, 0x00, 0x00,
  0xff, 0xff, 0xff, 0xff, 0xee, 0x02, 0x00, 0x00, 0x01, 0x00, 0x00, 0x00,
  0x08, 0x00, 0x00, 0x00, 0xec, 0xab, 0xff, 0xff, 0x08, 0x00, 0x00, 0x00,
  0x0c, 0x00, 0x00, 0x00, 0x01, 0x00, 0x00, 0x00, 0x55, 0x27, 0x3b, 0x3d,
  0x01, 0x00, 0x00, 0x00, 0x80, 0xff, 0xff, 0xff, 0xff, 0xff, 0xff, 0xff,
  0x00, 0x00, 0x00, 0x00, 0xae, 0xfc, 0xff, 0xff, 0x00, 0x00, 0x00, 0x01,
  0x03, 0x00, 0x00, 0x00, 0x24, 0x00, 0x00, 0x00, 0x18, 0x00, 0x00, 0x00,
  0x04, 0x00, 0x00, 0x00, 0xd4, 0xfe, 0xff, 0xff, 0x02, 0x00, 0x00, 0x00,
  0x02, 0x00, 0x00, 0x00, 0x00, 0x00, 0x00, 0x01, 0x01, 0x00, 0x00, 0x00,
  0x20, 0x00, 0x00, 0x00, 0x03, 0x00, 0x00, 0x00, 0x1f, 0x00, 0x00, 0x00,
  0x06, 0x00, 0x00, 0x00, 0x07, 0x00, 0x00, 0x00, 0xc0, 0xfb, 0xff, 0xff,
  0x00, 0x00, 0x00, 0x09, 0x14, 0x00, 0x00, 0x00, 0x21, 0x00, 0x00, 0x00,
  0x20, 0x00, 0x00, 0x00, 0xb8, 0x00, 0x00, 0x00, 0xa0, 0x00, 0x00, 0x00,
  0x04, 0x00, 0x00, 0x00, 0x01, 0x00, 0x00, 0x00, 0xdc, 0x05, 0x00, 0x00,
  0x01, 0x00, 0x00, 0x00, 0x08, 0x00, 0x00, 0x00, 0x83, 0x00, 0x00, 0x00,
  0x73, 0x65, 0x71, 0x75, 0x65, 0x6e, 0x74, 0x69, 0x61, 0x6c, 0x2f, 0x63,
  0x6f, 0x6e, 0x76, 0x32, 0x64, 0x5f, 0x31, 0x2f, 0x52, 0x65, 0x6c, 0x75,
  0x3b, 0x73, 0x65, 0x71, 0x75, 0x65, 0x6e, 0x74, 0x69, 0x61, 0x6c, 0x2f,
  0x63, 0x6f, 0x6e, 0x76, 0x32, 0x64, 0x5f, 0x31, 0x2f, 0x42, 0x69, 0x61,
  0x73, 0x41, 0x64, 0x64, 0x3b, 0x73, 0x65, 0x71, 0x75, 0x65, 0x6e, 0x74,
  0x69, 0x61, 0x6c, 0x2f, 0x64, 0x65, 0x70, 0x74, 0x68, 0x77, 0x69, 0x73,
  0x65, 0x5f, 0x63, 0x6f, 0x6e, 0x76, 0x32, 0x64, 0x2f, 0x64, 0x65, 0x70,
  0x74, 0x68, 0x77, 0x69, 0x73, 0x65, 0x3b, 0x73, 0x65, 0x71, 0x75, 0x65,
  0x6e, 0x74, 0x69, 0x61, 0x6c, 0x2f, 0x63, 0x6f, 0x6e, 0x76, 0x32, 0x64,
  0x5f, 0x31, 0x2f, 0x43, 0x6f, 0x6e, 0x76, 0x32, 0x44, 0x3b, 0x63, 0x6f,
  0x6e, 0x76, 0x32, 0x64, 0x5f, 0x31, 0x2f, 0x62, 0x69, 0x61, 0x73, 0x00,
  0x04, 0x00, 0x00, 0x00, 0xff, 0xff, 0xff, 0xff, 0xdc, 0x05, 0x00, 0x00,
  0x01, 0x00, 0x00, 0x00, 0x08, 0x00, 0x00, 0x00, 0x1c, 0xad, 0xff, 0xff,
  0x08, 0x00, 0x00, 0x00, 0x0c, 0x00, 0x00, 0x00, 0x01, 0x00, 0x00, 0x00,
  0x86, 0xe5, 0x13, 0x3e, 0x01, 0x00, 0x00, 0x00, 0x80, 0xff, 0xff, 0xff,
  0xff, 0xff, 0xff, 0xff, 0xda, 0xfd, 0xff, 0xff, 0x00, 0x00, 0x00, 0x01,
  0x03, 0x00, 0x00, 0x00, 0x30, 0x00, 0x00, 0x00, 0x24, 0x00, 0x00, 0x00,
  0x10, 0x00, 0x00, 0x00, 0x0c, 0x00, 0x10, 0x00, 0x00, 0x00, 0x04, 0x00,
  0x08, 0x00, 0x0f, 0x00, 0x0c, 0x00, 0x00, 0x00, 0x02, 0x00, 0x00, 0x00,
  0x02, 0x00, 0x00, 0x00, 0x00, 0x00, 0x00, 0x01, 0x01, 0x00, 0x00, 0x00,
  0x1f, 0x00, 0x00, 0x00, 0x03, 0x00, 0x00, 0x00, 0x1e, 0x00, 0x00, 0x00,
  0x04, 0x00, 0x00, 0x00, 0x05, 0x00, 0x00, 0x00, 0x14, 0xfd, 0xff, 0xff,
  0x03, 0x00, 0x00, 0x00, 0x00, 0x00, 0x00, 0x03, 0x03, 0x00, 0x00, 0x00,
  0x08, 0xfd, 0xff, 0xff, 0x00, 0x00, 0x00, 0x09, 0x14, 0x00, 0x00, 0x00,
  0x20, 0x00, 0x00, 0x00, 0x20, 0x00, 0x00, 0x00, 0xb0, 0x00, 0x00, 0x00,
  0x98, 0x00, 0x00, 0x00, 0x04, 0x00, 0x00, 0x00, 0x01, 0x00, 0x00, 0x00,
  0xb8, 0x0b, 0x00, 0x00, 0x01, 0x00, 0x00, 0x00, 0x08, 0x00, 0x00, 0x00,
  0x7b, 0x00, 0x00, 0x00, 0x73, 0x65, 0x71, 0x75, 0x65, 0x6e, 0x74, 0x69,
  0x61, 0x6c, 0x2f, 0x63, 0x6f, 0x6e, 0x76, 0x32, 0x64, 0x2f, 0x52, 0x65,
  0x6c, 0x75, 0x3b, 0x73, 0x65, 0x71, 0x75, 0x65, 0x6e, 0x74, 0x69, 0x61,
  0x6c, 0x2f, 0x63, 0x6f, 0x6e, 0x76, 0x32, 0x64, 0x2f, 0x42, 0x69, 0x61,
  0x73, 0x41, 0x64, 0x64, 0x3b, 0x73, 0x65, 0x71, 0x75, 0x65, 0x6e, 0x74,
  0x69, 0x61, 0x6c, 0x2f, 0x64, 0x65, 0x70, 0x74, 0x68, 0x77, 0x69, 0x73,
  0x65, 0x5f, 0x63, 0x6f, 0x6e, 0x76, 0x32, 0x64, 0x2f, 0x64, 0x65, 0x70,
  0x74, 0x68, 0x77, 0x69, 0x73, 0x65, 0x3b, 0x73, 0x65, 0x71, 0x75, 0x65,
  0x6e, 0x74, 0x69, 0x61, 0x6c, 0x2f, 0x63, 0x6f, 0x6e, 0x76, 0x32, 0x64,
  0x2f, 0x43, 0x6f, 0x6e, 0x76, 0x32, 0x44, 0x3b, 0x63, 0x6f, 0x6e, 0x76,
  0x32, 0x64, 0x2f, 0x62, 0x69, 0x61, 0x73, 0x00, 0x04, 0x00, 0x00, 0x00,
  0xff, 0xff, 0xff, 0xff, 0xb8, 0x0b, 0x00, 0x00, 0x01, 0x00, 0x00, 0x00,
  0x08, 0x00, 0x00, 0x00, 0x5c, 0xae, 0xff, 0xff, 0x08, 0x00, 0x00, 0x00,
  0x0c, 0x00, 0x00, 0x00, 0x01, 0x00, 0x00, 0x00, 0x51, 0x1e, 0x4d, 0x3d,
  0x01, 0x00, 0x00, 0x00, 0x80, 0xff, 0xff, 0xff, 0xff, 0xff, 0xff, 0xff,
  0x1a, 0xff, 0xff, 0xff, 0x00, 0x00, 0x00, 0x0b, 0x02, 0x00, 0x00, 0x00,
  0x18, 0x00, 0x00, 0x00, 0x0c, 0x00, 0x00, 0x00, 0x04, 0x00, 0x00, 0x00,
  0x70, 0xad, 0xff, 0xff, 0x01, 0x00, 0x00, 0x00, 0x1e, 0x00, 0x00, 0x00,
  0x02, 0x00, 0x00, 0x00, 0x1d, 0x00, 0x00, 0x00, 0x03, 0x00, 0x00, 0x00,
  0x00, 0x00, 0x0a, 0x00, 0x08, 0x00, 0x00, 0x00, 0x00, 0x00, 0x04, 0x00,
  0x0a, 0x00, 0x00, 0x00, 0x02, 0x00, 0x00, 0x00, 0x30, 0xfe, 0xff, 0xff,
  0x00, 0x00, 0x00, 0x09, 0x14, 0x00, 0x00, 0x00, 0x1f, 0x00, 0x00, 0x00,
  0x20, 0x00, 0x00, 0x00, 0x68, 0x00, 0x00, 0x00, 0x50, 0x00, 0x00, 0x00,
  0x04, 0x00, 0x00, 0x00, 0x01, 0x00, 0x00, 0x00, 0x70, 0x17, 0x00, 0x00,
  0x01, 0x00, 0x00, 0x00, 0x01, 0x00, 0x00, 0x00, 0x30, 0x00, 0x00, 0x00,
  0x73, 0x65, 0x71, 0x75, 0x65, 0x6e, 0x74, 0x69, 0x61, 0x6c, 0x2f, 0x62,
  0x61, 0x74, 0x63, 0x68, 0x5f, 0x6e, 0x6f, 0x72, 0x6d, 0x61, 0x6c, 0x69,
  0x7a, 0x61, 0x74, 0x69, 0x6f, 0x6e, 0x2f, 0x46, 0x75, 0x73, 0x65, 0x64,
  0x42, 0x61, 0x74, 0x63, 0x68, 0x4e, 0x6f, 0x72, 0x6d, 0x56, 0x33, 0x33,
  0x00, 0x00, 0x00, 0x00, 0x04, 0x00, 0x00, 0x00, 0xff, 0xff, 0xff, 0xff,
  0x70, 0x17, 0x00, 0x00, 0x01, 0x00, 0x00, 0x00, 0x01, 0x00, 0x00, 0x00,
  0x3c, 0xaf, 0xff, 0xff, 0x08, 0x00, 0x00, 0x00, 0x0c, 0x00, 0x00, 0x00,
  0x01, 0x00, 0x00, 0x00, 0x24, 0xaf, 0x8b, 0x3d, 0x01, 0x00, 0x00, 0x00,
  0xff, 0xff, 0xff, 0xff, 0xff, 0xff, 0xff, 0xff, 0x00, 0x00, 0x00, 0x00,
  0x00, 0x00, 0x0e, 0x00, 0x18, 0x00, 0x08, 0x00, 0x0c, 0x00, 0x10, 0x00,
  0x07, 0x00, 0x14, 0x00, 0x0e, 0x00, 0x00, 0x00, 0x00, 0x00, 0x00, 0x15,
  0x01, 0x00, 0x00, 0x00, 0x18, 0x00, 0x00, 0x00, 0x0c, 0x00, 0x00, 0x00,
  0x04, 0x00, 0x00, 0x00, 0x64, 0xae, 0xff, 0xff, 0x01, 0x00, 0x00, 0x00,
  0x1d, 0x00, 0x00, 0x00, 0x02, 0x00, 0x00, 0x00, 0x1c, 0x00, 0x00, 0x00,
  0x02, 0x00, 0x00, 0x00, 0x2c, 0xff, 0xff, 0xff, 0x12, 0x00, 0x00, 0x00,
  0x00, 0x00, 0x00, 0x12, 0x02, 0x00, 0x00, 0x00, 0x20, 0xff, 0xff, 0xff,
  0x00, 0x00, 0x00, 0x09, 0x14, 0x00, 0x00, 0x00, 0x1e, 0x00, 0x00, 0x00,
  0x20, 0x00, 0x00, 0x00, 0x68, 0x00, 0x00, 0x00, 0x50, 0x00, 0x00, 0x00,
  0x04, 0x00, 0x00, 0x00, 0x01, 0x00, 0x00, 0x00, 0x70, 0x17, 0x00, 0x00,
  0x01, 0x00, 0x00, 0x00, 0x01, 0x00, 0x00, 0x00, 0x30, 0x00, 0x00, 0x00,
  0x73, 0x65, 0x71, 0x75, 0x65, 0x6e, 0x74, 0x69, 0x61, 0x6c, 0x2f, 0x62,
  0x61, 0x74, 0x63, 0x68, 0x5f, 0x6e, 0x6f, 0x72, 0x6d, 0x61, 0x6c, 0x69,
  0x7a, 0x61, 0x74, 0x69, 0x6f, 0x6e, 0x2f, 0x46, 0x75, 0x73, 0x65, 0x64,
  0x42, 0x61, 0x74, 0x63, 0x68, 0x4e, 0x6f, 0x72, 0x6d, 0x56, 0x33, 0x32,
  0x00, 0x00, 0x00, 0x00, 0x04, 0x00, 0x00, 0x00, 0xff, 0xff, 0xff, 0xff,
  0x70, 0x17, 0x00, 0x00, 0x01, 0x00, 0x00, 0x00, 0x01, 0x00, 0x00, 0x00,
  0x2c, 0xb0, 0xff, 0xff, 0x08, 0x00, 0x00, 0x00, 0x0c, 0x00, 0x00, 0x00,
  0x01, 0x00, 0x00, 0x00, 0x24, 0xaf, 0x8b, 0x3d, 0x01, 0x00, 0x00, 0x00,
  0x00, 0x00, 0x00, 0x00, 0x00, 0x00, 0x00, 0x00, 0x00, 0x00, 0x0a, 0x00,
  0x0c, 0x00, 0x00, 0x00, 0x04, 0x00, 0x08, 0x00, 0x0a, 0x00, 0x00, 0x00,
  0x10, 0x00, 0x00, 0x00, 0x04, 0x00, 0x00, 0x00, 0x01, 0x00, 0x00, 0x00,
  0x1c, 0x00, 0x00, 0x00, 0x01, 0x00, 0x00, 0x00, 0x00, 0x00, 0x00, 0x00,
  0x0c, 0x00, 0x10, 0x00, 0x0b, 0x00, 0x00, 0x00, 0x0c, 0x00, 0x04, 0x00,
  0x0c, 0x00, 0x00, 0x00, 0x72, 0x00, 0x00, 0x00, 0x00, 0x00, 0x00, 0x72,
  0x01, 0x00, 0x00, 0x00, 0x14, 0x00, 0x1c, 0x00, 0x08, 0x00, 0x07, 0x00,
  0x0c, 0x00, 0x10, 0x00, 0x14, 0x00, 0x00, 0x00, 0x00, 0x00, 0x18, 0x00,
  0x14, 0x00, 0x00, 0x00, 0x00, 0x00, 0x00, 0x09, 0x14, 0x00, 0x00, 0x00,
  0x1d, 0x00, 0x00, 0x00, 0x20, 0x00, 0x00, 0x00, 0x44, 0x00, 0x00, 0x00,
  0x2c, 0x00, 0x00, 0x00, 0x04, 0x00, 0x00, 0x00, 0x01, 0x00, 0x00, 0x00,
  0x70, 0x17, 0x00, 0x00, 0x01, 0x00, 0x00, 0x00, 0x01, 0x00, 0x00, 0x00,
  0x0c, 0x00, 0x00, 0x00, 0x74, 0x66, 0x6c, 0x2e, 0x71, 0x75, 0x61, 0x6e,
  0x74, 0x69, 0x7a, 0x65, 0x00, 0x00, 0x00, 0x00, 0x04, 0x00, 0x00, 0x00,
  0xff, 0xff, 0xff, 0xff, 0x70, 0x17, 0x00, 0x00, 0x01, 0x00, 0x00, 0x00,
  0x01, 0x00, 0x00, 0x00, 0xfc, 0xb0, 0xff, 0xff, 0x08, 0x00, 0x00, 0x00,
  0x0c, 0x00, 0x00, 0x00, 0x01, 0x00, 0x00, 0x00, 0x81, 0x80, 0x00, 0x3c,
  0x01, 0x00, 0x00, 0x00, 0xff, 0xff, 0xff, 0xff, 0xff, 0xff, 0xff, 0xff,
  0xee, 0xb0, 0xff, 0xff, 0x04, 0x00, 0x00, 0x00, 0x08, 0x00, 0x00, 0x00,
  0x2d, 0x00, 0x00, 0x00, 0xd3, 0xff, 0xff, 0xff, 0xe6, 0xb0, 0xff, 0xff,
  0x00, 0x00, 0x00, 0x02, 0x10, 0x00, 0x00, 0x00, 0x1c, 0x00, 0x00, 0x00,
  0x10, 0x00, 0x00, 0x00, 0x20, 0x00, 0x00, 0x00, 0x01, 0x00, 0x00, 0x00,
  0x02, 0x00, 0x00, 0x00, 0x0c, 0x00, 0x00, 0x00, 0x64, 0x65, 0x6e, 0x73,
  0x65, 0x5f, 0x31, 0x2f, 0x62, 0x69, 0x61, 0x73, 0x00, 0x00, 0x00, 0x00,
  0x64, 0xb1, 0xff, 0xff, 0x08, 0x00, 0x00, 0x00, 0x0c, 0x00, 0x00, 0x00,
  0x01, 0x00, 0x00, 0x00, 0xf5, 0x88, 0xe3, 0x38, 0x01, 0x00, 0x00, 0x00,
  0x00, 0x00, 0x00, 0x00, 0x00, 0x00, 0x00, 0x00, 0x56, 0xb1, 0xff, 0xff,
  0x04, 0x00, 0x00, 0x00, 0x80, 0x00, 0x00, 0x00, 0xe9, 0xcf, 0x7f, 0xba,
  0x00, 0x31, 0x01, 0x22, 0x34, 0x1a, 0x57, 0x18, 0x2e, 0x3b, 0x14, 0xbe,
  0x05, 0xf9, 0x41, 0xb5, 0xfe, 0xc8, 0x3f, 0x00, 0x28, 0x06, 0x15, 0x34,
  0x00, 0x00, 0x00, 0x01, 0xbb, 0x3a, 0x00, 0xe7, 0xb2, 0x35, 0x00, 0x06,
  0x00, 0x00, 0x00, 0x05, 0x00, 0xe3, 0x0f, 0x00, 0xf7, 0x00, 0xfc, 0xff,
  0xe5, 0x36, 0x02, 0x00, 0x00, 0x0d, 0xfa, 0x01, 0x95, 0x04, 0x1b, 0x00,
  0x17, 0x31, 0x81, 0x46, 0x00, 0xcf, 0xff, 0xde, 0xcc, 0xe6, 0xa9, 0xe8,
  0xd2, 0xc5, 0xec, 0x42, 0xfb, 0x07, 0xbf, 0x4b, 0x02, 0x38, 0xc1, 0x00,
  0xd8, 0xfa, 0xeb, 0xcc, 0x00, 0x00, 0x00, 0xff, 0x45, 0xc6, 0x00, 0x19,
  0x4e, 0xcb, 0x00, 0xfa, 0x00, 0x00, 0x00, 0xfb, 0x00, 0x1d, 0xf1, 0x00,
  0x09, 0x00, 0x04, 0x01, 0x1b, 0xca, 0xfe, 0x00, 0x00, 0xf3, 0x06, 0xff,
  0x6b, 0xfc, 0xe5, 0x00, 0xc6, 0xb1, 0xff, 0xff, 0x00, 0x00, 0x00, 0x09,
  0x10, 0x00, 0x00, 0x00, 0x1b, 0x00, 0x00, 0x00, 0x14, 0x00, 0x00, 0x00,
  0x30, 0x00, 0x00, 0x00, 0x02, 0x00, 0x00, 0x00, 0x02, 0x00, 0x00, 0x00,
  0x40, 0x00, 0x00, 0x00, 0x19, 0x00, 0x00, 0x00, 0x73, 0x65, 0x71, 0x75,
  0x65, 0x6e, 0x74, 0x69, 0x61, 0x6c, 0x2f, 0x64, 0x65, 0x6e, 0x73, 0x65,
  0x5f, 0x31, 0x2f, 0x4d, 0x61, 0x74, 0x4d, 0x75, 0x6c, 0x00, 0x00, 0x00,
  0x54, 0xb2, 0xff, 0xff, 0x08, 0x00, 0x00, 0x00, 0x0c, 0x00, 0x00, 0x00,
  0x01, 0x00, 0x00, 0x00, 0x0d, 0x4b, 0xb3, 0x39, 0x01, 0x00, 0x00, 0x00,
  0x00, 0x00, 0x00, 0x00, 0x00, 0x00, 0x00, 0x00, 0x00, 0x00, 0x00, 0x00,
  0x4a, 0xb2, 0xff, 0xff, 0x04, 0x00, 0x00, 0x00, 0x00, 0x01, 0x00, 0x00,
  0x61, 0xff, 0xff, 0xff, 0xad, 0xff, 0xff, 0xff, 0x5f, 0x00, 0x00, 0x00,
  0xaa, 0xff, 0xff, 0xff, 0x4e, 0xff, 0xff, 0xff, 0x95, 0xff, 0xff, 0xff,
  0x4f, 0xff, 0xff, 0xff, 0xce, 0xff, 0xff, 0xff, 0xdd, 0xff, 0xff, 0xff,
  0x14, 0x00, 0x00, 0x00, 0x56, 0x00, 0x00, 0x00, 0xae, 0xff, 0xff, 0xff,
  0xa9, 0xff, 0xff, 0xff, 0xbf, 0xff, 0xff, 0xff, 0x3d, 0x00, 0x00, 0x00,
  0x71, 0xff, 0xff, 0xff, 0x39, 0xff, 0xff, 0xff, 0xb2, 0xff, 0xff, 0xff,
  0xe5, 0xff, 0xff, 0xff, 0xa4, 0xff, 0xff, 0xff, 0x7a, 0xff, 0xff, 0xff,
  0xbf, 0xff, 0xff, 0xff, 0xd6, 0xff, 0xff, 0xff, 0x38, 0xff, 0xff, 0xff,
  0x88, 0xff, 0xff, 0xff, 0xfc, 0xff, 0xff, 0xff, 0x90, 0xff, 0xff, 0xff,
  0xf6, 0xff, 0xff, 0xff, 0x3b, 0xff, 0xff, 0xff, 0x50, 0xff, 0xff, 0xff,
  0x64, 0xff, 0xff, 0xff, 0x83, 0xff, 0xff, 0xff, 0xe9, 0xff, 0xff, 0xff,
  0xbc, 0xff, 0xff, 0xff, 0x69, 0xff, 0xff, 0xff, 0x84, 0xff, 0xff, 0xff,
  0xd4, 0xff, 0xff, 0xff, 0xe9, 0xff, 0xff, 0xff, 0x6d, 0xff, 0xff, 0xff,
  0x69, 0xff, 0xff, 0xff, 0x3c, 0xff, 0xff, 0xff, 0x59, 0xff, 0xff, 0xff,
  0x5b, 0xff, 0xff, 0xff, 0x51, 0xff, 0xff, 0xff, 0x30, 0xff, 0xff, 0xff,
  0x7f, 0xff, 0xff, 0xff, 0xc7, 0xff, 0xff, 0xff, 0x4b, 0xff, 0xff, 0xff,
  0xe4, 0xff, 0xff, 0xff, 0xcc, 0xff, 0xff, 0xff, 0x6b, 0xff, 0xff, 0xff,
  0x63, 0xff, 0xff, 0xff, 0x8c, 0xff, 0xff, 0xff, 0xbe, 0xff, 0xff, 0xff,
  0x9e, 0xff, 0xff, 0xff, 0x65, 0xff, 0xff, 0xff, 0xbf, 0xff, 0xff, 0xff,
  0xa7, 0xff, 0xff, 0xff, 0x64, 0xff, 0xff, 0xff, 0x96, 0xff, 0xff, 0xff,
  0x60, 0x00, 0x00, 0x00, 0xb7, 0xff, 0xff, 0xff, 0x1f, 0x00, 0x00, 0x00,
  0x78, 0xff, 0xff, 0xff, 0x3a, 0xb3, 0xff, 0xff, 0x00, 0x00, 0x00, 0x02,
  0x10, 0x00, 0x00, 0x00, 0x1a, 0x00, 0x00, 0x00, 0x10, 0x00, 0x00, 0x00,
  0x1c, 0x00, 0x00, 0x00, 0x01, 0x00, 0x00, 0x00, 0x40, 0x00, 0x00, 0x00,
  0x0a, 0x00, 0x00, 0x00, 0x64, 0x65, 0x6e, 0x73, 0x65, 0x2f, 0x62, 0x69,
  0x61, 0x73, 0x00, 0x00, 0xb4, 0xb3, 0xff, 0xff, 0x08, 0x00, 0x00, 0x00,
  0x0c, 0x00, 0x00, 0x00, 0x01, 0x00, 0x00, 0x00, 0xed, 0x9f, 0xcb, 0x3b,
  0x01, 0x00, 0x00, 0x00, 0x00, 0x00, 0x00, 0x00, 0x00, 0x00, 0x00, 0x00,
  0x00, 0x00, 0x00, 0x00, 0xaa, 0xb3, 0xff, 0xff, 0x04, 0x00, 0x00, 0x00,
  0x00, 0x10, 0x00, 0x00, 0xf4, 0xf0, 0x0c, 0xfe, 0x01, 0xf2, 0x09, 0x03,
  0x0b, 0x0a, 0x0b, 0x09, 0x0c, 0x08, 0x0b, 0xe2, 0x01, 0xfa, 0xf3, 0xe8,
  0x0a, 0xf4, 0x02, 0x03, 0x06, 0x0c, 0xf2, 0x00, 0xf5, 0xfe, 0xf5, 0x01,
  0xf4, 0xf8, 0x0e, 0x03, 0xff, 0x27, 0x0d, 0x00, 0x09, 0x00, 0x0c, 0x0e,
  0x0b, 0x0c, 0x0d, 0xe8, 0x00, 0xfb, 0x23, 0xef, 0x01, 0xf4, 0xff, 0x05,
  0x01, 0x05, 0x0f, 0xfd, 0xfc, 0xeb, 0xff, 0xfe, 0xf8, 0x02, 0x04, 0xff,
  0xf5, 0x03, 0x03, 0x1d, 0x04, 0x04, 0x09, 0x05, 0x04, 0x04, 0x02, 0x03,
  0x05, 0x02, 0x02, 0x04, 0x0c, 0xf8, 0x04, 0x05, 0xfe, 0xf0, 0x03, 0x01,
  0x08, 0xdb, 0x03, 0x00, 0xf9, 0xff, 0x05, 0xfc, 0xfd, 0x17, 0x07, 0xfe,
  0x07, 0xf4, 0x05, 0x06, 0x07, 0x08, 0x04, 0xfd, 0x03, 0xfd, 0x17, 0xff,
  0x00, 0xfa, 0xff, 0x01, 0xfd, 0x09, 0x04, 0x02, 0xff, 0xea, 0xfd, 0x00,
  0x06, 0x0a, 0xfa, 0xff, 0xf9, 0x0e, 0xfb, 0xfa, 0xf7, 0xf0, 0xf9, 0xf7,
  0xfb, 0xfb, 0xfa, 0xfe, 0xe4, 0x02, 0x0f, 0x01, 0xce, 0x0a, 0x00, 0xe3,
  0xd2, 0xf6, 0x0c, 0xfc, 0x00, 0xfd, 0x06, 0x03, 0x05, 0x06, 0xf6, 0xff,
  0xfe, 0xc4, 0xf7, 0xfe, 0xfb, 0xfc, 0xfa, 0xf7, 0xf8, 0xf8, 0xf8, 0x00,
  0x01, 0x09, 0xcf, 0x0e, 0x04, 0x09, 0x07, 0xfb, 0x02, 0xfd, 0xf3, 0xfd,
  0x03, 0x2c, 0xfe, 0x07, 0xfa, 0xf2, 0x07, 0xfe, 0x07, 0xe7, 0x08, 0x02,
  0x08, 0x05, 0x04, 0x03, 0x05, 0x07, 0x07, 0xf0, 0x18, 0xf5, 0xf6, 0xec,
  0x06, 0xfb, 0xfd, 0x08, 0x01, 0x08, 0xfc, 0x01, 0xf5, 0x07, 0xe9, 0x01,
  0xf9, 0xee, 0x05, 0xff, 0x06, 0x22, 0x05, 0x04, 0x07, 0xfe, 0x05, 0x07,
  0x05, 0x03, 0x08, 0xd6, 0xd8, 0xf8, 0x20, 0xe3, 0xcb, 0xf8, 0x02, 0x02,
  0xeb, 0x0e, 0x14, 0xff, 0xf4, 0xdf, 0x06, 0x01, 0xf0, 0xfa, 0x11, 0x05,
  0xfc, 0xfc, 0x0c, 0x01, 0x11, 0xfb, 0x0f, 0x10, 0x0c, 0x10, 0x0d, 0xf3,
  0xfd, 0x02, 0x00, 0xfb, 0x0a, 0xf3, 0x0d, 0x07, 0x02, 0xfd, 0x05, 0x07,
  0x02, 0x00, 0xfe, 0xf8, 0xf0, 0x03, 0x10, 0x01, 0x03, 0x19, 0x0f, 0x00,
  0x0c, 0xfd, 0x0f, 0x0d, 0x10, 0x0d, 0x11, 0xf4, 0x02, 0x00, 0x16, 0xff,
  0x07, 0xf2, 0x08, 0xff, 0x06, 0x04, 0x17, 0x06, 0x02, 0xf3, 0x05, 0xf7,
  0xf7, 0x05, 0x07, 0xff, 0xe9, 0x08, 0x0a, 0xe8, 0x08, 0xe6, 0x0a, 0x0d,
  0x07, 0x0b, 0x0a, 0x03, 0xdf, 0x05, 0x03, 0xfd, 0xe6, 0xf8, 0x0a, 0xe3,
  0xe2, 0xe2, 0x08, 0x00, 0x05, 0xe6, 0xfd, 0xfb, 0xf8, 0x07, 0x0b, 0xff,
  0x00, 0xd1, 0x0a, 0xff, 0x07, 0xf7, 0x09, 0x0c, 0x0b, 0x08, 0x06, 0xfc,
  0x03, 0xff, 0xed, 0x09, 0x01, 0xf4, 0x0c, 0xfa, 0x00, 0xf7, 0x02, 0x05,
  0x07, 0x2e, 0xfa, 0x00, 0xf1, 0x03, 0x13, 0x09, 0xf9, 0x03, 0x10, 0xfa,
  0x0f, 0xfc, 0x0d, 0x13, 0x12, 0x10, 0x0d, 0xfd, 0xf7, 0xfe, 0x01, 0xf4,
  0xf6, 0xf1, 0x08, 0xf4, 0xfc, 0xf8, 0x03, 0x0d, 0x00, 0xf8, 0x08, 0xf5,
  0xee, 0xf6, 0x0e, 0x08, 0x05, 0xe7, 0x11, 0x02, 0x10, 0xfe, 0x10, 0x13,
  0x10, 0x12, 0x0b, 0xfa, 0x01, 0xf3, 0xf5, 0x01, 0xfe, 0xf1, 0x07, 0x02,
  0x05, 0x02, 0x0d, 0x0e, 0x07, 0x26, 0x09, 0xf1, 0xfd, 0x05, 0x07, 0x00,
  0x02, 0x03, 0x04, 0x02, 0x03, 0xfa, 0x06, 0x05, 0x03, 0x07, 0x05, 0x00,
  0xfd, 0xf3, 0x05, 0x02, 0xef, 0xfb, 0x2d, 0xfa, 0xfc, 0x02, 0xc1, 0x01,
  0x0e, 0x01, 0x0d, 0xfd, 0xfb, 0x04, 0x04, 0x03, 0x02, 0xd3, 0x06, 0x03,
  0x08, 0xfd, 0x03, 0x04, 0x04, 0x02, 0x07, 0x01, 0xfd, 0xfb, 0xe3, 0xfe,
  0x01, 0xfd, 0x04, 0xfa, 0x00, 0x04, 0xfa, 0x03, 0xfb, 0x26, 0x08, 0xfb,
  0xfc, 0x0e, 0x03, 0x02, 0xfe, 0x17, 0x03, 0xfe, 0x02, 0x00, 0x05, 0x01,
  0x05, 0x03, 0x02, 0x01, 0xfa, 0x15, 0xa8, 0x0d, 0xf4, 0xfd, 0x11, 0xfc,
  0xfe, 0x01, 0x14, 0xff, 0x1f, 0x01, 0x15, 0xff, 0xfe, 0x06, 0x00, 0xfe,
  0x02, 0xd7, 0x02, 0x02, 0x05, 0xfd, 0x02, 0x06, 0x01, 0x01, 0x05, 0x05,
  0xff, 0x10, 0xec, 0xfe, 0x02, 0xfc, 0x0d, 0xfe, 0x02, 0x01, 0xf7, 0x02,
  0x0c, 0x17, 0x0e, 0x01, 0x01, 0xca, 0x01, 0x04, 0xf8, 0xf2, 0x00, 0xf4,
  0xfd, 0x01, 0x00, 0xfe, 0x00, 0x03, 0xfc, 0xda, 0x01, 0x1f, 0x05, 0x14,
  0x0f, 0x01, 0x0b, 0x05, 0x0d, 0xef, 0x0e, 0x04, 0xf4, 0xf3, 0x0c, 0xfd,
  0xfe, 0xf0, 0xfe, 0x03, 0x06, 0xd1, 0x00, 0x01, 0x02, 0xf5, 0x02, 0x00,
  0xff, 0xfe, 0xff, 0xee, 0xf5, 0x08, 0xe7, 0x0e, 0x03, 0x00, 0x1e, 0xf1,
  0x07, 0xf9, 0x04, 0x03, 0x11, 0x15, 0x06, 0xfc, 0x09, 0x0b, 0xf8, 0xfd,
  0xe6, 0x13, 0xf8, 0xeb, 0xfa, 0xf5, 0xfa, 0xf8, 0xf8, 0xf9, 0xfc, 0x00,
  0xea, 0x07, 0x09, 0x04, 0xe7, 0x08, 0x04, 0xf5, 0xf5, 0xde, 0x04, 0xff,
  0xf9, 0xe6, 0x0c, 0x00, 0x08, 0x03, 0xfc, 0x00, 0x03, 0xc9, 0xf8, 0xfc,
  0xf7, 0xf4, 0xf8, 0xfb, 0xfa, 0xf6, 0xf8, 0xff, 0xfe, 0x0a, 0xd2, 0x08,
  0xfd, 0x05, 0x09, 0xf4, 0xfb, 0xe7, 0xfa, 0xfd, 0x0e, 0x27, 0x05, 0x02,
  0xfc, 0xf1, 0x07, 0x02, 0xf6, 0xf8, 0x05, 0xf9, 0x06, 0xf8, 0x07, 0x09,
  0x04, 0x07, 0x05, 0x03, 0xed, 0xed, 0xe2, 0x0b, 0xf6, 0xfa, 0x02, 0xfa,
  0x01, 0xf5, 0x08, 0x01, 0x23, 0xf9, 0x05, 0x01, 0xf7, 0xff, 0x06, 0x01,
  0x04, 0xdf, 0x04, 0x04, 0x05, 0x03, 0x04, 0x05, 0x09, 0x07, 0x07, 0x03,
  0x02, 0x06, 0xfb, 0x09, 0x04, 0xf7, 0x11, 0xfa, 0x01, 0xfe, 0x0f, 0x03,
  0x05, 0x11, 0x01, 0xff, 0xfa, 0xc0, 0x07, 0x00, 0xf0, 0x03, 0x08, 0xf0,
  0x08, 0xf8, 0x09, 0x09, 0x05, 0x05, 0x03, 0xfe, 0xe7, 0x01, 0x03, 0x0d,
  0xee, 0xf8, 0x05, 0xee, 0xe9, 0xee, 0x01, 0x01, 0x16, 0xea, 0x06, 0xff,
  0xf7, 0x02, 0x09, 0xfe, 0x00, 0xd2, 0x08, 0xfe, 0x05, 0xf8, 0x08, 0x07,
  0x05, 0x04, 0x02, 0xfc, 0x01, 0x02, 0xed, 0xfd, 0x03, 0xf9, 0x0a, 0xf7,
  0x01, 0xf8, 0x01, 0xff, 0x02, 0x23, 0x0c, 0x00, 0xf9, 0x07, 0x05, 0x00,
  0xe8, 0x0d, 0x08, 0xe7, 0x08, 0xeb, 0x06, 0x04, 0x05, 0x04, 0x08, 0xfd,
  0xdd, 0x00, 0x04, 0xfd, 0xe2, 0xfd, 0x06, 0xdd, 0xdf, 0xdf, 0x05, 0x04,
  0x07, 0xe2, 0x0b, 0xfe, 0xfe, 0x04, 0x06, 0x00, 0x08, 0xd2, 0x03, 0x02,
  0x05, 0xf7, 0x05, 0x05, 0x06, 0x04, 0x01, 0xfc, 0x02, 0x01, 0xe2, 0x04,
  0xfe, 0xfb, 0x0a, 0xf7, 0xfd, 0xf5, 0xff, 0x02, 0x0c, 0x2d, 0x06, 0xfe,
  0x02, 0x0e, 0xfb, 0xfc, 0xff, 0xf8, 0xfe, 0xfe, 0xfc, 0x01, 0xfa, 0xf9,
  0x00, 0xfb, 0xfe, 0xec, 0x01, 0xf9, 0x05, 0xfd, 0x01, 0x06, 0x19, 0xff,
  0xff, 0x00, 0xfb, 0x01, 0x09, 0x01, 0xf5, 0x01, 0x05, 0xe0, 0xfe, 0x00,
  0x03, 0xc8, 0xfb, 0x01, 0xf9, 0xff, 0xfa, 0xfc, 0xfd, 0xff, 0xfb, 0xff,
  0xfe, 0x18, 0xe1, 0x20, 0xfe, 0x04, 0x25, 0xfc, 0x02, 0xff, 0x10, 0xfd,
  0x0a, 0x1d, 0x0c, 0x01, 0xf9, 0xf3, 0x08, 0x01, 0x0d, 0xe7, 0x0a, 0x0a,
  0x08, 0x08, 0x0c, 0x0b, 0x07, 0x06, 0x06, 0xe8, 0x0f, 0xfe, 0xf2, 0xe9,
  0x0d, 0xf6, 0x01, 0x02, 0x0a, 0x03, 0xf4, 0x03, 0xf7, 0xf7, 0xec, 0xfb,
  0xf7, 0xf2, 0x0b, 0x00, 0xfc, 0x2e, 0x09, 0x07, 0x08, 0xf7, 0x0c, 0x0a,
  0x06, 0x07, 0x0a, 0xe0, 0x03, 0xf8, 0x26, 0xe1, 0x01, 0xf4, 0xff, 0x02,
  0x00, 0x07, 0x14, 0x01, 0xf7, 0xe0, 0x04, 0xfd, 0xed, 0x08, 0x12, 0x06,
  0xf6, 0x06, 0x12, 0xf8, 0x0f, 0xf8, 0x14, 0x14, 0x10, 0x13, 0x13, 0x08,
  0xf2, 0x00, 0x09, 0xf6, 0xf2, 0xf0, 0x0b, 0xf5, 0xf1, 0xf0, 0x03, 0x09,
  0x0c, 0xf7, 0xf9, 0xf6, 0xee, 0xfe, 0x11, 0x02, 0x04, 0xe1, 0x14, 0x00,
  0x12, 0xfc, 0x0f, 0x14, 0x11, 0x15, 0x0f, 0x04, 0x06, 0x00, 0xf5, 0x05,
  0x06, 0xee, 0x11, 0x00, 0x00, 0xff, 0x0b, 0x06, 0x0d, 0x29, 0x03, 0xfa,
  0xfe, 0xf5, 0x04, 0x01, 0x05, 0xe9, 0x03, 0x01, 0x07, 0xfc, 0x06, 0x04,
  0x03, 0x05, 0x02, 0xf8, 0x04, 0xf3, 0xf1, 0xed, 0x0d, 0xf9, 0xf5, 0x01,
  0x09, 0xf4, 0xe9, 0x02, 0xeb, 0x01, 0xef, 0xfb, 0xfc, 0x06, 0x04, 0xfe,
  0x03, 0x32, 0x05, 0x03, 0x03, 0x00, 0x06, 0x05, 0x06, 0x03, 0x06, 0x01,
  0x01, 0x04, 0x27, 0x06, 0x04, 0xfc, 0x07, 0x03, 0x04, 0x00, 0x09, 0x00,
  0x05, 0xd2, 0x08, 0xff, 0x01, 0xe0, 0x05, 0xf8, 0xf9, 0xd6, 0x02, 0xfa,
  0x03, 0x05, 0x03, 0x04, 0xff, 0x02, 0xff, 0xfb, 0xf5, 0x1a, 0x06, 0xea,
  0xf7, 0xfb, 0x11, 0xfa, 0x00, 0xf3, 0xfc, 0xf7, 0x1d, 0xf4, 0xfd, 0x05,
  0xfd, 0x00, 0x01, 0xf9, 0x03, 0xd7, 0x03, 0x00, 0x04, 0xfd, 0x03, 0x01,
  0xff, 0x00, 0x01, 0x02, 0xfe, 0x00, 0xf0, 0x05, 0x03, 0xff, 0x0e, 0xfc,
  0x05, 0xfe, 0x17, 0xf8, 0x11, 0x11, 0x07, 0x04, 0xf8, 0xe8, 0x06, 0x00,
  0x03, 0xdf, 0x06, 0x02, 0x07, 0x00, 0x06, 0x08, 0x04, 0x03, 0x07, 0xde,
  0x03, 0xf3, 0xe5, 0xdb, 0x16, 0xfc, 0xfd, 0x0a, 0x0b, 0x07, 0xe8, 0x02,
  0xef, 0x04, 0xe5, 0xff, 0xfd, 0xf1, 0x04, 0x01, 0x05, 0x2f, 0x03, 0x04,
  0x06, 0x03, 0x09, 0x08, 0x07, 0x07, 0x08, 0xd4, 0x01, 0xf5, 0x24, 0xe6,
  0x07, 0xfb, 0xfd, 0x01, 0x05, 0x04, 0x16, 0x01, 0xf5, 0xdc, 0x00, 0xfe,
  0xf3, 0xf3, 0x0c, 0x05, 0xfe, 0xfe, 0x0b, 0xfd, 0x0b, 0xf3, 0x0e, 0x09,
  0x0c, 0x0d, 0x0e, 0xff, 0xf7, 0x06, 0xfc, 0xfd, 0xf5, 0xf5, 0x00, 0xfc,
  0xfd, 0xf2, 0x08, 0x0a, 0x02, 0x06, 0xf8, 0xf7, 0xf3, 0x01, 0x0a, 0x05,
  0x06, 0xde, 0x0a, 0xff, 0x0b, 0xfe, 0x0d, 0x0d, 0x0c, 0x0e, 0x0a, 0x03,
  0x05, 0xff, 0xf9, 0xfb, 0xfc, 0xf7, 0x00, 0xfc, 0xfa, 0xf9, 0x06, 0x07,
  0x09, 0x27, 0x00, 0xf6, 0xfd, 0xff, 0x08, 0xfe, 0x0c, 0xf5, 0x06, 0x81,
  0x04, 0x06, 0x07, 0x04, 0x03, 0x03, 0x03, 0xfa, 0x01, 0xf7, 0x00, 0xfa,
  0xfa, 0xf9, 0xf6, 0xff, 0x00, 0x1f, 0xf9, 0x01, 0xf7, 0x06, 0xf8, 0xff,
  0xfa, 0xfe, 0x04, 0x02, 0xff, 0x1b, 0x05, 0x03, 0x03, 0x00, 0x05, 0x07,
  0x07, 0x02, 0x09, 0xfd, 0x02, 0xfe, 0x16, 0xff, 0x01, 0xf9, 0x03, 0x03,
  0x01, 0x05, 0x05, 0x02, 0xf9, 0xe9, 0xfd, 0xff, 0xfb, 0xb7, 0x03, 0x01,
  0x00, 0x09, 0x03, 0x00, 0x07, 0x01, 0x02, 0x03, 0x04, 0x05, 0x06, 0x06,
  0xf9, 0x19, 0x0e, 0xfd, 0xef, 0xfa, 0xe8, 0xff, 0xf4, 0x00, 0x1f, 0x00,
  0xeb, 0x00, 0x00, 0xff, 0xfd, 0x05, 0x04, 0xff, 0xff, 0xd6, 0x05, 0xfe,
  0x06, 0xf9, 0x06, 0x08, 0x07, 0x02, 0x04, 0x00, 0x01, 0xea, 0xe8, 0xfd,
  0xfd, 0xf9, 0x0c, 0x00, 0xff, 0x00, 0xf2, 0x04, 0x0a, 0x1d, 0xfc, 0x00,
  0xf1, 0x01, 0x11, 0x0a, 0xfe, 0x00, 0x12, 0x02, 0x0f, 0xfe, 0x0f, 0x10,
  0x0f, 0x14, 0x0c, 0xfd, 0x06, 0x03, 0xfd, 0xf9, 0x01, 0xed, 0x0c, 0x04,
  0x01, 0x00, 0x03, 0x0e, 0x00, 0xff, 0xf8, 0xf0, 0xef, 0xfd, 0x11, 0x0a,
  0x0b, 0x0c, 0x14, 0x02, 0x12, 0x06, 0x11, 0x0f, 0x0f, 0x10, 0x10, 0x04,
  0x07, 0x05, 0x0e, 0x02, 0xfb, 0xed, 0x09, 0x0b, 0x01, 0x03, 0x05, 0x10,
  0xfe, 0x11, 0x07, 0xef, 0xf8, 0x09, 0x09, 0x04, 0xea, 0x07, 0x0c, 0xe9,
  0x0b, 0xed, 0x0a, 0x0c, 0x0b, 0x07, 0x0a, 0xff, 0xe1, 0x07, 0x06, 0xf8,
  0xe4, 0xf4, 0xfe, 0xe0, 0xe0, 0xe0, 0x06, 0x02, 0x04, 0xe5, 0x00, 0xfd,
  0xf9, 0x03, 0x0a, 0x03, 0x01, 0xd3, 0x09, 0xff, 0x09, 0xf5, 0x0b, 0x09,
  0x0a, 0x08, 0x09, 0x00, 0xff, 0x01, 0xea, 0x06, 0xff, 0xf5, 0x05, 0xf9,
  0xfe, 0xf6, 0x05, 0xff, 0x0e, 0x2c, 0xfb, 0x02, 0x01, 0xd4, 0x02, 0x00,
  0x01, 0xe9, 0x04, 0x02, 0x01, 0xfb, 0x03, 0xff, 0x03, 0x02, 0x02, 0x03,
  0xfc, 0x17, 0x04, 0xfe, 0xf7, 0x00, 0x28, 0xff, 0xff, 0xff, 0xfc, 0xfc,
  0xfe, 0x00, 0x04, 0x00, 0xff, 0x00, 0x03, 0x00, 0xfe, 0xd6, 0xff, 0x03,
  0x01, 0xf8, 0xff, 0x04, 0x02, 0xff, 0xfd, 0xfb, 0xfd, 0xff, 0xe6, 0x07,
  0x00, 0xff, 0x16, 0xfe, 0x00, 0x00, 0x08, 0x01, 0xfe, 0x1d, 0x04, 0xff,
  0xf8, 0xf5, 0x09, 0x08, 0xf4, 0xed, 0x09, 0xe9, 0x08, 0x04, 0x0b, 0x08,
  0x08, 0x0b, 0x09, 0xed, 0xf2, 0xf3, 0xf4, 0xf0, 0x06, 0xf5, 0xfc, 0x07,
  0x00, 0x11, 0xf8, 0x08, 0xf8, 0x01, 0xf2, 0xfa, 0xf9, 0xfe, 0x0b, 0x07,
  0xfe, 0x14, 0x09, 0x04, 0x0a, 0xff, 0x06, 0x08, 0x07, 0x09, 0x0e, 0xf9,
  0x07, 0xf7, 0x13, 0xfb, 0x07, 0xf8, 0xfe, 0x02, 0x03, 0xf8, 0x03, 0x04,
  0xf8, 0xf1, 0xfe, 0xfa, 0xff, 0xfa, 0x00, 0x04, 0xfd, 0xe9, 0x00, 0xff,
  0x04, 0xf8, 0x02, 0x04, 0xfe, 0xff, 0x01, 0x04, 0xfd, 0x05, 0x04, 0x0f,
  0xfb, 0xfd, 0x19, 0x01, 0x01, 0x01, 0x06, 0x00, 0x31, 0x03, 0xbc, 0xfc,
  0xff, 0x02, 0xfe, 0x02, 0xff, 0xdc, 0x00, 0x02, 0x00, 0xfc, 0xff, 0xff,
  0x03, 0x04, 0x01, 0x00, 0xff, 0x10, 0xec, 0x04, 0x04, 0xff, 0x01, 0xfe,
  0x00, 0x04, 0xfe, 0x04, 0xfc, 0x15, 0x05, 0xff, 0xf3, 0x01, 0x0f, 0x03,
  0xfa, 0xfd, 0x10, 0xfc, 0x0f, 0xf8, 0x11, 0x13, 0x0f, 0x0c, 0x0d, 0xff,
  0xf9, 0xfb, 0xfd, 0xff, 0xf8, 0xf0, 0x01, 0xfb, 0xf8, 0xf6, 0x01, 0x07,
  0x00, 0xf9, 0xfb, 0xfb, 0xf2, 0x02, 0x10, 0x02, 0x03, 0xe8, 0x10, 0x03,
  0x0d, 0xff, 0x0d, 0x0e, 0x0e, 0x0e, 0x08, 0xff, 0x04, 0xfb, 0xf9, 0xff,
  0xfd, 0xef, 0x0a, 0x04, 0xff, 0xfe, 0x08, 0x05, 0x09, 0x26, 0x01, 0xf9,
  0xf3, 0x06, 0x10, 0x0b, 0xfc, 0x00, 0x11, 0x01, 0x0f, 0xfa, 0x0e, 0x0c,
  0x13, 0x0e, 0x11, 0x06, 0x02, 0x00, 0x03, 0xf8, 0x03, 0xf0, 0x07, 0x01,
  0x01, 0x00, 0x03, 0x0a, 0x04, 0x04, 0x00, 0xf4, 0xef, 0x02, 0x11, 0x09,
  0x08, 0x03, 0x0f, 0x05, 0x10, 0xf7, 0x0e, 0x10, 0x10, 0x13, 0x11, 0x08,
  0x07, 0x02, 0x0a, 0xfe, 0x00, 0xee, 0x04, 0x0b, 0xfe, 0x06, 0x05, 0x0e,
  0x05, 0x16, 0x08, 0xf0, 0xf0, 0x02, 0x0e, 0x09, 0x00, 0xfa, 0x0d, 0xfe,
  0x0c, 0xf8, 0x0d, 0x0f, 0x0d, 0x0f, 0x0d, 0xfd, 0x0a, 0x02, 0x01, 0xfc,
  0x04, 0xf4, 0x03, 0x02, 0xfd, 0xff, 0x03, 0x0e, 0x0d, 0x02, 0xfc, 0xf6,
  0xf4, 0x03, 0x0d, 0x0b, 0x05, 0x02, 0x0d, 0x04, 0x10, 0x0a, 0x0e, 0x10,
  0x0e, 0x10, 0x0e, 0xfa, 0x00, 0xfd, 0x08, 0xfd, 0xfc, 0xef, 0x05, 0x08,
  0xfb, 0x06, 0x08, 0x0b, 0x02, 0x17, 0x00, 0xf4, 0xf9, 0xf9, 0x09, 0x05,
  0xfd, 0xf3, 0x0b, 0xfd, 0x0b, 0xfb, 0x07, 0x0b, 0x08, 0x09, 0x07, 0xfb,
  0x02, 0xf9, 0xfa, 0xf5, 0x0a, 0xf8, 0x00, 0xfc, 0x03, 0xf4, 0xf2, 0x00,
  0xf5, 0xfd, 0xf4, 0xfd, 0xf5, 0x02, 0x09, 0x04, 0xf9, 0x32, 0x0a, 0x03,
  0x06, 0xfd, 0x07, 0x07, 0x05, 0x08, 0x0a, 0xfd, 0x01, 0x01, 0x24, 0x03,
  0x02, 0xf5, 0x02, 0xfe, 0x04, 0xfa, 0x0a, 0x02, 0x07, 0xdd, 0x09, 0xff,
  0xfe, 0xf1, 0xfe, 0x02, 0x09, 0xe4, 0x00, 0x0a, 0x03, 0xff, 0xff, 0xfe,
  0x00, 0xfe, 0xfc, 0xf1, 0x0a, 0xf8, 0xf1, 0xe8, 0x18, 0x02, 0xfc, 0x08,
  0x0c, 0xfb, 0xf3, 0x02, 0xfa, 0x02, 0xee, 0xfb, 0xff, 0xea, 0x02, 0x03,
  0x07, 0x39, 0x01, 0x05, 0xff, 0x07, 0xfe, 0xff, 0x02, 0x01, 0xff, 0xe3,
  0x03, 0xeb, 0x24, 0xdd, 0x00, 0x02, 0xf8, 0x05, 0x04, 0x00, 0x0f, 0x02,
  0xed, 0xc9, 0xf6, 0xfe, 0xfc, 0xef, 0x04, 0xff, 0xf4, 0xe8, 0x07, 0xf8,
  0x06, 0x04, 0x04, 0x08, 0x05, 0x02, 0x07, 0xf1, 0xf9, 0x05, 0x09, 0x02,
  0x05, 0xf9, 0x0b, 0x02, 0x0e, 0xf4, 0xf2, 0xfa, 0x1f, 0xef, 0xf4, 0x04,
  0xf8, 0xf8, 0x05, 0xfb, 0x06, 0xdf, 0x06, 0x06, 0x05, 0xfb, 0x06, 0x08,
  0x05, 0x06, 0x06, 0xff, 0xf6, 0x00, 0xf8, 0x01, 0x00, 0xfd, 0x0a, 0xf5,
  0x07, 0xff, 0x15, 0xfb, 0x0c, 0x0f, 0x0c, 0x04, 0xf2, 0xf5, 0x0a, 0x03,
  0x04, 0x01, 0x0e, 0xfb, 0x0d, 0xfb, 0x09, 0x0b, 0x0b, 0x0d, 0x09, 0xf5,
  0xfe, 0x02, 0x00, 0xf1, 0x06, 0xf6, 0x0f, 0x02, 0xff, 0xfb, 0x00, 0x08,
  0x00, 0xfb, 0xfc, 0xf8, 0xf6, 0x01, 0x0b, 0x00, 0x02, 0x26, 0x0b, 0x01,
  0x0a, 0x01, 0x0b, 0x0c, 0x0c, 0x0a, 0x0d, 0xfe, 0x03, 0x08, 0x18, 0xff,
  0xf8, 0xf4, 0x04, 0x02, 0x02, 0x05, 0x0f, 0x05, 0x08, 0xe9, 0x01, 0xfb,
  0xf9, 0xf5, 0x06, 0xfc, 0xe5, 0xed, 0x08, 0xe9, 0x0b, 0xfc, 0x06, 0x09,
  0x08, 0x09, 0x05, 0xf7, 0x09, 0xf7, 0xf5, 0xec, 0xff, 0xf8, 0xff, 0x07,
  0xfa, 0x0e, 0xfa, 0xfd, 0xf9, 0x0a, 0xf5, 0x04, 0xf8, 0xfd, 0x09, 0xfb,
  0x04, 0x1a, 0x06, 0xff, 0x0c, 0xf8, 0x09, 0x0b, 0x07, 0x09, 0x0e, 0xf0,
  0xfb, 0xfc, 0x18, 0xf7, 0xfa, 0xf5, 0xff, 0x03, 0x04, 0x05, 0x08, 0xfb,
  0xfb, 0xe8, 0x02, 0x02, 0xfc, 0xfc, 0x05, 0x00, 0x9c, 0xf6, 0x04, 0x0f,
  0x02, 0x03, 0x04, 0x03, 0x01, 0x01, 0x03, 0xfe, 0x08, 0xf6, 0xff, 0xf8,
  0xfd, 0xfd, 0xf8, 0xfe, 0xff, 0x08, 0xf9, 0xff, 0xfa, 0x0e, 0xfa, 0xfe,
  0xfc, 0x01, 0x02, 0x03, 0x02, 0x1e, 0x02, 0xfd, 0x01, 0xf9, 0x06, 0x03,
  0x05, 0x04, 0x03, 0xfb, 0x05, 0xff, 0x18, 0x00, 0x00, 0xfd, 0x00, 0x05,
  0xfe, 0x01, 0x06, 0x04, 0xff, 0xe2, 0x02, 0x00, 0xfc, 0x08, 0x02, 0xff,
  0xf8, 0x06, 0x00, 0xfe, 0x04, 0xed, 0x03, 0x05, 0x00, 0xff, 0x02, 0xfa,
  0xdf, 0xf7, 0x07, 0xf9, 0xd9, 0xff, 0xff, 0xe2, 0xd8, 0xf4, 0x06, 0x01,
  0x06, 0xfd, 0x04, 0xfe, 0xfd, 0x03, 0xff, 0x01, 0xfd, 0xc8, 0x01, 0xf5,
  0x01, 0xf3, 0x00, 0x03, 0x03, 0x00, 0x00, 0xfd, 0x03, 0x0b, 0xde, 0x03,
  0xfd, 0xfb, 0x0c, 0xf3, 0xf8, 0xef, 0x05, 0x02, 0x06, 0x2d, 0xfa, 0xfe,
  0xf5, 0xff, 0x0a, 0x08, 0xfa, 0xfe, 0x0a, 0xff, 0x0c, 0xf9, 0x0c, 0x0d,
  0x0a, 0x0a, 0x08, 0x01, 0xfe, 0x05, 0xfe, 0x00, 0xfa, 0xf7, 0x00, 0xfb,
  0xfc, 0xfb, 0x01, 0x0a, 0x02, 0xff, 0xfd, 0xf7, 0xf4, 0x01, 0x0a, 0x04,
  0x05, 0xe6, 0x0e, 0x01, 0x0e, 0xfd, 0x09, 0x0b, 0x0b, 0x08, 0x0a, 0x02,
  0x05, 0x00, 0x00, 0x00, 0xff, 0xf5, 0x04, 0x02, 0xfd, 0xfd, 0x06, 0x08,
  0x04, 0x23, 0xff, 0xf9, 0xf3, 0x02, 0x0a, 0x00, 0xf1, 0x02, 0x0b, 0xf6,
  0x0c, 0xfa, 0x0c, 0x0d, 0x0d, 0x0c, 0x0a, 0x00, 0xee, 0xeb, 0x03, 0xfa,
  0xef, 0xf1, 0x01, 0xf2, 0xf1, 0xef, 0x06, 0xfd, 0x0e, 0xef, 0x01, 0x00,
  0xf8, 0x05, 0x0a, 0xfe, 0x05, 0xda, 0x0e, 0x04, 0x0d, 0x02, 0x0b, 0x0e,
  0x08, 0x0c, 0x09, 0xfc, 0x00, 0x01, 0xed, 0x03, 0x01, 0xf3, 0x0e, 0x01,
  0x02, 0x02, 0x09, 0x00, 0x08, 0x2c, 0xfc, 0xfc, 0xec, 0xfc, 0x13, 0x0c,
  0x03, 0xff, 0x10, 0xfd, 0x12, 0xf5, 0x0f, 0x0f, 0x11, 0x13, 0x15, 0xf6,
  0x08, 0x03, 0x01, 0xfe, 0x05, 0xee, 0x07, 0x00, 0x01, 0x02, 0x09, 0x0b,
  0x02, 0x00, 0x01, 0xf5, 0xec, 0xfd, 0x11, 0x0c, 0x0a, 0x05, 0x12, 0x05,
  0x11, 0xf6, 0x14, 0x11, 0x10, 0x13, 0x0f, 0x03, 0x01, 0x05, 0x0d, 0xfa,
  0xfe, 0xee, 0x0a, 0x08, 0xff, 0x04, 0x06, 0x0e, 0x03, 0x15, 0x04, 0xf3,
  0xf3, 0xfc, 0x0f, 0x05, 0xfa, 0x00, 0x0f, 0x01, 0x10, 0xf7, 0x10, 0x0e,
  0x10, 0x11, 0x12, 0x06, 0xfd, 0xff, 0x01, 0x01, 0x05, 0xef, 0xff, 0x02,
  0x04, 0xff, 0x07, 0x07, 0x01, 0x05, 0xff, 0xf8, 0xee, 0x04, 0x11, 0x07,
  0x05, 0xff, 0x0f, 0xff, 0x0e, 0x01, 0x0d, 0x0f, 0x10, 0x10, 0x14, 0xfe,
  0x00, 0x03, 0x0e, 0xfc, 0xf8, 0xf4, 0x00, 0x02, 0xfc, 0xfe, 0x04, 0x09,
  0x00, 0x13, 0x06, 0xf5, 0xef, 0x03, 0x11, 0x08, 0xfd, 0xfa, 0x11, 0xfc,
  0x0d, 0xfb, 0x12, 0x0e, 0x10, 0x0d, 0x0c, 0x00, 0x05, 0x03, 0x05, 0x00,
  0x0b, 0xf1, 0x06, 0xfd, 0x00, 0x02, 0x02, 0x09, 0x0b, 0x04, 0xfb, 0xf5,
  0xef, 0x03, 0x0e, 0x06, 0x03, 0x04, 0x11, 0x05, 0x0c, 0x02, 0x0f, 0x10,
  0x0e, 0x10, 0x14, 0xf9, 0x00, 0x02, 0x0e, 0x03, 0xfc, 0xf1, 0x08, 0x09,
  0xff, 0x07, 0x08, 0x09, 0x02, 0x15, 0x04, 0xf6, 0xf0, 0x03, 0x0d, 0xfe,
  0xf2, 0xff, 0x10, 0xf1, 0x0c, 0xf5, 0x0d, 0x0e, 0x0e, 0x0d, 0x0f, 0x03,
  0xeb, 0xfb, 0x00, 0xf2, 0xec, 0xf2, 0x03, 0xee, 0xec, 0xe8, 0x05, 0x03,
  0x04, 0xee, 0x00, 0xfb, 0xf3, 0x02, 0x11, 0xfe, 0x03, 0xd7, 0x10, 0x02,
  0x10, 0xfd, 0x0e, 0x11, 0x0e, 0x0c, 0x0e, 0xfc, 0x01, 0x06, 0xf4, 0x01,
  0x01, 0xf1, 0x0e, 0x01, 0xfd, 0xfb, 0x0a, 0x03, 0x0c, 0x2d, 0xfd, 0xfe,
  0xf0, 0x00, 0x14, 0x05, 0xf7, 0xfc, 0x10, 0xf8, 0x12, 0xf2, 0x13, 0x10,
  0x12, 0x0e, 0x0d, 0x01, 0xf3, 0x00, 0x01, 0xf6, 0xf9, 0xed, 0x03, 0xf7,
  0xf6, 0xf1, 0xfe, 0x05, 0x02, 0xf3, 0xfb, 0xf6, 0xef, 0xfd, 0x11, 0x02,
  0x05, 0xe3, 0x10, 0x05, 0x13, 0xfb, 0x11, 0x11, 0x11, 0x12, 0x0d, 0xff,
  0x06, 0xff, 0xf9, 0x04, 0x00, 0xef, 0x06, 0x04, 0xfd, 0xff, 0x07, 0x0a,
  0x0a, 0x2d, 0xfa, 0xfb, 0xfa, 0xf2, 0x0a, 0x00, 0x02, 0xeb, 0x09, 0x02,
  0x07, 0x05, 0x0b, 0x06, 0x08, 0x0b, 0x0b, 0xe4, 0x08, 0xf8, 0xf1, 0xe8,
  0x03, 0xf7, 0xff, 0xff, 0x0b, 0xfe, 0xee, 0x02, 0xf3, 0x02, 0xf2, 0x00,
  0xf8, 0xfc, 0x08, 0xff, 0xfb, 0x31, 0x09, 0x04, 0x08, 0x02, 0x0a, 0x0c,
  0x05, 0x05, 0x08, 0xea, 0xfc, 0x01, 0x26, 0xee, 0x03, 0xf7, 0x01, 0x02,
  0x03, 0x04, 0x10, 0x01, 0xfd, 0xda, 0x05, 0x00, 0xf9, 0x08, 0x06, 0x04,
  0xf1, 0x08, 0x04, 0xf4, 0x08, 0xf9, 0x06, 0x07, 0x08, 0x05, 0x07, 0xff,
  0xfa, 0x16, 0xd6, 0x0a, 0x05, 0xfc, 0xff, 0x01, 0x0c, 0xef, 0x07, 0x05,
  0x02, 0xf1, 0x00, 0xfa, 0xfd, 0xfd, 0x04, 0x03, 0x03, 0xdf, 0x03, 0x02,
  0x08, 0xfb, 0x06, 0x08, 0x08, 0x03, 0x02, 0x03, 0xfd, 0xf9, 0xf5, 0x05,
  0x03, 0xf8, 0x08, 0xfa, 0x03, 0xfe, 0x12, 0x09, 0x16, 0x0f, 0x0e, 0xfa,
  0xf3, 0x00, 0x0f, 0x02, 0x08, 0xfc, 0x0d, 0xfc, 0x11, 0xfb, 0x10, 0x0c,
  0x0e, 0x0f, 0x10, 0xf8, 0xfe, 0xfb, 0xff, 0x01, 0x09, 0xf2, 0x05, 0x01,
  0x00, 0xfc, 0x01, 0x05, 0x00, 0xfe, 0xf6, 0xfa, 0xf3, 0x00, 0x10, 0x06,
  0x04, 0x17, 0x0e, 0x01, 0x0e, 0xff, 0x0d, 0x10, 0x0d, 0x0f, 0x10, 0xfc,
  0x05, 0x01, 0x14, 0x02, 0xf5, 0xf0, 0x08, 0x00, 0x00, 0x01, 0x09, 0x08,
  0x06, 0xfc, 0x05, 0xf7, 0x01, 0x01, 0x02, 0x03, 0x21, 0x04, 0x04, 0xfc,
  0x02, 0xfd, 0x02, 0x01, 0x00, 0x03, 0xff, 0x00, 0xea, 0xff, 0x03, 0x02,
  0x20, 0x01, 0x03, 0x0b, 0xfe, 0xeb, 0x01, 0xff, 0x04, 0xf7, 0x01, 0x02,
  0xff, 0x02, 0x01, 0x02, 0x0b, 0x21, 0xff, 0xed, 0x02, 0x01, 0x04, 0x03,
  0x00, 0x02, 0x03, 0x00, 0xff, 0xff, 0x20, 0x02, 0xfe, 0x00, 0x00, 0x06,
  0x00, 0x0e, 0x05, 0x03, 0x01, 0xe2, 0xfd, 0xfe, 0xfa, 0x00, 0x05, 0x02,
  0xfd, 0xfe, 0x07, 0xfd, 0x06, 0xfb, 0x08, 0x04, 0x04, 0x07, 0x07, 0x01,
  0x00, 0x03, 0x00, 0xfb, 0x03, 0xfa, 0xff, 0x02, 0xff, 0x00, 0x00, 0x06,
  0xff, 0xfd, 0xfe, 0xfb, 0xf8, 0x00, 0x03, 0x03, 0x00, 0x00, 0x05, 0x01,
  0x03, 0xfd, 0x06, 0x06, 0x07, 0x03, 0x04, 0x00, 0x00, 0xff, 0x07, 0xfe,
  0xfc, 0xfd, 0x03, 0x01, 0x00, 0x01, 0xfe, 0x04, 0x02, 0x06, 0x01, 0xfc,
  0xf9, 0xf6, 0x0e, 0xf9, 0x01, 0xf4, 0x0d, 0x02, 0x0d, 0x04, 0x0b, 0x09,
  0x09, 0x09, 0x08, 0xf1, 0x01, 0xff, 0xf4, 0xf0, 0x0a, 0xf6, 0x03, 0x03,
  0x07, 0xfc, 0xf4, 0xfd, 0xf7, 0xff, 0xf6, 0x01, 0xf8, 0xfa, 0x09, 0xfb,
  0xfd, 0x33, 0x0c, 0x03, 0x0c, 0x04, 0x0d, 0x0c, 0x08, 0x09, 0x0b, 0xf2,
  0x03, 0xff, 0x28, 0xf1, 0x04, 0xf6, 0xfd, 0x05, 0x00, 0x00, 0x0f, 0xff,
  0xfc, 0xde, 0x01, 0xfe, 0xf0, 0x03, 0x0d, 0x03, 0xf7, 0xfd, 0x11, 0x02,
  0x0f, 0xfe, 0x0c, 0x0d, 0x10, 0x0c, 0x10, 0x03, 0xff, 0x05, 0x05, 0xf7,
  0x00, 0xf0, 0x06, 0x00, 0xff, 0x07, 0x05, 0x09, 0x06, 0x04, 0xff, 0xf6,
  0xf1, 0x00, 0x0e, 0x03, 0x08, 0x04, 0x10, 0x03, 0x0d, 0xf6, 0x0c, 0x0d,
  0x10, 0x0e, 0x0f, 0xfa, 0x05, 0x02, 0x09, 0x00, 0xfc, 0xf5, 0x05, 0x08,
  0x01, 0x03, 0x03, 0x09, 0x02, 0x0f, 0x01, 0xf8, 0xf7, 0xf4, 0x09, 0xfe,
  0x04, 0xed, 0x0a, 0x03, 0x0a, 0x05, 0x06, 0x08, 0x08, 0x09, 0x07, 0xee,
  0xe8, 0xf9, 0xf0, 0xed, 0x0f, 0xf9, 0xff, 0x03, 0x0a, 0x02, 0xf5, 0xfd,
  0xef, 0x01, 0xf2, 0xff, 0xfb, 0xfa, 0x0a, 0x02, 0x06, 0x2a, 0x07, 0xfa,
  0x06, 0x07, 0x08, 0x05, 0x06, 0x06, 0x07, 0xee, 0x00, 0xfa, 0x24, 0xf5,
  0x04, 0xfb, 0xfc, 0x07, 0x05, 0x05, 0x0c, 0xfe, 0xf9, 0xdd, 0xfe, 0x03,
  0xf9, 0x0c, 0x03, 0xff, 0xed, 0x04, 0x07, 0xf2, 0x08, 0xfd, 0x04, 0x05,
  0x03, 0x04, 0x03, 0xfa, 0x00, 0x08, 0x0c, 0xf2, 0x0d, 0xfc, 0xfc, 0xff,
  0x10, 0xe3, 0x00, 0xff, 0x03, 0xeb, 0xf0, 0x00, 0xfc, 0xf7, 0x06, 0x03,
  0x09, 0xd3, 0x05, 0x07, 0x08, 0xfb, 0x04, 0x05, 0x03, 0x06, 0x01, 0xfa,
  0xfd, 0xff, 0xe8, 0x0b, 0x00, 0xf8, 0x11, 0xfc, 0x07, 0xfb, 0x07, 0x02,
  0x14, 0x25, 0x0a, 0xff, 0xf7, 0x01, 0x06, 0x03, 0xe4, 0xee, 0x06, 0x10,
  0x07, 0xf8, 0x07, 0x0a, 0x09, 0x05, 0x07, 0x00, 0xe7, 0xfc, 0xff, 0xfc,
  0x13, 0xfb, 0x01, 0x09, 0xf7, 0xf3, 0xfe, 0x05, 0xfc, 0xfb, 0xfb, 0xfe,
  0xf8, 0xf9, 0x09, 0x04, 0x08, 0x11, 0x08, 0xf9, 0x09, 0xf7, 0x07, 0x09,
  0x09, 0x06, 0x06, 0xf6, 0x02, 0xfb, 0x14, 0x00, 0xfe, 0xf9, 0xfe, 0x07,
  0xfc, 0x05, 0x08, 0x03, 0xfb, 0xef, 0xfd, 0xfb, 0xf4, 0xfe, 0x0f, 0x08,
  0xfa, 0xfd, 0x0e, 0xfa, 0x0b, 0xf8, 0x0d, 0x0c, 0x0f, 0x0b, 0x0a, 0xfe,
  0xfa, 0xfd, 0xff, 0xfa, 0xf7, 0xf6, 0x02, 0xfb, 0xff, 0xf4, 0x02, 0x0a,
  0xfc, 0xfd, 0xff, 0xf7, 0xf1, 0xfd, 0x0c, 0x06, 0x04, 0xeb, 0x0f, 0x01,
  0x0c, 0x00, 0x0d, 0x0d, 0x0b, 0x0a, 0x07, 0x02, 0x01, 0x03, 0xfe, 0xfd,
  0xfe, 0xf4, 0x06, 0x02, 0xff, 0x00, 0x07, 0x0b, 0x01, 0x1d, 0x03, 0xf9,
  0xf8, 0xfc, 0x08, 0x03, 0xff, 0xfe, 0x09, 0xfe, 0x04, 0xfa, 0x05, 0x07,
  0x03, 0x09, 0x09, 0xff, 0xfc, 0xff, 0xfd, 0xfe, 0xff, 0xfa, 0x01, 0x00,
  0x01, 0xfe, 0x02, 0x04, 0x01, 0x01, 0x03, 0xfb, 0xfa, 0x03, 0x08, 0x07,
  0x01, 0x00, 0x07, 0x02, 0x08, 0xfc, 0x05, 0x06, 0x08, 0x05, 0x09, 0xff,
  0x01, 0x00, 0x08, 0xfe, 0xfd, 0xfd, 0x00, 0x03, 0xfd, 0x02, 0x02, 0x05,
  0xff, 0x09, 0x02, 0xfd, 0xf9, 0xf1, 0x0a, 0x02, 0xf6, 0xfd, 0x0a, 0xf7,
  0x09, 0x03, 0x0a, 0x06, 0x07, 0x0a, 0x07, 0x03, 0xf7, 0xf6, 0x07, 0xfd,
  0xf5, 0xfb, 0x08, 0xfa, 0xfc, 0xee, 0xfa, 0x04, 0x07, 0xf7, 0x03, 0xf9,
  0xf7, 0xfd, 0x09, 0x06, 0x03, 0xe1, 0x06, 0xfe, 0x0a, 0xfb, 0x05, 0x09,
  0x08, 0x0a, 0x04, 0x00, 0x01, 0x0d, 0xf7, 0xfc, 0x00, 0xfa, 0x0e, 0x01,
  0x04, 0xfb, 0x0c, 0x02, 0xfb, 0x1c, 0x06, 0xf9, 0xf6, 0xfa, 0x09, 0x04,
  0x00, 0xf6, 0x0b, 0x04, 0x0d, 0xff, 0x0c, 0x0c, 0x08, 0x0a, 0x09, 0xec,
  0x07, 0xfd, 0xfb, 0xf1, 0xfa, 0xf6, 0x05, 0x03, 0x0c, 0x00, 0xf8, 0x05,
  0xf9, 0x01, 0xfe, 0xf9, 0xf3, 0xfe, 0x0e, 0x04, 0xff, 0x2e, 0x0d, 0x02,
  0x0b, 0x07, 0x09, 0x0d, 0x0d, 0x0a, 0x0b, 0xfa, 0xff, 0x02, 0x25, 0xfa,
  0xfd, 0xf5, 0x02, 0x04, 0x06, 0x01, 0x0b, 0x07, 0xfd, 0xe0, 0x05, 0xf9,
  0xfb, 0xfa, 0x08, 0xfe, 0x02, 0xed, 0x05, 0x02, 0x07, 0xfd, 0x06, 0x09,
  0x07, 0x04, 0x07, 0xff, 0xfd, 0xf7, 0xfd, 0xf4, 0x18, 0xf8, 0xf7, 0x05,
  0xff, 0x08, 0xf2, 0xff, 0xf2, 0xfb, 0xf4, 0x00, 0xfa, 0x04, 0x0a, 0xfe,
  0xfe, 0x2a, 0x09, 0x0c, 0x09, 0xfb, 0x07, 0x0a, 0x04, 0x07, 0x05, 0x03,
  0x00, 0x06, 0x1e, 0x0a, 0x01, 0xfa, 0x04, 0x02, 0x01, 0xf3, 0x06, 0x00,
  0x07, 0xdf, 0x07, 0xff, 0x0c, 0xf6, 0xf5, 0xfd, 0x0f, 0xe3, 0xf3, 0x14,
  0xf8, 0x0f, 0xf4, 0xf9, 0xf7, 0xf7, 0xf4, 0xf8, 0x12, 0xe9, 0xf4, 0xed,
  0x13, 0x0c, 0xe8, 0x08, 0x0e, 0x04, 0xe6, 0xfc, 0xeb, 0x02, 0xe4, 0x05,
  0x09, 0xf5, 0xf4, 0xff, 0x01, 0x36, 0xf7, 0x01, 0xf6, 0x08, 0xf6, 0xf6,
  0xf5, 0xf5, 0xf9, 0xf3, 0x00, 0xf0, 0x1f, 0xf1, 0x02, 0x09, 0xf8, 0x02,
  0x03, 0x04, 0x07, 0xfe, 0xf0, 0xbb, 0xf9, 0x04, 0xff, 0xff, 0x01, 0x00,
  0xfb, 0xf5, 0x04, 0x0f, 0x04, 0xfd, 0x06, 0x04, 0x04, 0x02, 0x03, 0xfe,
  0xdd, 0xf8, 0x00, 0xfc, 0x21, 0xfc, 0xfd, 0x09, 0xf6, 0xf5, 0xf6, 0xfd,
  0xfa, 0xfe, 0xfa, 0x02, 0xfd, 0x01, 0x02, 0x00, 0xfc, 0x1b, 0x04, 0x07,
  0x03, 0xfb, 0x06, 0x05, 0x05, 0x05, 0x05, 0xfc, 0xfe, 0xfe, 0x18, 0x08,
  0x02, 0xfa, 0x00, 0x08, 0x01, 0x00, 0x03, 0xfa, 0x03, 0xe6, 0xff, 0x00,
  0xff, 0x05, 0x00, 0x01, 0xff, 0xfd, 0x00, 0x00, 0xfd, 0xfa, 0xff, 0xfd,
  0xfd, 0x01, 0x00, 0x01, 0xfa, 0x0b, 0x01, 0xf9, 0xf8, 0x03, 0x18, 0xfa,
  0x02, 0xff, 0xff, 0xff, 0x09, 0x02, 0xfb, 0x03, 0x03, 0x01, 0xff, 0xff,
  0xfe, 0xc1, 0xff, 0x04, 0xfe, 0xfb, 0xfd, 0xfe, 0x00, 0x02, 0xfd, 0xf3,
  0xfe, 0x05, 0xd8, 0x05, 0x00, 0x02, 0x1c, 0xfe, 0x03, 0x01, 0x08, 0x01,
  0x08, 0x27, 0x07, 0x01, 0xf2, 0x04, 0x0d, 0x08, 0xfe, 0x04, 0x0b, 0x02,
  0x0e, 0xfb, 0x0d, 0x0d, 0x0d, 0x09, 0x0b, 0x00, 0x01, 0x00, 0xff, 0xfd,
  0x03, 0xf2, 0xfe, 0x03, 0x06, 0xfd, 0x00, 0x07, 0x01, 0xff, 0x00, 0xf5,
  0xf5, 0x00, 0x0a, 0x07, 0x03, 0x02, 0x0b, 0x02, 0x0b, 0xfa, 0x0d, 0x0e,
  0x0b, 0x0d, 0x09, 0x04, 0x01, 0xfe, 0x07, 0x01, 0x02, 0xf6, 0x05, 0x04,
  0xff, 0x02, 0x04, 0x0a, 0x01, 0x0f, 0x01, 0xf6, 0x9a, 0xc3, 0xff, 0xff,
  0x00, 0x00, 0x00, 0x09, 0x10, 0x00, 0x00, 0x00, 0x19, 0x00, 0x00, 0x00,
  0x14, 0x00, 0x00, 0x00, 0x2c, 0x00, 0x00, 0x00, 0x02, 0x00, 0x00, 0x00,
  0x40, 0x00, 0x00, 0x00, 0x40, 0x00, 0x00, 0x00, 0x17, 0x00, 0x00, 0x00,
  0x73, 0x65, 0x71, 0x75, 0x65, 0x6e, 0x74, 0x69, 0x61, 0x6c, 0x2f, 0x64,
  0x65, 0x6e, 0x73, 0x65, 0x2f, 0x4d, 0x61, 0x74, 0x4d, 0x75, 0x6c, 0x00,
  0x24, 0xc4, 0xff, 0xff, 0x08, 0x00, 0x00, 0x00, 0x0c, 0x00, 0x00, 0x00,
  0x01, 0x00, 0x00, 0x00, 0x8c, 0xa4, 0x97, 0x3d, 0x01, 0x00, 0x00, 0x00,
  0x00, 0x00, 0x00, 0x00, 0x00, 0x00, 0x00, 0x00, 0x00, 0x00, 0x00, 0x00,
  0x1a, 0xc4, 0xff, 0xff, 0x04, 0x00, 0x00, 0x00, 0x20, 0x00, 0x00, 0x00,
  0x5a, 0xe9, 0xfc, 0x39, 0x93, 0xff, 0xf2, 0xa7, 0xf7, 0x39, 0xf9, 0xda,
  0x1f, 0x2c, 0x1c, 0x11, 0xdf, 0xf5, 0x98, 0x14, 0xae, 0x7f, 0xb0, 0xf3,
  0xd2, 0xd7, 0xbe, 0x38, 0xcb, 0x80, 0x05, 0x3e, 0x2a, 0xc4, 0xff, 0xff,
  0x00, 0x00, 0x00, 0x09, 0x10, 0x00, 0x00, 0x00, 0x18, 0x00, 0x00, 0x00,
  0x10, 0x00, 0x00, 0x00, 0x44, 0x00, 0x00, 0x00, 0x01, 0x00, 0x00, 0x00,
  0x20, 0x00, 0x00, 0x00, 0x32, 0x00, 0x00, 0x00, 0x73, 0x65, 0x71, 0x75,
  0x65, 0x6e, 0x74, 0x69, 0x61, 0x6c, 0x2f, 0x62, 0x61, 0x74, 0x63, 0x68,
  0x5f, 0x6e, 0x6f, 0x72, 0x6d, 0x61, 0x6c, 0x69, 0x7a, 0x61, 0x74, 0x69,
  0x6f, 0x6e, 0x5f, 0x31, 0x2f, 0x46, 0x75, 0x73, 0x65, 0x64, 0x42, 0x61,
  0x74, 0x63, 0x68, 0x4e, 0x6f, 0x72, 0x6d, 0x56, 0x33, 0x31, 0x00, 0x00,
  0xcc, 0xc4, 0xff, 0xff, 0x08, 0x00, 0x00, 0x00, 0x0c, 0x00, 0x00, 0x00,
  0x01, 0x00, 0x00, 0x00, 0x75, 0x54, 0x13, 0x3c, 0x01, 0x00, 0x00, 0x00,
  0x3b, 0x00, 0x00, 0x00, 0x00, 0x00, 0x00, 0x00, 0x00, 0x00, 0x00, 0x00,
  0xc2, 0xc4, 0xff, 0xff, 0x04, 0x00, 0x00, 0x00, 0x20, 0x00, 0x00, 0x00,
  0x7f, 0x85, 0x7f, 0x73, 0x90, 0x86, 0x6b, 0x95, 0x72, 0x93, 0x7f, 0x79,
  0x7f, 0x7b, 0x43, 0x86, 0x91, 0x84, 0x89, 0x83, 0x84, 0x7f, 0x83, 0x9b,
  0x87, 0x86, 0x8b, 0x70, 0x82, 0xde, 0x89, 0x7f, 0xd2, 0xc4, 0xff, 0xff,
  0x00, 0x00, 0x00, 0x09, 0x10, 0x00, 0x00, 0x00, 0x17, 0x00, 0x00, 0x00,
  0x10, 0x00, 0x00, 0x00, 0x44, 0x00, 0x00, 0x00, 0x01, 0x00, 0x00, 0x00,
  0x20, 0x00, 0x00, 0x00, 0x31, 0x00, 0x00, 0x00, 0x73, 0x65, 0x71, 0x75,
  0x65, 0x6e, 0x74, 0x69, 0x61, 0x6c, 0x2f, 0x62, 0x61, 0x74, 0x63, 0x68,
  0x5f, 0x6e, 0x6f, 0x72, 0x6d, 0x61, 0x6c, 0x69, 0x7a, 0x61, 0x74, 0x69,
  0x6f, 0x6e, 0x5f, 0x31, 0x2f, 0x46, 0x75, 0x73, 0x65, 0x64, 0x42, 0x61,
  0x74, 0x63, 0x68, 0x4e, 0x6f, 0x72, 0x6d, 0x56, 0x33, 0x00, 0x00, 0x00,
  0x74, 0xc5, 0xff, 0xff, 0x08, 0x00, 0x00, 0x00, 0x0c, 0x00, 0x00, 0x00,
  0x01, 0x00, 0x00, 0x00, 0x6b, 0xf9, 0xfd, 0x3d, 0x01, 0x00, 0x00, 0x00,
  0x80, 0xff, 0xff, 0xff, 0xff, 0xff, 0xff, 0xff, 0x00, 0x00, 0x00, 0x00,
  0x6a, 0xc5, 0xff, 0xff, 0x04, 0x00, 0x00, 0x00, 0x80, 0x00, 0x00, 0x00,
  0x00, 0x00, 0x00, 0x00, 0x9a, 0xfe, 0xff, 0xff, 0x00, 0x00, 0x00, 0x00,
  0x34, 0xff, 0xff, 0xff, 0x49, 0xfa, 0xff, 0xff, 0xf9, 0xfc, 0xff, 0xff,
  0x20, 0xff, 0xff, 0xff, 0xd3, 0xfa, 0xff, 0xff, 0x5f, 0xff, 0xff, 0xff,
  0x48, 0x04, 0x00, 0x00, 0x00, 0x00, 0x00, 0x00, 0x0d, 0xff, 0xff, 0xff,
  0x00, 0x00, 0x00, 0x00, 0xf5, 0xff, 0xff, 0xff, 0x1b, 0x00, 0x00, 0x00,
  0xb2, 0xfc, 0xff, 0xff, 0xaa, 0xf9, 0xff, 0xff, 0x08, 0xfd, 0xff, 0xff,
  0x9c, 0xfa, 0xff, 0xff, 0x4f, 0xfe, 0xff, 0xff, 0xa0, 0xff, 0xff, 0xff,
  0x00, 0x00, 0x00, 0x00, 0x4b, 0xfe, 0xff, 0xff, 0xd6, 0x07, 0x00, 0x00,
  0x03, 0x01, 0x00, 0x00, 0xb3, 0xfe, 0xff, 0xff, 0x06, 0xfc, 0xff, 0xff,
  0x04, 0xff, 0xff, 0xff, 0xfb, 0xfd, 0xff, 0xff, 0x3c, 0xfa, 0xff, 0xff,
  0xcb, 0xf8, 0xff, 0xff, 0xf0, 0xff, 0xff, 0xff, 0xda, 0xc5, 0xff, 0xff,
  0x00, 0x00, 0x00, 0x02, 0x10, 0x00, 0x00, 0x00, 0x16, 0x00, 0x00, 0x00,
  0x10, 0x00, 0x00, 0x00, 0x28, 0x00, 0x00, 0x00, 0x01, 0x00, 0x00, 0x00,
  0x20, 0x00, 0x00, 0x00, 0x17, 0x00, 0x00, 0x00, 0x64, 0x65, 0x70, 0x74,
  0x68, 0x77, 0x69, 0x73, 0x65, 0x5f, 0x63, 0x6f, 0x6e, 0x76, 0x32, 0x64,
  0x5f, 0x32, 0x2f, 0x62, 0x69, 0x61, 0x73, 0x00, 0x60, 0xc6, 0xff, 0xff,
  0x08, 0x00, 0x00, 0x00, 0x88, 0x00, 0x00, 0x00, 0x20, 0x00, 0x00, 0x00,
  0xcc, 0xcd, 0x93, 0x39, 0xe8, 0x17, 0xba, 0x3a, 0x18, 0xd3, 0xc4, 0x39,
  0xe1, 0x3b, 0xb0, 0x39, 0xef, 0xe7, 0x81, 0x3a, 0x16, 0x21, 0xbe, 0x3a,
  0x3a, 0xdb, 0xa4, 0x39, 0x7c, 0xbe, 0x8a, 0x3a, 0x38, 0xc6, 0xb7, 0x39,
  0xcc, 0x4f, 0xa7, 0x3a, 0x9e, 0xf5, 0xc2, 0x39, 0xfa, 0x7b, 0x59, 0x39,
  0xaf, 0xf6, 0xce, 0x39, 0xa4, 0x85, 0xf0, 0x39, 0xdd, 0x3d, 0x51, 0x3a,
  0x2b, 0xd2, 0x82, 0x3a, 0xf2, 0xaf, 0x63, 0x3a, 0x9b, 0x8c, 0xa2, 0x3a,
  0x46, 0x58, 0x4e, 0x3a, 0x04, 0x19, 0xf6, 0x3a, 0x5f, 0x0d, 0xc9, 0x3a,
  0x2c, 0x18, 0x38, 0x39, 0x71, 0x8e, 0xb2, 0x3a, 0xe6, 0x63, 0x6b, 0x3a,
  0xf9, 0xa5, 0x89, 0x3a, 0xd6, 0x03, 0xd9, 0x3a, 0x44, 0x1d, 0x6b, 0x3a,
  0xf0, 0x06, 0x96, 0x39, 0xbc, 0x63, 0x93, 0x3a, 0x7c, 0x49, 0xad, 0x39,
  0x3b, 0xea, 0x2b, 0x3a, 0x7b, 0x91, 0xc4, 0x39, 0x20, 0x00, 0x00, 0x00,
  0x00, 0x00, 0x00, 0x00, 0x00, 0x00, 0x00, 0x00, 0x00, 0x00, 0x00, 0x00,
  0x00, 0x00, 0x00, 0x00, 0x00, 0x00, 0x00, 0x00, 0x00, 0x00, 0x00, 0x00,
  0x00, 0x00, 0x00, 0x00, 0x00, 0x00, 0x00, 0x00, 0x00, 0x00, 0x00, 0x00,
  0x00, 0x00, 0x00, 0x00, 0x00, 0x00, 0x00, 0x00, 0x00, 0x00, 0x00, 0x00,
  0x00, 0x00, 0x00, 0x00, 0x00, 0x00, 0x00, 0x00, 0x00, 0x00, 0x00, 0x00,
  0x00, 0x00, 0x00, 0x00, 0x00, 0x00, 0x00, 0x00, 0x00, 0x00, 0x00, 0x00,
  0x00, 0x00, 0x00, 0x00, 0x00, 0x00, 0x00, 0x00, 0x00, 0x00, 0x00, 0x00,
  0x00, 0x00, 0x00, 0x00, 0x00, 0x00, 0x00, 0x00, 0x00, 0x00, 0x00, 0x00,
  0x00, 0x00, 0x00, 0x00, 0x00, 0x00, 0x00, 0x00, 0x00, 0x00, 0x00, 0x00,
  0x00, 0x00, 0x00, 0x00, 0x00, 0x00, 0x00, 0x00, 0x00, 0x00, 0x00, 0x00,
  0x00, 0x00, 0x00, 0x00, 0x00, 0x00, 0x00, 0x00, 0x00, 0x00, 0x00, 0x00,
  0x00, 0x00, 0x00, 0x00, 0x00, 0x00, 0x00, 0x00, 0x00, 0x00, 0x00, 0x00,
  0x00, 0x00, 0x00, 0x00, 0x00, 0x00, 0x00, 0x00, 0x00, 0x00, 0x00, 0x00,
  0x00, 0x00, 0x00, 0x00, 0x00, 0x00, 0x00, 0x00, 0x00, 0x00, 0x00, 0x00,
  0x00, 0x00, 0x00, 0x00, 0x00, 0x00, 0x00, 0x00, 0x00, 0x00, 0x00, 0x00,
  0x00, 0x00, 0x00, 0x00, 0x00, 0x00, 0x00, 0x00, 0x00, 0x00, 0x00, 0x00,
  0x00, 0x00, 0x00, 0x00, 0x00, 0x00, 0x00, 0x00, 0x00, 0x00, 0x00, 0x00,
  0x00, 0x00, 0x00, 0x00, 0x00, 0x00, 0x00, 0x00, 0x00, 0x00, 0x00, 0x00,
  0x00, 0x00, 0x00, 0x00, 0x00, 0x00, 0x00, 0x00, 0x00, 0x00, 0x00, 0x00,
  0x00, 0x00, 0x00, 0x00, 0x00, 0x00, 0x00, 0x00, 0x00, 0x00, 0x00, 0x00,
  0x00, 0x00, 0x00, 0x00, 0x00, 0x00, 0x00, 0x00, 0x00, 0x00, 0x00, 0x00,
  0x00, 0x00, 0x00, 0x00, 0x00, 0x00, 0x00, 0x00, 0xca, 0xc7, 0xff, 0xff,
  0x04, 0x00, 0x00, 0x00, 0x60, 0x00, 0x00, 0x00, 0x81, 0x4d, 0xfd, 0xfb,
  0x2b, 0x02, 0x57, 0x56, 0x7f, 0x81, 0x97, 0x7f, 0xf9, 0x81, 0xef, 0x7f,
  0x1e, 0x7f, 0xfc, 0x18, 0x5f, 0x81, 0x7f, 0x81, 0x7b, 0x6b, 0x7f, 0x69,
  0x7a, 0x04, 0x7f, 0x81, 0xf8, 0x7f, 0xc2, 0x81, 0x7f, 0x04, 0x75, 0x7f,
  0x7a, 0xff, 0xb4, 0x0f, 0x99, 0xa3, 0x81, 0x50, 0x7f, 0x3e, 0x77, 0x7f,
  0xdb, 0xdc, 0x5b, 0xde, 0x82, 0x7f, 0x6e, 0x7f, 0x7f, 0x7f, 0x44, 0xa1,
  0xea, 0x2c, 0x81, 0x02, 0x57, 0x7f, 0x81, 0x44, 0x8f, 0x1d, 0x81, 0x7b,
  0x81, 0xff, 0x92, 0x6b, 0x7d, 0x29, 0x7f, 0x04, 0x81, 0xd9, 0x01, 0x14,
  0x81, 0x22, 0x17, 0x6d, 0x39, 0x6b, 0x33, 0x00, 0x1a, 0xc8, 0xff, 0xff,
  0x00, 0x00, 0x00, 0x09, 0x10, 0x00, 0x00, 0x00, 0x15, 0x00, 0x00, 0x00,
  0x1c, 0x00, 0x00, 0x00, 0x44, 0x00, 0x00, 0x00, 0x04, 0x00, 0x00, 0x00,
  0x01, 0x00, 0x00, 0x00, 0x03, 0x00, 0x00, 0x00, 0x01, 0x00, 0x00, 0x00,
  0x20, 0x00, 0x00, 0x00, 0x27, 0x00, 0x00, 0x00, 0x73, 0x65, 0x71, 0x75,
  0x65, 0x6e, 0x74, 0x69, 0x61, 0x6c, 0x2f, 0x64, 0x65, 0x70, 0x74, 0x68,
  0x77, 0x69, 0x73, 0x65, 0x5f, 0x63, 0x6f, 0x6e, 0x76, 0x32, 0x64, 0x5f,
  0x32, 0x2f, 0x64, 0x65, 0x70, 0x74, 0x68, 0x77, 0x69, 0x73, 0x65, 0x00,
  0x9a, 0xce, 0xff, 0xff, 0x0c, 0x00, 0x00, 0x00, 0x8c, 0x00, 0x00, 0x00,
  0x03, 0x00, 0x00, 0x00, 0x20, 0x00, 0x00, 0x00, 0xa1, 0x88, 0x9e, 0x3a,
  0x53, 0x9a, 0xc7, 0x3b, 0xf1, 0x1c, 0xd3, 0x3a, 0x10, 0x07, 0xbd, 0x3a,
  0x25, 0x56, 0x8b, 0x3b, 0x82, 0xee, 0xcb, 0x3b, 0xf8, 0xd2, 0xb0, 0x3a,
  0xf2, 0xd0, 0x94, 0x3b, 0x89, 0x1d, 0xc5, 0x3a, 0x2b, 0x75, 0xb3, 0x3b,
  0xce, 0x1c, 0xd1, 0x3a, 0xc6, 0x45, 0x69, 0x3a, 0xf5, 0xfc, 0xdd, 0x3a,
  0xca, 0xfd, 0x00, 0x3b, 0x79, 0x6e, 0x60, 0x3b, 0x63, 0x51, 0x8c, 0x3b,
  0x5b, 0x37, 0x74, 0x3b, 0x79, 0x59, 0xae, 0x3b, 0x0d, 0x53, 0x5d, 0x3b,
  0x49, 0xfb, 0x03, 0x3c, 0xca, 0xa5, 0xd7, 0x3b, 0x71, 0x75, 0x45, 0x3a,
  0xca, 0x84, 0xbf, 0x3b, 0x76, 0x7a, 0x7c, 0x3b, 0x12, 0xa4, 0x93, 0x3b,
  0xe9, 0xc4, 0xe8, 0x3b, 0xb4, 0x2e, 0x7c, 0x3b, 0x16, 0xeb, 0xa0, 0x3a,
  0xde, 0x16, 0x9e, 0x3b, 0xe8, 0xdd, 0xb9, 0x3a, 0x27, 0x65, 0x38, 0x3b,
  0x91, 0xd6, 0xd2, 0x3a, 0x20, 0x00, 0x00, 0x00, 0x00, 0x00, 0x00, 0x00,
  0x00, 0x00, 0x00, 0x00, 0x00, 0x00, 0x00, 0x00, 0x00, 0x00, 0x00, 0x00,
  0x00, 0x00, 0x00, 0x00, 0x00, 0x00, 0x00, 0x00, 0x00, 0x00, 0x00, 0x00,
  0x00, 0x00, 0x00, 0x00, 0x00, 0x00, 0x00, 0x00, 0x00, 0x00, 0x00, 0x00,
  0x00, 0x00, 0x00, 0x00, 0x00, 0x00, 0x00, 0x00, 0x00, 0x00, 0x00, 0x00,
  0x00, 0x00, 0x00, 0x00, 0x00, 0x00, 0x00, 0x00, 0x00, 0x00, 0x00, 0x00,
  0x00, 0x00, 0x00, 0x00, 0x00, 0x00, 0x00, 0x00, 0x00, 0x00, 0x00, 0x00,
  0x00, 0x00, 0x00, 0x00, 0x00, 0x00, 0x00, 0x00, 0x00, 0x00, 0x00, 0x00,
  0x00, 0x00, 0x00, 0x00, 0x00, 0x00, 0x00, 0x00, 0x00, 0x00, 0x00, 0x00,
  0x00, 0x00, 0x00, 0x00, 0x00, 0x00, 0x00, 0x00, 0x00, 0x00, 0x00, 0x00,
  0x00, 0x00, 0x00, 0x00, 0x00, 0x00, 0x00, 0x00, 0x00, 0x00, 0x00, 0x00,
  0x00, 0x00, 0x00, 0x00, 0x00, 0x00, 0x00, 0x00, 0x00, 0x00, 0x00, 0x00,
  0x00, 0x00, 0x00, 0x00, 0x00, 0x00, 0x00, 0x00, 0x00, 0x00, 0x00, 0x00,
  0x00, 0x00, 0x00, 0x00, 0x00, 0x00, 0x00, 0x00, 0x00, 0x00, 0x00, 0x00,
  0x00, 0x00, 0x00, 0x00, 0x00, 0x00, 0x00, 0x00, 0x00, 0x00, 0x00, 0x00,
  0x00, 0x00, 0x00, 0x00, 0x00, 0x00, 0x00, 0x00, 0x00, 0x00, 0x00, 0x00,
  0x00, 0x00, 0x00, 0x00, 0x00, 0x00, 0x00, 0x00, 0x00, 0x00, 0x00, 0x00,
  0x00, 0x00, 0x00, 0x00, 0x00, 0x00, 0x00, 0x00, 0x00, 0x00, 0x00, 0x00,
  0x00, 0x00, 0x00, 0x00, 0x00, 0x00, 0x00, 0x00, 0x00, 0x00, 0x00, 0x00,
  0x00, 0x00, 0x00, 0x00, 0x00, 0x00, 0x00, 0x00, 0x00, 0x00, 0x00, 0x00,
  0x00, 0x00, 0x00, 0x00, 0x00, 0x00, 0x00, 0x00, 0x00, 0x00, 0x00, 0x00,
  0x00, 0x00, 0x00, 0x00, 0x00, 0x00, 0x00, 0x00, 0x00, 0x00, 0x00, 0x00,
  0x00, 0x00, 0x00, 0x00, 0x2a, 0xca, 0xff, 0xff, 0x04, 0x00, 0x00, 0x00,
  0x80, 0x00, 0x00, 0x00, 0x00, 0x00, 0x00, 0x00, 0x50, 0x01, 0x00, 0x00,
  0x00, 0x00, 0x00, 0x00, 0x3c, 0xff, 0xff, 0xff, 0xa4, 0x00, 0x00, 0x00,
  0x00, 0x00, 0x00, 0x00, 0x01, 0xff, 0xff, 0xff, 0x57, 0x00, 0x00, 0x00,
  0x3b, 0xff, 0xff, 0xff, 0xaf, 0x00, 0x00, 0x00, 0x00, 0x00, 0x00, 0x00,
  0x7b, 0xff, 0xff, 0xff, 0x00, 0x00, 0x00, 0x00, 0x29, 0x00, 0x00, 0x00,
  0xe4, 0x01, 0x00, 0x00, 0xfb, 0x01, 0x00, 0x00, 0x6e, 0x00, 0x00, 0x00,
  0xb0, 0x00, 0x00, 0x00, 0x13, 0x01, 0x00, 0x00, 0xf8, 0x00, 0x00, 0x00,
  0x10, 0x02, 0x00, 0x00, 0x00, 0x00, 0x00, 0x00, 0x3e, 0x00, 0x00, 0x00,
  0xe4, 0x00, 0x00, 0x00, 0xbd, 0x03, 0x00, 0x00, 0xd3, 0xff, 0xff, 0xff,
  0x0d, 0x01, 0x00, 0x00, 0xe1, 0xfe, 0xff, 0xff, 0xf7, 0x00, 0x00, 0x00,
  0xd9, 0xff, 0xff, 0xff, 0x1c, 0x01, 0x00, 0x00, 0xe3, 0xff, 0xff, 0xff,
  0x9a, 0xca, 0xff, 0xff, 0x00, 0x00, 0x00, 0x02, 0x10, 0x00, 0x00, 0x00,
  0x14, 0x00, 0x00, 0x00, 0x10, 0x00, 0x00, 0x00, 0x20, 0x00, 0x00, 0x00,
  0x01, 0x00, 0x00, 0x00, 0x20, 0x00, 0x00, 0x00, 0x0d, 0x00, 0x00, 0x00,
  0x63, 0x6f, 0x6e, 0x76, 0x32, 0x64, 0x5f, 0x35, 0x2f, 0x62, 0x69, 0x61,
  0x73, 0x00, 0x00, 0x00, 0x18, 0xcb, 0xff, 0xff, 0x08, 0x00, 0x00, 0x00,
  0x88, 0x00, 0x00, 0x00, 0x20, 0x00, 0x00, 0x00, 0x24, 0x82, 0x39, 0x39,
  0x0c, 0xde, 0x62, 0x3b, 0xcf, 0x67, 0x39, 0x39, 0x28, 0x6a, 0x80, 0x39,
  0xcc, 0xcd, 0x4b, 0x3b, 0x27, 0x3a, 0x21, 0x3b, 0xab, 0xf7, 0x90, 0x39,
  0xd8, 0xb2, 0x60, 0x3b, 0xab, 0xc0, 0x82, 0x39, 0xa7, 0x53, 0x04, 0x3b,
  0x05, 0x4b, 0x3b, 0x39, 0x2c, 0xf2, 0x94, 0x39, 0x76, 0x66, 0x3a, 0x39,
  0xd3, 0x72, 0x4e, 0x39, 0x8d, 0x7a, 0x1c, 0x3a, 0x48, 0x6e, 0x39, 0x3b,
  0x5a, 0x1a, 0x65, 0x3b, 0x26, 0x20, 0x4b, 0x3b, 0x6f, 0x96, 0x3a, 0x3b,
  0xd4, 0x56, 0x72, 0x3b, 0x06, 0xcf, 0x33, 0x3b, 0x2b, 0xca, 0x3a, 0x39,
  0xc5, 0x6b, 0x72, 0x3b, 0x8e, 0xf5, 0x80, 0x3b, 0x0b, 0x9f, 0xec, 0x3a,
  0x4f, 0xac, 0x2a, 0x3b, 0xc5, 0xfe, 0x87, 0x3b, 0x1f, 0x44, 0x83, 0x39,
  0xcf, 0x31, 0x65, 0x3b, 0x45, 0x96, 0x4b, 0x3b, 0x8e, 0x53, 0x22, 0x3b,
  0x1e, 0x88, 0x3a, 0x39, 0x20, 0x00, 0x00, 0x00, 0x00, 0x00, 0x00, 0x00,
  0x00, 0x00, 0x00, 0x00, 0x00, 0x00, 0x00, 0x00, 0x00, 0x00, 0x00, 0x00,
  0x00, 0x00, 0x00, 0x00, 0x00, 0x00, 0x00, 0x00, 0x00, 0x00, 0x00, 0x00,
  0x00, 0x00, 0x00, 0x00, 0x00, 0x00, 0x00, 0x00, 0x00, 0x00, 0x00, 0x00,
  0x00, 0x00, 0x00, 0x00, 0x00, 0x00, 0x00, 0x00, 0x00, 0x00, 0x00, 0x00,
  0x00, 0x00, 0x00, 0x00, 0x00, 0x00, 0x00, 0x00, 0x00, 0x00, 0x00, 0x00,
  0x00, 0x00, 0x00, 0x00, 0x00, 0x00, 0x00, 0x00, 0x00, 0x00, 0x00, 0x00,
  0x00, 0x00, 0x00, 0x00, 0x00, 0x00, 0x00, 0x00, 0x00, 0x00, 0x00, 0x00,
  0x00, 0x00, 0x00, 0x00, 0x00, 0x00, 0x00, 0x00, 0x00, 0x00, 0x00, 0x00,
  0x00, 0x00, 0x00, 0x00, 0x00, 0x00, 0x00, 0x00, 0x00, 0x00, 0x00, 0x00,
  0x00, 0x00, 0x00, 0x00, 0x00, 0x00, 0x00, 0x00, 0x00, 0x00, 0x00, 0x00,
  0x00, 0x00, 0x00, 0x00, 0x00, 0x00, 0x00, 0x00, 0x00, 0x00, 0x00, 0x00,
  0x00, 0x00, 0x00, 0x00, 0x00, 0x00, 0x00, 0x00, 0x00, 0x00, 0x00, 0x00,
  0x00, 0x00, 0x00, 0x00, 0x00, 0x00, 0x00, 0x00, 0x00, 0x00, 0x00, 0x00,
  0x00, 0x00, 0x00, 0x00, 0x00, 0x00, 0x00, 0x00, 0x00, 0x00, 0x00, 0x00,
  0x00, 0x00, 0x00, 0x00, 0x00, 0x00, 0x00, 0x00, 0x00, 0x00, 0x00, 0x00,
  0x00, 0x00, 0x00, 0x00, 0x00, 0x00, 0x00, 0x00, 0x00, 0x00, 0x00, 0x00,
  0x00, 0x00, 0x00, 0x00, 0x00, 0x00, 0x00, 0x00, 0x00, 0x00, 0x00, 0x00,
  0x00, 0x00, 0x00, 0x00, 0x00, 0x00, 0x00, 0x00, 0x00, 0x00, 0x00, 0x00,
  0x00, 0x00, 0x00, 0x00, 0x00, 0x00, 0x00, 0x00, 0x00, 0x00, 0x00, 0x00,
  0x00, 0x00, 0x00, 0x00, 0x00, 0x00, 0x00, 0x00, 0x00, 0x00, 0x00, 0x00,
  0x00, 0x00, 0x00, 0x00, 0x00, 0x00, 0x00, 0x00, 0x00, 0x00, 0x00, 0x00,
  0x00, 0x00, 0x00, 0x00, 0x82, 0xcc, 0xff, 0xff, 0x04, 0x00, 0x00, 0x00,
  0x00, 0x10, 0x00, 0x00, 0xdd, 0x48, 0x0f, 0x23, 0x54, 0xe1, 0xb8, 0x5e,
  0x8f, 0x7a, 0xa9, 0x01, 0x3f, 0xe5, 0xaf, 0x81, 0xa2, 0xd3, 0x61, 0x41,
  0xd5, 0x46, 0xe9, 0x45, 0x73, 0xd8, 0x82, 0x42, 0x23, 0x73, 0xc6, 0x01,
  0x12, 0x1a, 0xac, 0xa8, 0xd6, 0xde, 0x71, 0xff, 0x02, 0xfa, 0x64, 0xa4,
  0x67, 0x65, 0x69, 0x86, 0x00, 0xec, 0xb6, 0x28, 0x4d, 0x1a, 0xd6, 0x28,
  0x8f, 0x3c, 0xcd, 0xc8, 0xb8, 0x7d, 0x5c, 0x60, 0x7c, 0x71, 0xc9, 0x9c,
  0x79, 0xb8, 0x4a, 0x14, 0xcb, 0x15, 0x51, 0x3f, 0xc4, 0x53, 0x98, 0xf3,
  0xd9, 0x7a, 0x6a, 0xdd, 0xd3, 0x0b, 0x3b, 0xb9, 0xeb, 0x99, 0xdc, 0x90,
  0x09, 0xf8, 0xb7, 0xf4, 0x7c, 0x64, 0xea, 0xb5, 0x88, 0x39, 0xa9, 0xf8,
  0x6a, 0x8c, 0xd1, 0x07, 0xb6, 0x4a, 0x08, 0x46, 0xfe, 0x1a, 0x26, 0x8b,
  0xdd, 0xe4, 0x07, 0x57, 0x53, 0x1c, 0x38, 0xdd, 0x18, 0x68, 0x96, 0x65,
  0xdd, 0xdb, 0xe1, 0x05, 0x7f, 0xf7, 0xf7, 0xfe, 0x12, 0xe6, 0xf2, 0x0f,
  0xee, 0x34, 0x13, 0x09, 0xea, 0xf4, 0xdb, 0xe5, 0x48, 0x0e, 0xb5, 0x3b,
  0x08, 0x22, 0xcb, 0xfd, 0x03, 0x00, 0x04, 0x00, 0xe5, 0xeb, 0xe8, 0xe2,
  0x21, 0x27, 0x03, 0xee, 0x04, 0xd6, 0xf5, 0x0f, 0xcd, 0x28, 0x26, 0xf2,
  0x06, 0xd2, 0xe2, 0x10, 0x25, 0x40, 0xde, 0x3c, 0xf6, 0x01, 0xe3, 0xf8,
  0xf1, 0x0f, 0x08, 0x13, 0x03, 0xd4, 0xe7, 0xe7, 0x4e, 0x17, 0x07, 0x17,
  0x0c, 0x01, 0x02, 0xee, 0x04, 0x30, 0x0d, 0x07, 0x02, 0x08, 0xe5, 0x03,
  0xe7, 0x0a, 0xf5, 0x1b, 0xe6, 0x10, 0xdc, 0x04, 0x28, 0x04, 0xfd, 0xf3,
  0xf6, 0xf3, 0xf1, 0xe8, 0x3e, 0x03, 0x0b, 0x0c, 0xfd, 0xf3, 0x12, 0x0b,
  0xe8, 0x03, 0xdb, 0x0e, 0x20, 0xc1, 0xc8, 0x18, 0x3d, 0x00, 0xd3, 0x4a,
  0x10, 0xc8, 0xe6, 0xfd, 0x01, 0xf9, 0x01, 0xfd, 0x07, 0x60, 0xc2, 0x45,
  0xcb, 0x8a, 0xa3, 0x39, 0x23, 0x28, 0xcd, 0x52, 0xff, 0x3a, 0x03, 0xbe,
  0xe6, 0x6a, 0x96, 0xb7, 0x9c, 0xba, 0xa1, 0xd1, 0x0a, 0x03, 0x10, 0x84,
  0x20, 0xd5, 0x98, 0xa7, 0xef, 0x57, 0x1b, 0xdb, 0xd4, 0xef, 0x66, 0x56,
  0xc0, 0x56, 0xf7, 0xb9, 0x11, 0x2e, 0x97, 0x03, 0xb4, 0x21, 0x7c, 0xc0,
  0xd3, 0x24, 0x29, 0x13, 0xbe, 0xe6, 0x37, 0x11, 0x0c, 0x22, 0xac, 0x1e,
  0x81, 0xda, 0xba, 0xda, 0x81, 0x87, 0x44, 0x72, 0x13, 0x51, 0xd2, 0x0b,
  0x36, 0xd8, 0xb4, 0x56, 0x74, 0x6d, 0x23, 0xff, 0xf1, 0x4f, 0x50, 0x58,
  0xb9, 0x2b, 0xa3, 0x56, 0x8e, 0x91, 0xea, 0xa4, 0xf2, 0x01, 0xc4, 0x68,
  0xc3, 0x18, 0x66, 0x42, 0xe9, 0x07, 0xbb, 0x86, 0xb5, 0x76, 0xeb, 0x16,
  0x70, 0x9e, 0x84, 0x37, 0x22, 0xb8, 0xbf, 0x39, 0x9b, 0x66, 0xf3, 0x88,
  0x1c, 0x6f, 0xdb, 0xd7, 0xa7, 0x03, 0xf6, 0x3e, 0xc6, 0x10, 0xb8, 0xdb,
  0xe0, 0xca, 0xeb, 0x31, 0x2c, 0x30, 0xaa, 0xdc, 0xf6, 0xb4, 0xb8, 0xfc,
  0xd7, 0xcf, 0xaa, 0xb5, 0x3a, 0xc9, 0xca, 0xf7, 0xb7, 0xa3, 0xe7, 0xe3,
  0xb5, 0xd7, 0x83, 0x46, 0xeb, 0x94, 0xec, 0xae, 0xdb, 0x0c, 0xf0, 0xaf,
  0xa1, 0xa7, 0xa9, 0x27, 0x31, 0xe1, 0xb2, 0x30, 0x9d, 0xdb, 0x29, 0xc1,
  0x3b, 0xb9, 0x03, 0xde, 0x45, 0xf0, 0x14, 0xd0, 0xb9, 0xb9, 0x83, 0xa7,
  0xa4, 0x2b, 0x9f, 0xb4, 0xcb, 0xc0, 0xcd, 0xc8, 0x8b, 0x1f, 0xac, 0xb2,
  0xf6, 0x16, 0x05, 0x23, 0xcd, 0x40, 0xa8, 0xc3, 0xe9, 0x46, 0xbc, 0xfb,
  0xb7, 0xaa, 0xad, 0x35, 0xc6, 0xf0, 0x86, 0xa9, 0x28, 0x81, 0x22, 0x30,
  0xec, 0xd9, 0xaa, 0xee, 0x35, 0xdb, 0xab, 0x21, 0x1e, 0x88, 0x3c, 0xb3,
  0xcd, 0x3a, 0xd4, 0x9e, 0x1c, 0xbb, 0x33, 0xab, 0xfa, 0xa6, 0xbb, 0xcb,
  0x05, 0x28, 0xf1, 0xcb, 0x84, 0x12, 0xde, 0xf7, 0xd8, 0x2b, 0xfc, 0xc3,
  0x16, 0x08, 0x0e, 0xed, 0xe5, 0xc2, 0x2c, 0x58, 0x4a, 0x0f, 0x1f, 0x20,
  0x2f, 0x11, 0xf2, 0xf5, 0x1f, 0xd2, 0xfa, 0xf6, 0x0f, 0x0c, 0x03, 0xaf,
  0xb5, 0xf0, 0xe2, 0x0e, 0xe9, 0x07, 0x0b, 0xec, 0xf8, 0x13, 0x0d, 0xd9,
  0xd1, 0x0a, 0x31, 0x39, 0x24, 0xd4, 0x11, 0x21, 0xee, 0xe1, 0xfe, 0xf3,
  0x06, 0xe0, 0x02, 0x18, 0x0d, 0xfe, 0x1a, 0x07, 0x81, 0x07, 0xfe, 0x11,
  0x0a, 0xfa, 0xfe, 0x04, 0x07, 0xf0, 0xf0, 0x08, 0xc9, 0xe9, 0xf5, 0x1a,
  0xe2, 0xf9, 0xe9, 0x05, 0xc9, 0xfe, 0xe0, 0x1b, 0xf0, 0x03, 0xfd, 0x1a,
  0x15, 0x02, 0x00, 0x0a, 0xa9, 0x04, 0xfe, 0xfc, 0x0f, 0xfc, 0xf6, 0x08,
  0x0e, 0xb0, 0xc6, 0x07, 0xda, 0xe0, 0xbc, 0xc6, 0xdb, 0x05, 0xe9, 0xa6,
  0xc7, 0xe3, 0xfa, 0x14, 0x03, 0x14, 0xfd, 0x01, 0xe2, 0xef, 0xfb, 0xf7,
  0x16, 0x22, 0xfe, 0x2a, 0x16, 0x02, 0x03, 0xd0, 0xfe, 0x20, 0x1c, 0xf1,
  0x23, 0xdb, 0x05, 0xf3, 0xf8, 0x3c, 0xf0, 0x2e, 0x5b, 0x0f, 0xda, 0x01,
  0xeb, 0xdc, 0x07, 0xf7, 0x03, 0xd3, 0x10, 0xd7, 0x39, 0x07, 0xe6, 0x1c,
  0x0f, 0xf1, 0x36, 0xde, 0xfe, 0xfb, 0xfe, 0x29, 0x0a, 0x0d, 0xe9, 0x03,
  0x1f, 0x33, 0xf7, 0x1e, 0x44, 0x0d, 0xd6, 0xfe, 0xf0, 0x9a, 0xf5, 0xfc,
  0xb2, 0xd4, 0x0b, 0xe6, 0x29, 0x0a, 0x04, 0x09, 0x02, 0xf6, 0x15, 0xe7,
  0xfc, 0x56, 0x02, 0x24, 0xd5, 0x2d, 0xfa, 0xec, 0xdc, 0x43, 0xeb, 0x26,
  0x32, 0xe0, 0xc8, 0xe4, 0xe1, 0x9e, 0x04, 0xf1, 0xd4, 0x07, 0xf4, 0xfb,
  0x5d, 0x0a, 0x04, 0x24, 0x12, 0xd8, 0x16, 0xd3, 0xfe, 0x1b, 0x0c, 0x2e,
  0xb2, 0xdd, 0xfb, 0xcd, 0x48, 0x67, 0xb6, 0x22, 0x7f, 0x2a, 0xc8, 0xe6,
  0xd8, 0xb9, 0x01, 0x0c, 0xea, 0x2f, 0xd0, 0xbe, 0x0c, 0xaf, 0x28, 0xcf,
  0xc1, 0x20, 0xc5, 0xe8, 0xd6, 0x2f, 0xc0, 0x21, 0x42, 0xde, 0x35, 0x00,
  0x49, 0xb3, 0xeb, 0xf0, 0x07, 0x18, 0xce, 0xef, 0xce, 0xca, 0xb0, 0x32,
  0xee, 0x99, 0x06, 0x0d, 0x2f, 0xed, 0x98, 0xa0, 0xc1, 0x1f, 0xfe, 0x35,
  0xeb, 0x2b, 0x9b, 0xa6, 0xfc, 0xa5, 0x81, 0x0a, 0xf3, 0x1d, 0x85, 0x14,
  0x1f, 0xcf, 0xbc, 0x9e, 0xd9, 0x2c, 0x41, 0xd3, 0xb0, 0xe7, 0x13, 0x00,
  0x24, 0xeb, 0xca, 0x3f, 0x0d, 0xfb, 0xe0, 0xec, 0xd6, 0x9e, 0x92, 0xb3,
  0xea, 0x2b, 0x81, 0xee, 0x98, 0xef, 0x05, 0x19, 0x15, 0x10, 0xb8, 0xb1,
  0x2c, 0x2d, 0x33, 0x17, 0x34, 0x34, 0xf9, 0xaf, 0x25, 0xd8, 0xdf, 0x1c,
  0xb9, 0xc7, 0x93, 0xfc, 0xf5, 0x06, 0x11, 0xd6, 0x0f, 0xff, 0x21, 0x00,
  0xec, 0xb9, 0x25, 0x3e, 0xdb, 0xb2, 0xb1, 0xa1, 0xe2, 0xbd, 0xf8, 0x06,
  0xf2, 0x0f, 0xdb, 0xc8, 0xcf, 0x0a, 0xe4, 0x05, 0xe3, 0x18, 0x0a, 0xe3,
  0x0a, 0xfd, 0x03, 0xf4, 0x08, 0xbf, 0x1a, 0x34, 0x3d, 0x1b, 0x0b, 0x06,
  0x21, 0xfe, 0x07, 0x04, 0x26, 0xfd, 0x01, 0x08, 0x06, 0x0e, 0xf0, 0xbd,
  0xdf, 0xe5, 0xe6, 0xfd, 0xe4, 0xf8, 0x06, 0xdc, 0x0b, 0x11, 0x12, 0xd6,
  0xe3, 0xec, 0x25, 0x4b, 0x35, 0xdc, 0x1b, 0x13, 0xe9, 0xc7, 0xe8, 0xe8,
  0x10, 0xe3, 0xfc, 0x0b, 0x10, 0x01, 0x0f, 0x03, 0x81, 0x05, 0xfa, 0x06,
  0x0d, 0xff, 0xf1, 0xf5, 0xff, 0x01, 0xef, 0x00, 0xce, 0xe3, 0xf1, 0x1c,
  0xe9, 0xda, 0xf5, 0xf6, 0xe7, 0xf1, 0xea, 0x0f, 0xf8, 0xf2, 0xf6, 0x0d,
  0x10, 0x03, 0x06, 0x0d, 0xb1, 0x13, 0xf6, 0x0d, 0x11, 0xff, 0xf5, 0x0d,
  0xff, 0x9c, 0xd8, 0x0a, 0xcb, 0xe6, 0xdc, 0xbe, 0xe2, 0xf2, 0xed, 0xb9,
  0xd8, 0xef, 0xf3, 0x20, 0x01, 0x06, 0xfb, 0x14, 0x0d, 0xf7, 0xee, 0xec,
  0xe2, 0xb4, 0xf2, 0xd7, 0xbc, 0xad, 0xfb, 0x03, 0xef, 0x43, 0x21, 0xca,
  0xb7, 0xd0, 0xf8, 0x04, 0xd8, 0xb5, 0xae, 0xfc, 0xf8, 0xbc, 0xac, 0xdc,
  0xe9, 0x01, 0xde, 0xa8, 0x0a, 0xc5, 0xa6, 0x37, 0x02, 0xd2, 0xba, 0xbb,
  0xf1, 0x8c, 0x0e, 0x08, 0xc4, 0xc8, 0x15, 0xd3, 0xf1, 0xd7, 0xe2, 0x1b,
  0x0f, 0xb5, 0x81, 0x3a, 0x2d, 0xc3, 0xd3, 0xb7, 0xcf, 0xde, 0xe7, 0xd1,
  0xca, 0x25, 0xb8, 0xab, 0xd3, 0xb9, 0xdb, 0xe8, 0xae, 0x09, 0x27, 0x17,
  0x2a, 0x13, 0xa4, 0xfe, 0x3b, 0xcb, 0x89, 0x0e, 0x9a, 0xe8, 0xa3, 0x12,
  0x26, 0xcf, 0xb6, 0xb5, 0x06, 0x27, 0xea, 0xdf, 0x31, 0xbd, 0x35, 0xa2,
  0xb9, 0xb5, 0xb3, 0x29, 0xc8, 0xf7, 0xa0, 0x12, 0x01, 0x9a, 0x38, 0x0a,
  0x11, 0xc0, 0xf0, 0x07, 0xb2, 0xd3, 0x13, 0xbd, 0xf1, 0x0c, 0x0e, 0xb5,
  0xfc, 0xa7, 0x03, 0xc6, 0x05, 0x1e, 0x11, 0x01, 0x9f, 0x34, 0xd8, 0x0c,
  0x1e, 0x02, 0x44, 0xe7, 0xe0, 0x04, 0xfc, 0xe7, 0xe1, 0xf4, 0x12, 0xdd,
  0x05, 0x31, 0xd2, 0x45, 0xf0, 0x11, 0xdc, 0x1a, 0xdb, 0xf3, 0x00, 0x0c,
  0x17, 0xef, 0x0c, 0x34, 0x7f, 0x2d, 0xc9, 0x42, 0x00, 0x03, 0x26, 0x1b,
  0xd4, 0x1f, 0x16, 0xf1, 0xbc, 0xe9, 0x2a, 0xbc, 0xcc, 0x2c, 0xd2, 0x3a,
  0x39, 0xcb, 0x04, 0xfe, 0xe9, 0xe3, 0x08, 0x0f, 0x3b, 0xfe, 0x2f, 0xe5,
  0x42, 0x1b, 0x19, 0x00, 0x33, 0xf6, 0x17, 0x18, 0xd6, 0xe9, 0x0b, 0xf6,
  0xeb, 0xdd, 0x06, 0xdb, 0x14, 0x3d, 0xdd, 0x04, 0x0a, 0x24, 0xdd, 0x14,
  0xae, 0x3e, 0x06, 0xea, 0xc0, 0xf2, 0xd1, 0xf2, 0x40, 0x04, 0x33, 0xff,
  0x33, 0x0d, 0x2d, 0x12, 0x1f, 0x1b, 0x22, 0x1c, 0x15, 0xe2, 0x0e, 0x98,
  0x00, 0xd8, 0xec, 0xf7, 0x24, 0x0d, 0xf4, 0xf3, 0xe5, 0x1e, 0x02, 0xf8,
  0x6a, 0xb4, 0x6d, 0xb6, 0x55, 0x88, 0x64, 0xd7, 0x7c, 0x98, 0x7d, 0x78,
  0x7f, 0x4f, 0x40, 0xc0, 0xba, 0xc6, 0xe4, 0xa0, 0xa5, 0x3d, 0x48, 0xae,
  0xaf, 0x23, 0x5a, 0xf4, 0xfa, 0x74, 0xd6, 0x0c, 0xb6, 0x6c, 0xb7, 0x40,
  0x56, 0x52, 0x60, 0xe5, 0xd7, 0x8f, 0x3b, 0x46, 0x8c, 0x8f, 0x6e, 0x9b,
  0x34, 0x9f, 0x56, 0xd6, 0xbc, 0x01, 0x76, 0x84, 0x35, 0x2a, 0x56, 0xfb,
  0x01, 0x82, 0xd8, 0x1b, 0xd3, 0x33, 0x9d, 0x2b, 0x43, 0x0f, 0x02, 0x5c,
  0xbf, 0x13, 0xe9, 0x85, 0x3a, 0x87, 0x56, 0x9f, 0xa2, 0xf6, 0xc8, 0x86,
  0xa1, 0x0f, 0x9f, 0xc1, 0x2a, 0x59, 0x93, 0x76, 0x8b, 0x53, 0x23, 0x78,
  0xb1, 0xa3, 0xa3, 0x03, 0x5e, 0x8c, 0xfc, 0x81, 0x35, 0xdc, 0x24, 0x9c,
  0x75, 0xb8, 0x54, 0x30, 0x8e, 0xbb, 0xcf, 0xd7, 0xc6, 0x0e, 0xa3, 0xb9,
  0x1c, 0xf2, 0x3c, 0x24, 0x10, 0xf2, 0x39, 0xa2, 0xa6, 0xd6, 0xab, 0xb0,
  0x4a, 0xe3, 0x03, 0x3f, 0xd8, 0xb2, 0x09, 0x1e, 0xcc, 0x0d, 0xed, 0xfe,
  0x07, 0xf1, 0x07, 0xa6, 0x04, 0xd4, 0x23, 0x21, 0x0b, 0x08, 0xc1, 0xac,
  0x1f, 0x38, 0x44, 0x05, 0x29, 0xd3, 0x05, 0xbe, 0xc6, 0x01, 0x98, 0x9a,
  0xb3, 0xa9, 0x9f, 0x08, 0xd7, 0x24, 0xbc, 0x0b, 0xd4, 0x9f, 0xba, 0x08,
  0x01, 0xc4, 0x92, 0x33, 0x08, 0xef, 0xc7, 0xdb, 0xfe, 0x95, 0xd2, 0xf4,
  0x9d, 0xdc, 0xd2, 0x1e, 0xcd, 0x05, 0x05, 0x19, 0xe9, 0x20, 0xc6, 0x22,
  0x22, 0xde, 0xd6, 0xf3, 0x99, 0x9f, 0x90, 0xf5, 0xdd, 0x26, 0x9f, 0x0f,
  0x18, 0x01, 0xe4, 0xd0, 0x20, 0x25, 0xf6, 0x02, 0xc7, 0xa1, 0xed, 0xc2,
  0xf2, 0x0f, 0x81, 0xdd, 0xfa, 0x0d, 0x0f, 0xe8, 0x32, 0xc6, 0x3f, 0x0d,
  0xb3, 0xe8, 0xd0, 0xc7, 0xc2, 0xc1, 0x07, 0xad, 0xe7, 0x19, 0x25, 0xd8,
  0x13, 0xc8, 0x28, 0xaa, 0xcf, 0x25, 0x16, 0x7b, 0x64, 0xe2, 0xb9, 0x95,
  0xa2, 0xd4, 0x1a, 0xe5, 0x59, 0xcf, 0x8b, 0x5c, 0x2e, 0x28, 0x2c, 0x48,
  0x45, 0x19, 0x9e, 0xe8, 0xfd, 0x9b, 0x9b, 0xd0, 0xe9, 0x2d, 0x2a, 0xf7,
  0xd7, 0x93, 0x42, 0xce, 0x60, 0x39, 0x9b, 0x4f, 0xd5, 0x5c, 0x75, 0x07,
  0x62, 0x7d, 0xe3, 0xd1, 0x57, 0xba, 0xb4, 0xbf, 0x29, 0x5f, 0x21, 0x7f,
  0xe7, 0xe0, 0xd3, 0xa5, 0xe3, 0x2a, 0x74, 0xae, 0xc1, 0x78, 0xae, 0xe1,
  0x96, 0xc6, 0xf3, 0xdf, 0xcd, 0x44, 0x8a, 0x0b, 0x04, 0x58, 0xb7, 0x70,
  0x43, 0x21, 0xfd, 0x49, 0x3d, 0x7b, 0xa7, 0x70, 0x47, 0xc1, 0xab, 0xe9,
  0xa5, 0x23, 0x53, 0x6f, 0x9f, 0xd9, 0xee, 0x38, 0x1f, 0x2c, 0xd6, 0xd0,
  0x98, 0xdc, 0x70, 0x03, 0x15, 0xee, 0xcf, 0xb6, 0x57, 0x1d, 0xd9, 0x5b,
  0x1a, 0xf6, 0xcd, 0xd1, 0xca, 0xf7, 0xbf, 0xd2, 0xc0, 0xa6, 0x9d, 0x50,
  0x30, 0x3c, 0x92, 0x20, 0xe8, 0x96, 0x65, 0x08, 0xbf, 0x5a, 0x22, 0x0f,
  0x24, 0xd0, 0x19, 0x55, 0x64, 0x56, 0x51, 0xa7, 0x97, 0xa7, 0xeb, 0x21,
  0xe4, 0xc2, 0xb7, 0xfd, 0xc5, 0x0c, 0x66, 0x62, 0x8d, 0x4c, 0x2b, 0x6f,
  0x90, 0x5b, 0xb2, 0x55, 0x51, 0xd3, 0x2e, 0x26, 0x1f, 0xca, 0x1e, 0xed,
  0x9a, 0x39, 0x4d, 0xba, 0x4d, 0x87, 0xda, 0x50, 0xb8, 0x54, 0xe8, 0x9b,
  0x01, 0x1e, 0x23, 0x5a, 0x7f, 0xba, 0xd4, 0x0d, 0x1c, 0x23, 0x54, 0xb3,
  0x59, 0x63, 0x2d, 0x40, 0x61, 0x53, 0x1d, 0x16, 0xc8, 0x20, 0xb5, 0x25,
  0xab, 0x14, 0x74, 0x9f, 0x28, 0x08, 0xa0, 0x03, 0x0d, 0x55, 0xf7, 0xe7,
  0x0d, 0x6b, 0xfd, 0x71, 0xda, 0xa8, 0x36, 0xce, 0x2b, 0x66, 0xf3, 0x3d,
  0xd0, 0x09, 0x38, 0xad, 0x1c, 0xef, 0xa6, 0x78, 0x42, 0x64, 0xc3, 0xe0,
  0xca, 0x19, 0x11, 0xdd, 0xa3, 0xe9, 0xe9, 0x40, 0xfa, 0xd7, 0x01, 0xd7,
  0xea, 0x44, 0x45, 0x11, 0x58, 0x24, 0x00, 0x5e, 0x2e, 0x08, 0x00, 0x50,
  0x23, 0x38, 0x0e, 0xc2, 0xf8, 0x32, 0x22, 0x9d, 0xd2, 0x28, 0xe0, 0x44,
  0xd6, 0x23, 0x15, 0x28, 0x01, 0xae, 0xfa, 0xd1, 0xc3, 0x41, 0x00, 0x02,
  0x40, 0x21, 0xf2, 0x21, 0x13, 0x47, 0x2c, 0x32, 0xfa, 0x19, 0x2c, 0x26,
  0x35, 0x2a, 0x12, 0x3e, 0xb9, 0xf7, 0xfb, 0x10, 0x2d, 0xf0, 0xe0, 0x2c,
  0x1d, 0xf6, 0x08, 0xf9, 0x2a, 0x1d, 0x16, 0x49, 0x15, 0x2d, 0x0e, 0x16,
  0x4c, 0x2a, 0x1c, 0xdd, 0x2a, 0xcb, 0x6a, 0x64, 0x14, 0x48, 0x52, 0x42,
  0x1e, 0x2d, 0x30, 0xd8, 0x7f, 0xe8, 0x17, 0xda, 0x41, 0x69, 0x5b, 0x43,
  0x17, 0x3f, 0x22, 0x17, 0x07, 0xed, 0x1e, 0xe7, 0x09, 0xf0, 0xf4, 0x02,
  0x08, 0xd9, 0x35, 0x2a, 0x10, 0x3a, 0x09, 0x1e, 0xd9, 0xeb, 0xe5, 0x30,
  0x1d, 0xf8, 0xdd, 0xf0, 0xdf, 0xe3, 0xd7, 0x34, 0xe9, 0xfc, 0x2a, 0xdf,
  0xf9, 0xbe, 0xe6, 0x26, 0xbd, 0xf3, 0x14, 0xef, 0x10, 0x06, 0xe5, 0xd4,
  0x92, 0x8d, 0xfe, 0xe5, 0x8c, 0x08, 0xe3, 0x0a, 0x0f, 0x21, 0x01, 0x28,
  0xd0, 0xe6, 0x1a, 0xe1, 0x9c, 0x09, 0xf0, 0xe4, 0xe0, 0xc4, 0xe1, 0x3a,
  0x8b, 0xf7, 0x2a, 0x10, 0xf4, 0x32, 0xff, 0xda, 0x9e, 0xa1, 0x07, 0xee,
  0x2a, 0x02, 0xfb, 0x05, 0x05, 0xf3, 0x00, 0x05, 0xef, 0xf6, 0xc5, 0x19,
  0xb8, 0x0a, 0xfd, 0xf1, 0xf5, 0x0a, 0x18, 0xff, 0xdb, 0x3a, 0x13, 0x00,
  0xd7, 0x01, 0x0a, 0x8a, 0xea, 0x0c, 0xf9, 0xfd, 0x0b, 0x3d, 0xf0, 0x02,
  0x20, 0x1e, 0x05, 0xec, 0xdb, 0x0c, 0xe4, 0xfe, 0x83, 0xfe, 0x21, 0xb6,
  0x01, 0xff, 0xef, 0x06, 0xd5, 0x23, 0x21, 0x0c, 0xaf, 0xce, 0xde, 0xb1,
  0x81, 0x2f, 0x13, 0xd0, 0x30, 0x1a, 0xed, 0xee, 0xf6, 0x1c, 0x03, 0x42,
  0x18, 0xec, 0x13, 0xe6, 0x81, 0x02, 0x04, 0xf9, 0x0b, 0xfd, 0xfc, 0xf8,
  0x05, 0xd2, 0xdf, 0x0d, 0xd9, 0xd9, 0xb1, 0xdd, 0xc5, 0x94, 0xf0, 0x86,
  0xb1, 0xe5, 0xf6, 0x19, 0x05, 0x05, 0x04, 0xff, 0x08, 0xfb, 0x01, 0xf0,
  0xe0, 0x10, 0xfe, 0x0f, 0x11, 0xf8, 0xe8, 0x04, 0x0c, 0xe5, 0xfe, 0x0a,
  0xcd, 0xef, 0xdb, 0x46, 0x0f, 0xce, 0x0b, 0xdf, 0x1f, 0xea, 0xdf, 0x09,
  0xf7, 0x0f, 0xff, 0x0d, 0xf8, 0xf7, 0xf1, 0xfd, 0xd8, 0xff, 0xfa, 0x08,
  0xf8, 0xd5, 0x0b, 0xfe, 0x04, 0x16, 0x08, 0xf1, 0x30, 0x00, 0x16, 0x41,
  0x35, 0xf4, 0x15, 0x20, 0xea, 0x0c, 0xe0, 0xee, 0x06, 0xf1, 0x00, 0xce,
  0xd6, 0x06, 0x02, 0xf7, 0x3a, 0xe1, 0xff, 0xfe, 0xf6, 0x11, 0xef, 0xf1,
  0xfc, 0x25, 0x1d, 0xf4, 0x17, 0xec, 0x15, 0x39, 0x4c, 0x05, 0x2a, 0x32,
  0xc7, 0xf2, 0xed, 0xe9, 0xcd, 0xfc, 0xfd, 0xf3, 0xe6, 0xf4, 0xf2, 0x1c,
  0x04, 0x0c, 0xff, 0x07, 0xf8, 0x22, 0xf7, 0xe4, 0xec, 0x23, 0xfb, 0x00,
  0x26, 0xbe, 0xd2, 0xec, 0x32, 0x31, 0xbf, 0x34, 0x0d, 0x04, 0xf2, 0xfd,
  0x09, 0xe3, 0xfd, 0xe8, 0xf1, 0xf1, 0x02, 0xee, 0x25, 0x14, 0xfb, 0xfa,
  0x17, 0x27, 0xe5, 0xe4, 0x11, 0x01, 0x24, 0x05, 0xe6, 0xfe, 0xfa, 0xec,
  0x3e, 0x18, 0xd9, 0x1b, 0x19, 0x16, 0xf9, 0x05, 0xbe, 0x06, 0x01, 0x16,
  0x04, 0xae, 0xd1, 0xd9, 0x7f, 0xfd, 0x08, 0x29, 0x0d, 0xfe, 0x1c, 0xda,
  0xf1, 0x3a, 0x17, 0xf2, 0x04, 0x17, 0x0e, 0x0b, 0xec, 0x18, 0xe8, 0x48,
  0xeb, 0x16, 0xdf, 0xef, 0xf6, 0x01, 0x00, 0xd2, 0x06, 0xe9, 0x02, 0xf7,
  0x20, 0x20, 0xe1, 0x03, 0x06, 0xd3, 0x28, 0xfe, 0x8f, 0xe9, 0xf5, 0x0b,
  0x2d, 0xc2, 0xd9, 0x1e, 0x40, 0x2c, 0x92, 0x6f, 0x22, 0xea, 0xe1, 0xfc,
  0xf7, 0x05, 0x05, 0x17, 0xdd, 0xc6, 0xe3, 0xed, 0x55, 0x22, 0xfe, 0x0f,
  0x02, 0xd5, 0x03, 0xf7, 0xe1, 0x2e, 0x10, 0x05, 0x12, 0xe7, 0xec, 0x81,
  0x28, 0x29, 0xcb, 0x1f, 0x3e, 0xfc, 0xe5, 0xfb, 0xea, 0x00, 0x00, 0x16,
  0xe1, 0xcf, 0xe9, 0xe8, 0x10, 0x1d, 0xec, 0xec, 0xfb, 0xc5, 0x0a, 0xf4,
  0x92, 0xf2, 0x07, 0x09, 0x1e, 0xf2, 0xfd, 0xf5, 0xea, 0x0c, 0xfa, 0x11,
  0xdc, 0x04, 0xc4, 0x09, 0xe1, 0x0f, 0xfe, 0xfb, 0xec, 0xc2, 0x12, 0xba,
  0x2f, 0xf9, 0x04, 0x0b, 0x0e, 0x08, 0xf8, 0x02, 0x81, 0xfa, 0xea, 0xff,
  0xf1, 0x0e, 0xf7, 0xf1, 0xaa, 0xe1, 0xef, 0xd9, 0x05, 0xfc, 0xd6, 0x01,
  0x04, 0xf9, 0xff, 0xe1, 0xf3, 0xe4, 0x12, 0xe2, 0x72, 0x2c, 0x09, 0x36,
  0x07, 0xf2, 0x12, 0x0d, 0xb7, 0xee, 0x36, 0x22, 0x11, 0xdf, 0x0d, 0xbf,
  0xea, 0x13, 0xf1, 0x02, 0xfe, 0x16, 0xd0, 0xfa, 0xee, 0xf4, 0xfd, 0x1d,
  0xfc, 0xe6, 0xfb, 0xf0, 0xb7, 0xf1, 0x08, 0xf9, 0x08, 0xe6, 0xf6, 0x04,
  0xdf, 0xec, 0x20, 0x01, 0xf7, 0x11, 0xf8, 0xf5, 0xa7, 0xeb, 0xd6, 0x08,
  0x04, 0x0a, 0xf7, 0xf2, 0x10, 0xf6, 0xfa, 0x00, 0xf5, 0xd3, 0xeb, 0xee,
  0xc6, 0x0c, 0x05, 0xeb, 0x07, 0xcd, 0x0d, 0x0a, 0xcf, 0x1d, 0x24, 0x0d,
  0xf9, 0xf7, 0x08, 0x08, 0xc9, 0x2f, 0x05, 0xe8, 0xd7, 0x1e, 0x08, 0x0d,
  0xec, 0x1a, 0x03, 0x0c, 0xfe, 0xe5, 0xf2, 0xe7, 0x0e, 0x23, 0x0d, 0x08,
  0xf4, 0x01, 0xf3, 0xf1, 0xfc, 0x0c, 0x0f, 0xf6, 0x2c, 0xee, 0x01, 0xc5,
  0x81, 0xf1, 0x0f, 0xdb, 0xe8, 0x19, 0xe7, 0xfb, 0x24, 0xfd, 0xff, 0xf1,
  0x07, 0x07, 0xe0, 0xff, 0xf0, 0x16, 0x00, 0x04, 0xf8, 0x00, 0x1d, 0x1d,
  0xe1, 0x20, 0x11, 0xfe, 0x30, 0xfc, 0x98, 0xab, 0x9f, 0x1b, 0xe8, 0xa7,
  0x10, 0x16, 0xe9, 0x06, 0x0a, 0xfb, 0xfd, 0xf3, 0xe2, 0x02, 0x12, 0x1a,
  0xfa, 0x11, 0xe8, 0x0d, 0xf9, 0xe7, 0xff, 0x23, 0xf5, 0x42, 0x17, 0xf3,
  0xe7, 0x09, 0x11, 0x81, 0xdb, 0x28, 0xf4, 0xf7, 0x16, 0x04, 0xe3, 0xd7,
  0xd7, 0xeb, 0x05, 0xfd, 0xfa, 0x19, 0x0b, 0x2e, 0xf1, 0x0f, 0x2f, 0x0e,
  0xe4, 0xe6, 0x0a, 0x0d, 0xe5, 0xc2, 0xda, 0x33, 0xdb, 0xfc, 0xdc, 0xe8,
  0xbd, 0xee, 0xd3, 0xf9, 0xfb, 0xe6, 0xd0, 0x27, 0x09, 0xed, 0x00, 0xe6,
  0x0a, 0xff, 0xf8, 0xdd, 0xdf, 0x28, 0x1b, 0x07, 0x29, 0x2f, 0xf7, 0xfd,
  0x20, 0xff, 0xf4, 0x18, 0xe0, 0xdc, 0xf7, 0x11, 0xb5, 0xc1, 0xdf, 0x1d,
  0xb4, 0x0c, 0x04, 0x2e, 0xdf, 0x01, 0x06, 0xfd, 0xf9, 0xf8, 0x0b, 0xf9,
  0x98, 0xff, 0x22, 0x00, 0xfe, 0xf4, 0xf4, 0x4d, 0xf6, 0xeb, 0x41, 0x13,
  0x17, 0xe3, 0x16, 0x04, 0xb3, 0xb0, 0xf5, 0xe0, 0x20, 0x0b, 0xef, 0x08,
  0x19, 0x19, 0x00, 0x39, 0x75, 0xa7, 0xbe, 0x71, 0xf6, 0xce, 0x68, 0x16,
