unsigned char model_tflite_2[]  = {
  0x1c, 0x00, 0x00, 0x00, 0x54, 0x46, 0x4c, 0x33, 0x14, 0x00, 0x20, 0x00,
  0x1c, 0x00, 0x18, 0x00, 0x14, 0x00, 0x10, 0x00, 0x0c, 0x00, 0x00, 0x00,
  0x08, 0x00, 0x04, 0x00, 0x14, 0x00, 0x00, 0x00, 0x1c, 0x00, 0x00, 0x00,
  0x88, 0x00, 0x00, 0x00, 0xe0, 0x00, 0x00, 0x00, 0x58, 0x15, 0x00, 0x00,
  0x68, 0x15, 0x00, 0x00, 0xa8, 0x1f, 0x00, 0x00, 0x03, 0x00, 0x00, 0x00,
  0x01, 0x00, 0x00, 0x00, 0x04, 0x00, 0x00, 0x00, 0xb6, 0xe9, 0xff, 0xff,
  0x0c, 0x00, 0x00, 0x00, 0x1c, 0x00, 0x00, 0x00, 0x38, 0x00, 0x00, 0x00,
  0x0f, 0x00, 0x00, 0x00, 0x73, 0x65, 0x72, 0x76, 0x69, 0x6e, 0x67, 0x5f,
  0x64, 0x65, 0x66, 0x61, 0x75, 0x6c, 0x74, 0x00, 0x01, 0x00, 0x00, 0x00,
  0x04, 0x00, 0x00, 0x00, 0x94, 0xff, 0xff, 0xff, 0x11, 0x00, 0x00, 0x00,
  0x04, 0x00, 0x00, 0x00, 0x07, 0x00, 0x00, 0x00, 0x64, 0x65, 0x6e, 0x73,
  0x65, 0x5f, 0x31, 0x00, 0x01, 0x00, 0x00, 0x00, 0x04, 0x00, 0x00, 0x00,
  0x46, 0xeb, 0xff, 0xff, 0x04, 0x00, 0x00, 0x00, 0x0c, 0x00, 0x00, 0x00,
  0x63, 0x6f, 0x6e, 0x76, 0x32, 0x64, 0x5f, 0x69, 0x6e, 0x70, 0x75, 0x74,
  0x00, 0x00, 0x00, 0x00, 0x02, 0x00, 0x00, 0x00, 0x34, 0x00, 0x00, 0x00,
  0x04, 0x00, 0x00, 0x00, 0xdc, 0xff, 0xff, 0xff, 0x14, 0x00, 0x00, 0x00,
  0x04, 0x00, 0x00, 0x00, 0x13, 0x00, 0x00, 0x00, 0x43, 0x4f, 0x4e, 0x56,
  0x45, 0x52, 0x53, 0x49, 0x4f, 0x4e, 0x5f, 0x4d, 0x45, 0x54, 0x41, 0x44,
  0x41, 0x54, 0x41, 0x00, 0x08, 0x00, 0x0c, 0x00, 0x08, 0x00, 0x04, 0x00,
  0x08, 0x00, 0x00, 0x00, 0x13, 0x00, 0x00, 0x00, 0x04, 0x00, 0x00, 0x00,
  0x13, 0x00, 0x00, 0x00, 0x6d, 0x69, 0x6e, 0x5f, 0x72, 0x75, 0x6e, 0x74,
  0x69, 0x6d, 0x65, 0x5f, 0x76, 0x65, 0x72, 0x73, 0x69, 0x6f, 0x6e, 0x00,
  0x15, 0x00, 0x00, 0x00, 0x74, 0x14, 0x00, 0x00, 0x6c, 0x14, 0x00, 0x00,
  0x3c, 0x14, 0x00, 0x00, 0xe4, 0x13, 0x00, 0x00, 0x74, 0x13, 0x00, 0x00,
  0x64, 0x0d, 0x00, 0x00, 0x34, 0x0d, 0x00, 0x00, 0x20, 0x0d, 0x00, 0x00,
  0x08, 0x0d, 0x00, 0x00, 0xf8, 0x00, 0x00, 0x00, 0xc8, 0x00, 0x00, 0x00,
  0xc0, 0x00, 0x00, 0x00, 0xb8, 0x00, 0x00, 0x00, 0xb0, 0x00, 0x00, 0x00,
  0xa8, 0x00, 0x00, 0x00, 0xa0, 0x00, 0x00, 0x00, 0x98, 0x00, 0x00, 0x00,
  0x90, 0x00, 0x00, 0x00, 0x88, 0x00, 0x00, 0x00, 0x68, 0x00, 0x00, 0x00,
  0x04, 0x00, 0x00, 0x00, 0x16, 0xec, 0xff, 0xff, 0x04, 0x00, 0x00, 0x00,
  0x54, 0x00, 0x00, 0x00, 0x0c, 0x00, 0x00, 0x00, 0x08, 0x00, 0x0e, 0x00,
  0x08, 0x00, 0x04, 0x00, 0x08, 0x00, 0x00, 0x00, 0x10, 0x00, 0x00, 0x00,
  0x24, 0x00, 0x00, 0x00, 0x00, 0x00, 0x06, 0x00, 0x08, 0x00, 0x04, 0x00,
  0x06, 0x00, 0x00, 0x00, 0x04, 0x00, 0x00, 0x00, 0x00, 0x00, 0x00, 0x00,
  0x00, 0x00, 0x0a, 0x00, 0x10, 0x00, 0x0c, 0x00, 0x08, 0x00, 0x04, 0x00,
  0x0a, 0x00, 0x00, 0x00, 0x02, 0x00, 0x00, 0x00, 0x02, 0x00, 0x00, 0x00,
  0x04, 0x00, 0x00, 0x00, 0x06, 0x00, 0x00, 0x00, 0x32, 0x2e, 0x31, 0x32,
  0x2e, 0x30, 0x00, 0x00, 0x76, 0xec, 0xff, 0xff, 0x04, 0x00, 0x00, 0x00,
  0x10, 0x00, 0x00, 0x00, 0x31, 0x2e, 0x31, 0x34, 0x2e, 0x30, 0x00, 0x00,
  0x00, 0x00, 0x00, 0x00, 0x00, 0x00, 0x00, 0x00, 0x40, 0xe2, 0xff, 0xff,
  0x44, 0xe2, 0xff, 0xff, 0x48, 0xe2, 0xff, 0xff, 0x4c, 0xe2, 0xff, 0xff,
  0x50, 0xe2, 0xff, 0xff, 0x54, 0xe2, 0xff, 0xff, 0x58, 0xe2, 0xff, 0xff,
  0x5c, 0xe2, 0xff, 0xff, 0xb2, 0xec, 0xff, 0xff, 0x04, 0x00, 0x00, 0x00,
  0x20, 0x00, 0x00, 0x00, 0xd5, 0xe4, 0xe8, 0x3e, 0x0a, 0xdc, 0xc5, 0xbd,
  0xc6, 0x2f, 0x38, 0x3f, 0xdc, 0x88, 0xdd, 0x3e, 0xf6, 0x16, 0x44, 0xbf,
  0x99, 0xa5, 0x74, 0x3e, 0x3e, 0xf9, 0x3a, 0x3f, 0x64, 0xa9, 0xa0, 0x3e,
  0xde, 0xec, 0xff, 0xff, 0x04, 0x00, 0x00, 0x00, 0x00, 0x0c, 0x00, 0x00,
  0xc4, 0x9a, 0x9f, 0x3d, 0x52, 0x02, 0x11, 0x3e, 0xed, 0xd7, 0x8f, 0xbd,
  0x3b, 0x29, 0x31, 0x3e, 0xd6, 0xac, 0x80, 0xbd, 0x61, 0x00, 0x17, 0x3d,
  0xf7, 0x0d, 0xb8, 0xbd, 0xb0, 0xf1, 0x0e, 0x3e, 0x88, 0x92, 0xff, 0xbc,
  0x00, 0xec, 0x6f, 0x3a, 0xcf, 0xaa, 0xa1, 0xbd, 0xb7, 0xfe, 0xb8, 0xbd,
  0x1d, 0xfc, 0xbb, 0xbd, 0x27, 0xb0, 0x60, 0x3e, 0x32, 0x11, 0x98, 0xbd,
  0xe9, 0xc3, 0x24, 0xbe, 0x15, 0x23, 0xc4, 0x3d, 0xf5, 0x00, 0xc1, 0x3b,
  0xba, 0x4e, 0x5e, 0x3e, 0xcc, 0x71, 0x56, 0x3e, 0x00, 0x3f, 0xd4, 0x3d,
  0x3e, 0x3e, 0x62, 0x3c, 0x12, 0x10, 0x48, 0x3e, 0x83, 0xc1, 0x98, 0xbd,
  0x11, 0x28, 0xe9, 0xbd, 0x26, 0x05, 0xfd, 0xbd, 0x7e, 0x08, 0x47, 0x3e,
  0xca, 0xc3, 0xdf, 0x3c, 0x9e, 0xd7, 0x81, 0xbd, 0x7d, 0x08, 0x00, 0xbe,
  0x14, 0xcd, 0x43, 0x3e, 0x52, 0x71, 0x31, 0x3d, 0x28, 0x66, 0x21, 0x3d,
  0xc6, 0xf3, 0x43, 0xbe, 0xcd, 0xb3, 0x50, 0xbe, 0x8e, 0x7e, 0xb6, 0x3d,
  0xee, 0x3d, 0x5d, 0xbe, 0x73, 0xa5, 0xd9, 0xbc, 0xa3, 0x95, 0x7a, 0xbd,
  0x13, 0x5d, 0x9d, 0xbd, 0x47, 0x28, 0x24, 0x3e, 0x40, 0x3c, 0x41, 0x3d,
  0x28, 0x03, 0x5a, 0x3e, 0xd4, 0xd5, 0x20, 0xbd, 0xaf, 0x8e, 0x10, 0xbe,
  0x3a, 0x86, 0x10, 0x3e, 0x72, 0x6f, 0x46, 0xbd, 0x2c, 0xdd, 0xcc, 0x3d,
  0xb2, 0x1d, 0x56, 0xbd, 0xce, 0x30, 0x00, 0x3e, 0xc6, 0xd9, 0x2c, 0x3e,
  0xf7, 0xdc, 0xf5, 0xbd, 0xd2, 0x40, 0x02, 0x3e, 0x77, 0xcb, 0x0f, 0xbe,
  0x2a, 0xb3, 0x56, 0x3e, 0x09, 0xc5, 0x28, 0xbd, 0x25, 0x3f, 0x52, 0x3e,
  0x4e, 0x3c, 0x8c, 0xbd, 0x60, 0x38, 0xc9, 0x3d, 0x55, 0xf4, 0x4f, 0xbe,
  0x15, 0x7f, 0xa2, 0xbd, 0xac, 0x58, 0xa7, 0x3d, 0xa3, 0x47, 0xd5, 0x3c,
  0x2c, 0x1f, 0x03, 0xbe, 0x1d, 0xd7, 0x37, 0xbe, 0x40, 0xe1, 0x22, 0xbe,
  0xbb, 0xc1, 0x07, 0x3d, 0xa8, 0xae, 0xfc, 0xbc, 0x04, 0xd1, 0xa8, 0x3d,
  0xeb, 0x4a, 0x06, 0x3d, 0xd6, 0xdf, 0x05, 0xbd, 0xf3, 0x1b, 0x46, 0x3d,
  0x3a, 0x9f, 0x85, 0x3d, 0xc6, 0xd2, 0x4d, 0x3e, 0x8c, 0x5e, 0xf2, 0xbd,
  0x63, 0x15, 0x06, 0x3e, 0xd3, 0xc0, 0x17, 0x3d, 0xb2, 0xc7, 0xe6, 0x3d,
  0x01, 0x9b, 0x99, 0x3d, 0x9d, 0x1e, 0x46, 0x38, 0x2b, 0x1e, 0x26, 0xbe,
  0xe2, 0xb6, 0x85, 0x3d, 0x8f, 0x4c, 0x3a, 0xbe, 0xd8, 0x4e, 0x4e, 0xbd,
  0x20, 0xc2, 0xdd, 0x3c, 0x1a, 0x11, 0xc1, 0x3d, 0x2d, 0x4b, 0x96, 0x3d,
  0xd6, 0xe8, 0xe9, 0xbd, 0xf8, 0x28, 0xd1, 0x3d, 0xae, 0xf8, 0x45, 0x3e,
  0xdc, 0xe1, 0x2f, 0x3e, 0xb5, 0xc0, 0x6f, 0xbe, 0xea, 0x80, 0x44, 0xbd,
  0x3b, 0xd7, 0xa1, 0xbd, 0xda, 0x64, 0xc8, 0xbd, 0x64, 0x34, 0x24, 0xbd,
  0xe6, 0xfd, 0x6b, 0x3e, 0x44, 0x67, 0xc4, 0x3d, 0xaa, 0x9b, 0x67, 0x3e,
  0x83, 0x22, 0x23, 0x3e, 0x30, 0x09, 0xbd, 0x3d, 0xc1, 0xe8, 0x59, 0x3c,
  0xc7, 0xb0, 0x7b, 0x3d, 0x26, 0x39, 0xa4, 0xbd, 0x39, 0x81, 0x23, 0x3e,
  0x68, 0xf8, 0x58, 0x3d, 0x49, 0x89, 0x30, 0xbe, 0x8e, 0x81, 0x3f, 0x3e,
  0x93, 0x83, 0x3f, 0xbe, 0x80, 0x5d, 0x5c, 0x3e, 0x8d, 0xcb, 0x12, 0x3e,
  0xba, 0x60, 0xb8, 0xbd, 0xee, 0xc8, 0x94, 0x3d, 0x9b, 0x75, 0xdf, 0x3d,
  0x21, 0x0e, 0x17, 0xbd, 0xb9, 0xb3, 0x27, 0xbe, 0x80, 0x56, 0x11, 0xbc,
  0xa4, 0xcb, 0x78, 0x3e, 0x40, 0x17, 0x35, 0xbe, 0xc6, 0xc4, 0x00, 0x3e,
  0x5e, 0xca, 0xf8, 0xbc, 0xfc, 0x4f, 0x0b, 0xbe, 0xe4, 0xb9, 0x1a, 0x3e,
  0xd8, 0x57, 0x71, 0xbd, 0x98, 0x5a, 0xcb, 0x3d, 0x5d, 0x1a, 0x3b, 0x3e,
  0x2a, 0x02, 0x4b, 0x3e, 0x28, 0xaf, 0xf3, 0xbc, 0x7f, 0x53, 0x6a, 0x3e,
  0x79, 0x5c, 0x36, 0xbe, 0x92, 0x02, 0x03, 0xbe, 0x56, 0xd5, 0xee, 0xbd,
  0xfa, 0xd2, 0x12, 0x3e, 0x99, 0xe7, 0xf4, 0x3d, 0x80, 0xfd, 0x2c, 0x3e,
  0xbb, 0xca, 0xc9, 0x3d, 0x3b, 0xd9, 0x6a, 0xbe, 0x28, 0xdb, 0xf3, 0x3d,
  0xcc, 0x37, 0x71, 0xbd, 0x42, 0xb4, 0x1b, 0xbe, 0x69, 0xd3, 0xfe, 0x3b,
  0xcf, 0xfc, 0x75, 0xbd, 0x87, 0x2d, 0x0c, 0x3e, 0xb2, 0xaf, 0x20, 0x3b,
  0x39, 0x30, 0xc3, 0x3d, 0xa9, 0xe4, 0x35, 0x3e, 0x01, 0x1a, 0xf4, 0x3d,
  0x47, 0xea, 0x0a, 0xbe, 0x4c, 0x1d, 0x24, 0x3e, 0x6b, 0x63, 0xeb, 0x3d,
  0x38, 0xfe, 0x93, 0x3d, 0x3e, 0x99, 0x60, 0xbe, 0x01, 0x1b, 0x0a, 0xbd,
  0xd8, 0x67, 0x4d, 0xbe, 0xed, 0x6e, 0xf5, 0xbd, 0x53, 0xdb, 0x05, 0xbe,
  0x82, 0xab, 0xaa, 0xbc, 0x18, 0x38, 0x4d, 0xbd, 0xff, 0x4a, 0xd8, 0x3d,
  0x5d, 0x8f, 0x98, 0x3d, 0xbd, 0x11, 0x21, 0xbe, 0x6e, 0x60, 0x5e, 0x3e,
  0xb8, 0x04, 0xcb, 0x3d, 0x34, 0x93, 0xb7, 0xbd, 0xa6, 0xb3, 0xfb, 0xbd,
  0xb8, 0xcf, 0x6c, 0x3e, 0xbc, 0xf0, 0x2c, 0x3e, 0x4b, 0x18, 0x3d, 0xbe,
  0x61, 0x6a, 0xfa, 0x3d, 0xe2, 0xcf, 0x02, 0x3e, 0x08, 0x99, 0x2c, 0x3d,
  0xef, 0x00, 0xe2, 0xbd, 0xb8, 0x3a, 0xd5, 0xbd, 0xbd, 0xb1, 0xc7, 0xbd,
  0x13, 0xd3, 0x2f, 0x3e, 0x2f, 0xfe, 0x4a, 0xbe, 0x1f, 0x3e, 0x63, 0xbd,
  0xe7, 0x0e, 0xa2, 0xbc, 0x1f, 0x3e, 0x10, 0xbe, 0x7a, 0xf2, 0x6b, 0xbe,
  0x08, 0xe0, 0x33, 0xbd, 0x3e, 0x0d, 0x01, 0xbe, 0x3d, 0x64, 0x45, 0xbe,
  0x42, 0xd1, 0x47, 0x3e, 0x29, 0x9e, 0xd8, 0x3c, 0x72, 0x24, 0x22, 0x3e,
  0x0c, 0xf1, 0xc2, 0x3c, 0x2f, 0x7c, 0x0b, 0x3e, 0xf8, 0x3d, 0x79, 0x3d,
  0xec, 0x62, 0x2d, 0x3e, 0xb7, 0xe9, 0x2c, 0x3e, 0x51, 0xf8, 0xe8, 0xbd,
  0x98, 0x15, 0x32, 0xbe, 0x25, 0xba, 0x52, 0xbe, 0xd4, 0x86, 0x92, 0x3d,
  0x75, 0xb7, 0x06, 0x3e, 0x20, 0xc3, 0xb7, 0x3d, 0xc4, 0x5e, 0xc8, 0x3d,
  0x36, 0xca, 0x5b, 0x3e, 0x36, 0x7a, 0x46, 0x3e, 0xee, 0xf1, 0x82, 0x3d,
  0x70, 0x36, 0x85, 0x3d, 0x66, 0xc2, 0x8a, 0xbc, 0x59, 0x6a, 0x29, 0xbe,
  0x2b, 0x4a, 0xbd, 0x3d, 0xc0, 0x31, 0x5d, 0xbd, 0x35, 0xc9, 0x1e, 0xbe,
  0xa2, 0xd2, 0x30, 0x3d, 0xc3, 0xda, 0x1c, 0x3e, 0x95, 0xd5, 0x47, 0x3e,
  0x25, 0x87, 0x9e, 0x3d, 0x7f, 0x4b, 0x60, 0xbe, 0xda, 0x33, 0x01, 0xbe,
  0x9a, 0x07, 0x11, 0x3d, 0x4f, 0x89, 0x40, 0x3e, 0x64, 0x8a, 0x93, 0x3d,
  0x70, 0x6d, 0xed, 0x3c, 0x50, 0xd4, 0x74, 0x3d, 0x7c, 0xf5, 0x47, 0x3e,
  0xb1, 0xc8, 0x12, 0xbe, 0xac, 0x8e, 0x42, 0xbd, 0x3c, 0xb1, 0x45, 0xbe,
  0x0a, 0x03, 0x0d, 0xbe, 0x54, 0x56, 0x24, 0x3d, 0xde, 0x0e, 0xe6, 0xbb,
  0x4c, 0x72, 0x75, 0x3e, 0x7a, 0x1d, 0xc9, 0xbc, 0x48, 0xe9, 0xa3, 0x3d,
  0xf0, 0x00, 0x40, 0xbd, 0xf8, 0xa2, 0xce, 0x3d, 0x9a, 0xdf, 0x3d, 0x3e,
  0x86, 0xfb, 0xcb, 0xbd, 0x5f, 0x93, 0xf0, 0x3d, 0xb0, 0xc0, 0x37, 0xbc,
  0xce, 0x3e, 0x1b, 0xbe, 0xef, 0x17, 0x39, 0xbe, 0xc5, 0x87, 0x0c, 0xbd,
  0x1b, 0x5c, 0xb0, 0xbd, 0x9e, 0x7f, 0x2c, 0xbd, 0xe3, 0xa0, 0x8e, 0x3d,
  0x0b, 0x88, 0x4a, 0x3e, 0x3f, 0x51, 0xef, 0x3d, 0x48, 0x17, 0x57, 0xbe,
  0x08, 0x28, 0x33, 0x3e, 0x38, 0x4f, 0x4d, 0xbd, 0xfb, 0xb7, 0x93, 0xbd,
  0xca, 0x45, 0x74, 0x3c, 0x37, 0x2f, 0xee, 0xbd, 0x5a, 0x79, 0x49, 0x3e,
  0xac, 0x2d, 0x68, 0xbe, 0xc0, 0x40, 0xe3, 0xbd, 0xe9, 0xd3, 0x0f, 0xbe,
  0x96, 0x0a, 0xf5, 0x3d, 0x1b, 0x8b, 0xf4, 0x3d, 0xad, 0xe8, 0x62, 0xbd,
  0xd9, 0x2d, 0x4a, 0xbe, 0xfc, 0x34, 0x5d, 0xbe, 0x68, 0x77, 0xe9, 0x3c,
  0x64, 0xde, 0x08, 0x3e, 0xcc, 0xfc, 0x36, 0x3e, 0x48, 0xbe, 0x69, 0xbe,
  0x34, 0xa7, 0x49, 0x3e, 0xc1, 0x49, 0xb9, 0x3b, 0x16, 0x95, 0x33, 0x3e,
  0x60, 0x2f, 0x70, 0xbc, 0x68, 0xae, 0x9f, 0x3d, 0x66, 0x3b, 0x1c, 0x3e,
  0x67, 0x96, 0xa0, 0xbc, 0x4f, 0x96, 0x63, 0xbe, 0x9e, 0x66, 0xdf, 0xbd,
  0x2c, 0x48, 0x54, 0x3e, 0x45, 0x77, 0x6f, 0x3d, 0xc3, 0x44, 0x10, 0xbd,
  0x51, 0xdb, 0xb6, 0x3d, 0x10, 0xca, 0x23, 0x3e, 0x80, 0x87, 0xe2, 0x3b,
  0xaa, 0xc7, 0x4d, 0x3e, 0x78, 0xde, 0x97, 0xbd, 0xfc, 0xac, 0xcb, 0x3d,
  0x4d, 0x82, 0xa5, 0xbc, 0xc6, 0xb2, 0x31, 0x3e, 0xde, 0xc4, 0x6f, 0x3e,
  0x9c, 0xe9, 0x2d, 0x3e, 0x37, 0x54, 0x5f, 0xbe, 0x13, 0xe7, 0xcb, 0xbd,
  0x44, 0xda, 0x56, 0xbe, 0x1f, 0x1c, 0x12, 0xbe, 0xbc, 0xe0, 0xad, 0x3d,
  0x98, 0x34, 0xb3, 0xbc, 0x18, 0xe7, 0x51, 0x3d, 0x38, 0xc8, 0x73, 0x3e,
  0xfc, 0x0e, 0x34, 0xbd, 0x3a, 0x14, 0x36, 0x3e, 0x76, 0x11, 0xdb, 0xbd,
  0xfa, 0xe7, 0x2d, 0xbe, 0xa5, 0xb9, 0x60, 0xbe, 0x48, 0x65, 0x1a, 0xbe,
  0xf4, 0xd0, 0xe1, 0xbd, 0x78, 0xcd, 0xa6, 0x3d, 0x80, 0x3c, 0x37, 0x3b,
  0x96, 0x8e, 0x5c, 0x3e, 0x32, 0x25, 0x11, 0x3e, 0x18, 0x05, 0xdf, 0xbc,
  0xc0, 0x66, 0xdd, 0x3c, 0x74, 0x30, 0xc3, 0x3d, 0xc0, 0x57, 0x48, 0xbe,
  0x08, 0xb8, 0x80, 0xbd, 0xb8, 0x4b, 0x62, 0x3d, 0x16, 0xb9, 0xe3, 0xbd,
  0x60, 0xbc, 0xbc, 0x3c, 0xb4, 0xe6, 0x76, 0xbd, 0xa4, 0x4d, 0x0e, 0xbe,
  0x8c, 0xe2, 0xcd, 0x3d, 0x44, 0xb1, 0x75, 0xbe, 0x8a, 0x9d, 0xd6, 0xbd,
  0x39, 0x22, 0x38, 0xbe, 0xfc, 0x62, 0xbd, 0x3d, 0x4a, 0xe8, 0xc9, 0xbd,
  0x78, 0xa6, 0x65, 0xbd, 0x00, 0x94, 0xb8, 0x3d, 0x2c, 0xc8, 0x62, 0x3e,
  0x00, 0x8e, 0x57, 0x3d, 0x3c, 0xeb, 0x15, 0x3e, 0x84, 0x53, 0x63, 0x3e,
  0x12, 0xf6, 0xa9, 0xbd, 0x9e, 0x57, 0x38, 0x3e, 0x7c, 0xa6, 0x99, 0x3d,
  0xfa, 0x2b, 0xb5, 0xbd, 0xf0, 0x75, 0x59, 0xbe, 0x60, 0x30, 0x14, 0xbd,
  0x62, 0x9e, 0xd2, 0xbd, 0x54, 0x85, 0xd7, 0xbd, 0x1c, 0xf4, 0xaa, 0xbd,
  0x30, 0xc1, 0xaf, 0x3c, 0x90, 0x06, 0x26, 0xbd, 0x2c, 0x83, 0x13, 0xbe,
  0x7a, 0xed, 0x66, 0x3e, 0x8e, 0xeb, 0x64, 0x3e, 0x66, 0x91, 0x60, 0x3e,
  0x08, 0x07, 0x5e, 0xbd, 0xe6, 0x95, 0xd7, 0xbd, 0x3a, 0xcf, 0x70, 0xbe,
  0xc8, 0x59, 0x33, 0x3d, 0x8c, 0x3e, 0x2c, 0xbd, 0xb2, 0x75, 0x89, 0xbd,
  0xba, 0x9b, 0xc7, 0xbd, 0x9c, 0xe9, 0xbb, 0x3d, 0x08, 0x98, 0xd1, 0x3d,
  0xde, 0x4f, 0x6d, 0x3e, 0x70, 0x2d, 0xba, 0xbd, 0xc0, 0x3d, 0x35, 0xbd,
  0x84, 0x8a, 0x4b, 0xbd, 0x46, 0xf6, 0x0d, 0xbe, 0xcf, 0xec, 0x33, 0xbe,
  0xd6, 0x71, 0xa0, 0xbd, 0x80, 0xc3, 0x53, 0xbd, 0x50, 0x85, 0xc0, 0x3c,
  0x3e, 0xa4, 0x48, 0x3e, 0xa0, 0xeb, 0xb1, 0x3c, 0x06, 0x6a, 0x24, 0xbe,
  0x46, 0xac, 0x4b, 0x3e, 0x50, 0xc7, 0x80, 0xbd, 0x9e, 0x72, 0x13, 0xbe,
  0xcc, 0x20, 0x33, 0x3e, 0xe8, 0xb7, 0x3d, 0x3d, 0x35, 0x1c, 0x0e, 0xbe,
  0xf3, 0xfc, 0x26, 0xbe, 0x60, 0x81, 0x19, 0x3c, 0xf2, 0xed, 0x48, 0xbe,
  0xa8, 0x95, 0xb4, 0x3d, 0xc0, 0xb6, 0x25, 0xbd, 0x96, 0xc1, 0x52, 0xbe,
  0xd8, 0x80, 0xaa, 0xbd, 0xca, 0xcc, 0xcf, 0xbd, 0xde, 0x53, 0xc4, 0xbd,
  0x34, 0x79, 0x45, 0x3e, 0x00, 0x9e, 0x10, 0x3e, 0x74, 0x2e, 0xfc, 0x3d,
  0xa4, 0xe1, 0x41, 0x3e, 0xc4, 0x03, 0x08, 0xbd, 0x00, 0xd7, 0x3f, 0xba,
  0xc8, 0x39, 0x92, 0x3d, 0xf0, 0xf7, 0xa7, 0x3c, 0xd8, 0xd8, 0x62, 0xbd,
  0xf9, 0x21, 0xc9, 0xbd, 0x3e, 0x3d, 0x47, 0x3e, 0x22, 0x08, 0x00, 0xbe,
  0x16, 0xe7, 0x0b, 0x3e, 0xf0, 0x52, 0x1c, 0x3c, 0xb6, 0xdc, 0x5e, 0x3e,
  0x5b, 0xad, 0x0e, 0xbe, 0x90, 0x51, 0x12, 0x3e, 0x3b, 0xe4, 0x61, 0x3e,
  0x5c, 0x15, 0x11, 0x3e, 0xea, 0xe7, 0x1c, 0xbc, 0xae, 0x58, 0x4f, 0xbe,
  0xd1, 0xad, 0x31, 0xbd, 0xfc, 0xb5, 0x29, 0xbe, 0x28, 0xbf, 0x41, 0x3b,
  0x52, 0xb6, 0xc2, 0xbd, 0xf0, 0x91, 0x07, 0x3e, 0xdb, 0x02, 0x04, 0x3e,
  0x1c, 0x27, 0x1d, 0xbe, 0xc6, 0xbf, 0x01, 0x3e, 0xbc, 0x7d, 0xfe, 0x3d,
  0xbc, 0xbb, 0x80, 0x3e, 0x4c, 0x44, 0x33, 0x3e, 0x00, 0x51, 0x01, 0x3e,
  0x18, 0x6c, 0xd0, 0x3d, 0xdc, 0x47, 0x16, 0xbe, 0x7b, 0xc4, 0xc8, 0x3c,
  0x05, 0xa7, 0x69, 0x3e, 0xdf, 0x26, 0x3d, 0xbe, 0xe7, 0x6d, 0xc8, 0x3d,
  0xb1, 0x45, 0x3e, 0x3e, 0xba, 0x67, 0x49, 0xbe, 0xd0, 0x6c, 0x1b, 0xbe,
  0x67, 0x98, 0x13, 0xbe, 0xca, 0xa9, 0x87, 0xbd, 0xb4, 0x48, 0xf0, 0xbd,
  0x9a, 0x03, 0x22, 0xbe, 0x8b, 0x94, 0xf0, 0x3d, 0x0e, 0xbe, 0x3f, 0xbe,
  0x8e, 0xa3, 0x51, 0x3e, 0x23, 0x9c, 0xbb, 0xbd, 0x90, 0xef, 0x03, 0x3e,
  0x88, 0x8e, 0x60, 0x3e, 0xb2, 0xbb, 0xdb, 0xbd, 0xe9, 0x0d, 0xdf, 0xbd,
  0xa6, 0xf6, 0x6e, 0x3e, 0x0d, 0x80, 0xee, 0xbc, 0xa8, 0x7c, 0x01, 0xbd,
  0xf1, 0x9f, 0x3c, 0x3e, 0x7b, 0x1e, 0x32, 0xbe, 0x84, 0xe4, 0xc8, 0xbd,
  0xd4, 0xd4, 0x72, 0x3e, 0x90, 0xc6, 0xe9, 0x3c, 0xc0, 0x27, 0x67, 0xbe,
  0xde, 0xa4, 0x32, 0x3e, 0x98, 0xfb, 0xf3, 0xbc, 0x38, 0xed, 0x1d, 0x3d,
  0x60, 0xf2, 0x21, 0xbc, 0x08, 0x72, 0x2f, 0x3d, 0x26, 0xe9, 0x69, 0x3e,
  0xa1, 0xf3, 0x6a, 0xbd, 0x2e, 0xf6, 0x81, 0xbd, 0xaa, 0x8f, 0xb1, 0xbd,
  0xd8, 0x0c, 0x4a, 0xbe, 0xaf, 0x86, 0x22, 0xbe, 0xee, 0xf3, 0x72, 0xbd,
  0x1c, 0x46, 0x42, 0x3e, 0x16, 0x41, 0x44, 0xbe, 0x48, 0x4a, 0xd2, 0xbc,
  0xc5, 0xf4, 0x1b, 0xbd, 0x28, 0x1e, 0x2e, 0xbe, 0x53, 0xd0, 0x40, 0x3a,
  0x4f, 0x7d, 0x95, 0x3c, 0xbc, 0x35, 0x2f, 0xbd, 0x09, 0x43, 0x57, 0xbe,
  0x8e, 0x05, 0x06, 0xbe, 0x47, 0x4c, 0x6b, 0x3c, 0x77, 0x00, 0x56, 0x3e,
  0x2f, 0xc1, 0xe7, 0xbd, 0x07, 0xa1, 0xb4, 0x3d, 0xcf, 0xd5, 0x8a, 0x3d,
  0x02, 0x45, 0xc1, 0x3d, 0x3b, 0xad, 0xff, 0xbd, 0x66, 0x29, 0x1d, 0xbe,
  0xc6, 0xaa, 0x2e, 0xbe, 0x52, 0x83, 0xba, 0xbd, 0xa8, 0xad, 0x01, 0xbe,
  0x45, 0xa5, 0xbb, 0xbd, 0xcc, 0xc3, 0x1e, 0x3e, 0x9a, 0xaf, 0xb1, 0xbd,
  0x67, 0x96, 0xaf, 0x3d, 0x00, 0x3a, 0x98, 0xbd, 0x54, 0x13, 0x2b, 0x3d,
  0xd8, 0xae, 0x61, 0x3e, 0x44, 0x97, 0xf7, 0x3d, 0x79, 0x66, 0x3b, 0xbe,
  0x33, 0x65, 0xc5, 0x3c, 0xe9, 0x5c, 0x10, 0xbe, 0x6b, 0x97, 0x24, 0xbe,
  0xbc, 0xa8, 0x3e, 0x3d, 0xdc, 0x04, 0x7a, 0xbd, 0xeb, 0x85, 0x94, 0x3d,
  0xb6, 0x0f, 0x92, 0x3d, 0x0d, 0x8f, 0x4b, 0xbe, 0x8d, 0x45, 0xae, 0x3d,
  0x22, 0xd7, 0x88, 0xbd, 0x35, 0x95, 0xd5, 0xbd, 0xdf, 0x98, 0x1d, 0xbe,
  0xcd, 0x07, 0xc3, 0x3d, 0x50, 0xff, 0x8f, 0xbd, 0x0f, 0x0b, 0x52, 0xbe,
  0xd8, 0xfc, 0x3e, 0xbe, 0xaa, 0x39, 0x42, 0x3e, 0x20, 0x0d, 0x35, 0xbd,
  0x36, 0x63, 0x2a, 0xbe, 0xf8, 0x95, 0x1c, 0x3d, 0x14, 0x6d, 0x04, 0x3e,
  0xc0, 0xdc, 0x68, 0x3e, 0xa4, 0xde, 0x67, 0x3e, 0xb0, 0x28, 0x5c, 0xbe,
  0x81, 0xe2, 0x59, 0x3e, 0x2c, 0x49, 0x5e, 0xbe, 0xfb, 0x7b, 0x3b, 0x3e,
  0xa0, 0x8c, 0x5f, 0xbe, 0x0d, 0x92, 0x85, 0x3d, 0x44, 0x9b, 0xfc, 0x3d,
  0xbd, 0x0e, 0x1f, 0xbe, 0xa0, 0x1c, 0x3e, 0x3e, 0x70, 0x4c, 0x21, 0xbe,
  0xb8, 0x54, 0xed, 0xbd, 0x6b, 0xc7, 0xba, 0x3d, 0xd2, 0xad, 0x29, 0x3e,
  0x9a, 0x61, 0xd1, 0xbd, 0x0d, 0x84, 0x61, 0x3e, 0xab, 0x31, 0xfd, 0xbd,
  0x99, 0x0e, 0x1d, 0xbd, 0xea, 0xf8, 0xb7, 0x3d, 0x04, 0xa5, 0xe2, 0xbd,
  0x78, 0xd9, 0xe0, 0xbd, 0x83, 0x92, 0x57, 0x3e, 0x77, 0x78, 0x19, 0xbe,
  0xe2, 0xa8, 0xc7, 0xbb, 0xa0, 0xa7, 0x57, 0x3e, 0x00, 0xab, 0xb0, 0xbc,
  0x16, 0x03, 0x85, 0x3c, 0xef, 0x57, 0x1c, 0xbd, 0xd0, 0x89, 0xcd, 0x3c,
  0x40, 0xb1, 0x65, 0x3e, 0x7e, 0x2c, 0x81, 0xbd, 0x5b, 0x1b, 0x40, 0xbe,
  0xc7, 0x57, 0x39, 0x3e, 0x6f, 0x21, 0x55, 0x3e, 0x6b, 0xa8, 0x6c, 0xbe,
  0x60, 0x3e, 0xe9, 0x3b, 0x34, 0xcf, 0x2e, 0x3e, 0x95, 0xb2, 0xd0, 0xbd,
  0x99, 0xab, 0x3a, 0xbe, 0x74, 0x16, 0x5f, 0xbe, 0x07, 0xf3, 0x4e, 0xbe,
  0x84, 0x4c, 0x02, 0xbe, 0xaa, 0x43, 0x1e, 0x3e, 0xdd, 0xe9, 0x9e, 0x3d,
  0x1c, 0x45, 0x8a, 0x3d, 0x08, 0x75, 0x35, 0x3e, 0x7e, 0x87, 0x1f, 0x3e,
  0xd5, 0x60, 0x77, 0xbd, 0x70, 0xab, 0xe4, 0xbd, 0x0b, 0x20, 0x25, 0x3e,
  0xdf, 0x00, 0x01, 0xbc, 0xc8, 0x68, 0x0b, 0xbe, 0x86, 0x2a, 0x38, 0xbd,
  0xaf, 0x56, 0x0e, 0xbe, 0x76, 0x79, 0xb8, 0x3d, 0xc9, 0xda, 0x6b, 0xbe,
  0x68, 0x63, 0xd7, 0xbc, 0x4d, 0x41, 0x73, 0x3d, 0x03, 0xbb, 0xbc, 0x3d,
  0x8a, 0x2b, 0x7e, 0x3d, 0xec, 0xd9, 0x62, 0x3e, 0x00, 0xf0, 0x27, 0x3c,
  0x9c, 0x78, 0x68, 0xbd, 0x6b, 0x62, 0xbc, 0x3d, 0x79, 0xf0, 0x24, 0xbe,
  0xe6, 0x61, 0xf3, 0xbc, 0xf8, 0xe7, 0x62, 0x3e, 0x1e, 0x68, 0x4e, 0xbe,
  0x52, 0xcf, 0x34, 0xbe, 0xaa, 0x17, 0xe5, 0x3a, 0x48, 0xd6, 0x5f, 0xbd,
  0xfe, 0x64, 0x60, 0xbd, 0x1b, 0xd0, 0xdb, 0x3d, 0x2f, 0x06, 0xa9, 0xbd,
  0x50, 0xa9, 0x1c, 0x3d, 0xee, 0x58, 0x08, 0xbe, 0x7e, 0xf1, 0x26, 0x3e,
  0x18, 0x1d, 0x19, 0xbe, 0xf2, 0x11, 0x52, 0x3e, 0x67, 0x78, 0x4e, 0xbe,
  0x20, 0xa7, 0x59, 0x3c, 0x60, 0xc8, 0xd5, 0x3d, 0x69, 0xbf, 0x46, 0xbe,
  0x6e, 0xfb, 0x51, 0x3e, 0x54, 0xd2, 0xd0, 0xbd, 0x1f, 0x26, 0x5d, 0xbe,
  0x10, 0x66, 0x36, 0xbc, 0x3c, 0x66, 0x29, 0xbd, 0xb8, 0x09, 0xaf, 0x3d,
  0x46, 0x1e, 0x24, 0xbe, 0x94, 0x89, 0xd6, 0x3d, 0x8c, 0x9c, 0x0b, 0x3e,
  0xd4, 0xb5, 0x5b, 0x3e, 0x00, 0x1e, 0xcf, 0x3b, 0x08, 0x0e, 0x33, 0x3e,
  0x70, 0x6a, 0x40, 0xbd, 0x3e, 0xde, 0xde, 0xbd, 0x88, 0xbe, 0x42, 0x3d,
  0x68, 0xd5, 0x8f, 0xbd, 0xc8, 0x28, 0x8c, 0x3d, 0x60, 0xe8, 0xfd, 0xbb,
  0xe0, 0x57, 0xf0, 0xbc, 0x30, 0x50, 0x1f, 0x3e, 0x74, 0xec, 0x82, 0xbd,
  0x1c, 0x9a, 0x25, 0x3e, 0x7c, 0x30, 0x22, 0x3e, 0x94, 0x3b, 0xeb, 0x3d,
  0xe4, 0xbf, 0xe4, 0x3d, 0x10, 0x7d, 0x97, 0x3c, 0xf0, 0xe9, 0xa8, 0x3c,
  0x50, 0x92, 0x75, 0x3e, 0xd0, 0xb6, 0x06, 0x3e, 0xb0, 0xbd, 0x4f, 0xbd,
  0xec, 0xb0, 0x63, 0xbe, 0x36, 0x73, 0x2d, 0x3e, 0x10, 0xec, 0xef, 0x3d,
  0x5a, 0x61, 0x21, 0xbe, 0x35, 0xa7, 0x5f, 0xbe, 0x9c, 0x89, 0x27, 0xbe,
  0x0b, 0xea, 0x4a, 0xbe, 0x27, 0x5b, 0xfc, 0xbd, 0x94, 0x53, 0xa1, 0x3d,
  0xa0, 0x5d, 0xbd, 0x3c, 0xa6, 0xf7, 0x2f, 0x3e, 0x4e, 0x21, 0x36, 0x3e,
  0x3f, 0xc9, 0x3c, 0xbe, 0x8c, 0xea, 0xad, 0xbd, 0xe6, 0x0b, 0x2c, 0x3e,
  0xf1, 0xbf, 0x12, 0xbe, 0xbe, 0x09, 0x20, 0x3e, 0x00, 0x11, 0x9c, 0x3c,
  0xd6, 0xf5, 0x93, 0xbd, 0x3c, 0x43, 0x23, 0xbe, 0x10, 0x6e, 0xeb, 0x3d,
  0xf2, 0xab, 0x30, 0xbe, 0x4e, 0xe6, 0x56, 0xbe, 0x6e, 0x3a, 0x03, 0x3e,
  0x80, 0x2f, 0xfa, 0xbc, 0x98, 0x0c, 0x4c, 0xbd, 0xdc, 0x1b, 0x11, 0xbe,
  0xec, 0x7c, 0x33, 0xbe, 0xab, 0x3a, 0xf8, 0xbd, 0xb0, 0xdc, 0x2e, 0x3e,
  0x80, 0x4b, 0xb5, 0x3c, 0x60, 0x8a, 0xe1, 0x3c, 0x80, 0x3a, 0x82, 0x3d,
  0x1e, 0x0b, 0x41, 0xbe, 0x6a, 0x68, 0xcd, 0xbd, 0x68, 0x76, 0x3f, 0xbe,
  0x87, 0x74, 0x6f, 0xbe, 0x14, 0x61, 0xa0, 0x3d, 0xee, 0x04, 0x50, 0x3e,
  0x00, 0x73, 0x61, 0x3d, 0xa0, 0xcd, 0x60, 0x3e, 0xc8, 0xad, 0x07, 0x3e,
  0x2e, 0xf1, 0x0e, 0x3e, 0xbe, 0xe6, 0x54, 0x3e, 0x24, 0x64, 0x6f, 0xbd,
  0xfc, 0x6d, 0x3b, 0x3e, 0xa0, 0x84, 0x84, 0x3c, 0x74, 0xb9, 0x8d, 0x3d,
  0x7c, 0xf8, 0x5d, 0x3e, 0x88, 0x4c, 0x00, 0xbe, 0x3a, 0x1c, 0x5d, 0xbe,
  0xee, 0x3f, 0x22, 0x3e, 0xe8, 0x5b, 0x21, 0xbd, 0x18, 0x3d, 0xe0, 0xbc,
  0xf0, 0xf5, 0x1a, 0x3c, 0xbc, 0x30, 0x8f, 0x3d, 0x9c, 0x09, 0xea, 0xbd,
  0xd2, 0xd6, 0xaf, 0xbd, 0x68, 0x9d, 0x62, 0x3e, 0x68, 0xff, 0xf0, 0xbc,
  0xb4, 0xd6, 0x72, 0x3e, 0x5c, 0xdf, 0xba, 0xbd, 0xfe, 0xb1, 0x41, 0xbe,
  0x12, 0x22, 0xc1, 0xbd, 0x6a, 0x35, 0x13, 0x3e, 0x68, 0xd6, 0x56, 0xbe,
  0xf8, 0x60, 0x3f, 0xbe, 0xbe, 0x07, 0x3c, 0xbe, 0x00, 0xd5, 0x8c, 0x3d,
  0xe8, 0xf6, 0xfe, 0xbc, 0xa8, 0x76, 0x52, 0xbd, 0x88, 0xde, 0x5a, 0x3d,
  0x00, 0xc3, 0x4c, 0xbe, 0x2c, 0x09, 0x0e, 0x3e, 0x56, 0x61, 0x09, 0x3e,
  0xc8, 0x60, 0x63, 0x3d, 0x00, 0xcb, 0x9c, 0x3c, 0x96, 0x42, 0x30, 0x3e,
  0x6c, 0xac, 0x50, 0x3e, 0x03, 0xa0, 0x13, 0xbe, 0x8c, 0xbd, 0x62, 0xbe,
  0x74, 0x62, 0x20, 0xbd, 0xda, 0x6e, 0xfa, 0xbd, 0x66, 0x3c, 0xd5, 0xbd,
  0x78, 0xd5, 0x13, 0xbd, 0xb2, 0x86, 0x46, 0x3e, 0x64, 0xf7, 0x4a, 0xbe,
  0x44, 0x6d, 0x36, 0xbe, 0x28, 0xab, 0xff, 0x3d, 0xb4, 0xcd, 0x88, 0x3d,
  0x3a, 0x85, 0x2f, 0x3e, 0xf8, 0xb8, 0xb9, 0xbd, 0xdf, 0x3d, 0x48, 0xbe,
  0x1c, 0x52, 0x22, 0xbe, 0xb8, 0x85, 0xda, 0xbc, 0xb0, 0xfb, 0xa5, 0xbd,
  0x21, 0xc3, 0x70, 0xbe, 0x7c, 0x1b, 0x7b, 0xbd, 0x2c, 0x00, 0x5a, 0xbe,
  0x70, 0x08, 0x6e, 0x3e, 0x0e, 0x9a, 0x0a, 0xbe, 0x54, 0x7c, 0x24, 0x3e,
  0x8a, 0x74, 0x00, 0xbe, 0xe6, 0x67, 0x15, 0xbe, 0x4e, 0x14, 0xc6, 0xbd,
  0x28, 0xd2, 0xe9, 0xbd, 0x02, 0xce, 0x23, 0x3e, 0xee, 0x2d, 0xdf, 0xbd,
  0xb0, 0x53, 0x27, 0x3d, 0x24, 0xeb, 0x9d, 0x3d, 0xd0, 0x62, 0xdb, 0x3c,
  0xa4, 0x49, 0xcd, 0x3d, 0xdc, 0x83, 0x24, 0x3e, 0xe1, 0xbe, 0xef, 0xbd,
  0xf0, 0x73, 0x8c, 0x3d, 0x84, 0x8f, 0x0e, 0x3e, 0xf8, 0x0f, 0x26, 0xbe,
  0x72, 0xdf, 0x47, 0xbe, 0xc2, 0xdb, 0x14, 0x3e, 0x98, 0x14, 0xa1, 0x3d,
  0xf4, 0x78, 0x0e, 0xbe, 0x2c, 0x20, 0x30, 0xbd, 0xec, 0xe4, 0x9a, 0x3d,
  0xb8, 0xf8, 0x1a, 0x3e, 0xcc, 0x0d, 0xed, 0x3d, 0x82, 0x12, 0xa0, 0xbd,
  0x86, 0xb2, 0x17, 0x3e, 0x38, 0x6e, 0x91, 0xbd, 0xf0, 0x7b, 0x30, 0x3e,
  0x44, 0xf5, 0x0d, 0x3e, 0xd0, 0xe0, 0xc1, 0xbd, 0x34, 0x3e, 0x2f, 0xbd,
  0xd0, 0xe0, 0xc6, 0x3c, 0xf0, 0x6f, 0x12, 0xbd, 0xa0, 0x5f, 0x21, 0xbe,
  0xb0, 0xe5, 0x67, 0xbe, 0x9e, 0x1d, 0x05, 0x3e, 0x20, 0x0c, 0xae, 0x3c,
  0x58, 0xa0, 0x96, 0xbd, 0x10, 0xc4, 0x62, 0xbd, 0x74, 0xbb, 0x1c, 0xbe,
  0xa8, 0x82, 0x52, 0x3d, 0x44, 0x13, 0x4f, 0xbd, 0x20, 0xcf, 0x62, 0xbe,
  0x00, 0x0f, 0x7d, 0xba, 0x60, 0x8f, 0xa4, 0x3b, 0xce, 0x18, 0x5e, 0x3e,
  0x26, 0xae, 0x4f, 0x3e, 0x5c, 0xd8, 0x59, 0x3e, 0xcc, 0x2d, 0x29, 0x3e,
  0xc2, 0x74, 0x47, 0x3e, 0x18, 0xb4, 0x72, 0x3d, 0x30, 0x8f, 0xcc, 0x3c,
  0xea, 0xf8, 0xff, 0xff, 0x04, 0x00, 0x00, 0x00, 0x08, 0x00, 0x00, 0x00,
  0xff, 0xff, 0xff, 0xff, 0x60, 0x00, 0x00, 0x00, 0xfe, 0xf8, 0xff, 0xff,
  0x04, 0x00, 0x00, 0x00, 0x04, 0x00, 0x00, 0x00, 0x67, 0x05, 0x34, 0xbb,
  0x0e, 0xf9, 0xff, 0xff, 0x04, 0x00, 0x00, 0x00, 0x20, 0x00, 0x00, 0x00,
  0x9c, 0xf4, 0x37, 0xbb, 0xb1, 0x40, 0x20, 0x3b, 0x15, 0x19, 0x36, 0xbb,
  0x00, 0x00, 0x00, 0x00, 0x3c, 0x89, 0x31, 0x3b, 0xe1, 0x77, 0x45, 0xbc,
  0x00, 0x00, 0x00, 0x00, 0x00, 0x00, 0x00, 0x00, 0x3a, 0xf9, 0xff, 0xff,
  0x04, 0x00, 0x00, 0x00, 0x00, 0x06, 0x00, 0x00, 0xb0, 0xc7, 0xca, 0x3d,
  0x60, 0x98, 0x5c, 0x3e, 0x27, 0xff, 0x1c, 0xbd, 0x4d, 0x41, 0x80, 0x3e,
  0x5e, 0xc7, 0x83, 0xbd, 0xc9, 0xdc, 0x6f, 0x3d, 0xbb, 0x02, 0x87, 0x3e,
  0x82, 0xe1, 0x2b, 0x3e, 0x78, 0xe7, 0x43, 0x3d, 0xdc, 0x6c, 0x17, 0xbe,
  0x2e, 0xd8, 0xc2, 0xbc, 0x43, 0x0c, 0x52, 0x3e, 0xa8, 0x4a, 0x85, 0x3d,
  0xac, 0xba, 0x7a, 0xbd, 0x0a, 0x89, 0x35, 0xbe, 0x40, 0x48, 0xf5, 0xbd,
  0x64, 0x2e, 0x52, 0x3e, 0x48, 0x6b, 0x84, 0x3e, 0x73, 0x91, 0x73, 0x3e,
  0xfd, 0x3b, 0x71, 0xbc, 0x58, 0x44, 0x8b, 0xbe, 0x4c, 0xf8, 0x8c, 0xbe,
  0x20, 0x1b, 0xba, 0x3d, 0x45, 0xd5, 0x8b, 0xbe, 0x28, 0xd8, 0xc5, 0x3d,
  0x02, 0x85, 0x06, 0x3d, 0x7f, 0x15, 0x31, 0x3e, 0x24, 0xde, 0x81, 0xbe,
  0x28, 0xec, 0x30, 0xbe, 0xe7, 0xda, 0xfc, 0x3d, 0x89, 0xcd, 0x52, 0xbe,
  0xac, 0x31, 0x1c, 0x3e, 0x90, 0x6a, 0x03, 0x3e, 0x82, 0x5b, 0x8b, 0x3e,
  0x71, 0x68, 0x00, 0xbc, 0xa6, 0x14, 0x8c, 0x3e, 0x88, 0xec, 0x25, 0x3d,
  0xb1, 0xfe, 0xd3, 0xbd, 0xbf, 0x57, 0x1d, 0xbe, 0x33, 0x37, 0x88, 0xbe,
  0xf6, 0x11, 0x9f, 0xbd, 0xae, 0x2b, 0x44, 0xbd, 0x3a, 0x5e, 0x8a, 0xbe,
  0x7f, 0x76, 0x20, 0xbe, 0xba, 0xa1, 0x2c, 0xbe, 0x7c, 0xe5, 0xe9, 0x3d,
  0x14, 0x0b, 0x82, 0x3d, 0x50, 0xe9, 0xa2, 0x3c, 0x6e, 0xef, 0x29, 0x3e,
  0xcf, 0xd4, 0x7d, 0xbe, 0xee, 0xbd, 0x4b, 0x3e, 0xa8, 0x89, 0x40, 0x3e,
  0x58, 0xbe, 0x2c, 0xbe, 0x1b, 0x6b, 0x3f, 0x3e, 0xda, 0x7d, 0x30, 0xbc,
  0xb8, 0x42, 0x7b, 0xbe, 0xc0, 0x59, 0xf9, 0xbc, 0x0d, 0xe1, 0x63, 0xbe,
  0x18, 0x83, 0xa7, 0x3d, 0x42, 0x0f, 0x80, 0xbd, 0xb0, 0x95, 0x73, 0x3e,
  0xd5, 0x33, 0x28, 0xbd, 0xa0, 0x85, 0xe9, 0xbd, 0xf0, 0x04, 0x45, 0x3e,
  0xca, 0x67, 0xf1, 0xbd, 0xc1, 0xa3, 0x9f, 0xbd, 0xd5, 0x39, 0x07, 0xbd,
  0x9a, 0x49, 0x7d, 0xbe, 0xde, 0x93, 0x44, 0x3e, 0xd5, 0xe9, 0x69, 0x3e,
  0x29, 0x1c, 0x5d, 0x3e, 0x6c, 0x10, 0xed, 0x3d, 0x50, 0xb8, 0x56, 0x3e,
  0x0e, 0x50, 0xfe, 0xbc, 0x4d, 0x52, 0x64, 0xbe, 0xa3, 0x10, 0xa9, 0x3d,
  0x80, 0x33, 0xd0, 0xbd, 0xcc, 0x83, 0x3c, 0xbd, 0xc0, 0xb9, 0x83, 0xbc,
  0xc0, 0x79, 0xaf, 0x3c, 0x6e, 0x3b, 0x4d, 0x3e, 0x3c, 0x2b, 0x5e, 0x3e,
  0xfc, 0xef, 0x07, 0xbe, 0x0a, 0x7c, 0xd4, 0x3d, 0x8a, 0xd7, 0x56, 0xbe,
  0xb3, 0x11, 0x56, 0xbe, 0x5c, 0xcd, 0x0c, 0x3e, 0x22, 0xb9, 0x4f, 0x3e,
  0x0c, 0x23, 0x40, 0x3e, 0x1f, 0x76, 0xe6, 0xbd, 0x4e, 0x0c, 0x3d, 0x3c,
  0x8b, 0xc8, 0x73, 0x3e, 0x21, 0x12, 0x79, 0xbe, 0xe4, 0xb5, 0x97, 0x3d,
  0xa1, 0x7c, 0x26, 0xbe, 0xa8, 0xa6, 0x61, 0xbe, 0x80, 0xa4, 0x7b, 0xbc,
  0xed, 0x22, 0x77, 0xbe, 0x02, 0xc5, 0xe6, 0xbd, 0x00, 0xcc, 0x18, 0x3a,
  0xd2, 0x72, 0x2f, 0xbe, 0x32, 0xb1, 0x38, 0x3e, 0xf0, 0xb1, 0xc1, 0x3d,
  0x60, 0x1e, 0x43, 0x3c, 0x78, 0x46, 0x28, 0xbe, 0x1d, 0xf9, 0x03, 0xbe,
  0x50, 0xfc, 0x8b, 0x3e, 0xef, 0xb7, 0x41, 0xbe, 0xd0, 0x55, 0x9f, 0xbc,
  0xac, 0x53, 0x3d, 0x3e, 0x06, 0xcf, 0x51, 0x3e, 0x8c, 0x62, 0x29, 0xbd,
  0x6f, 0x5a, 0x07, 0xbe, 0x00, 0xfa, 0x0a, 0x3c, 0x49, 0x48, 0x88, 0xbe,
  0xc0, 0x7b, 0xe2, 0xbb, 0x3a, 0x5a, 0x46, 0x3e, 0x5c, 0xc3, 0x50, 0xbd,
  0xd1, 0xac, 0x0a, 0xbe, 0xec, 0x29, 0xd5, 0x3d, 0x6a, 0xe1, 0x12, 0x3e,
  0xa8, 0x7c, 0x50, 0xbd, 0x05, 0xa9, 0x1e, 0x3e, 0x70, 0xa5, 0x67, 0xbe,
  0x90, 0xa2, 0x80, 0x3e, 0x58, 0x4f, 0x94, 0xbd, 0x54, 0x14, 0x60, 0xbb,
  0x2c, 0xb9, 0x5a, 0x3e, 0x90, 0xb2, 0x30, 0x3e, 0x75, 0x21, 0xe8, 0x3d,
  0x97, 0x9c, 0x77, 0x3e, 0xa3, 0x00, 0xb3, 0xbd, 0x1c, 0x32, 0x3d, 0x3e,
  0x9d, 0xea, 0xf5, 0x3a, 0x6b, 0x3a, 0x7d, 0xbc, 0x8a, 0x37, 0x04, 0xbe,
  0xa8, 0x40, 0x5a, 0xbe, 0x26, 0x6b, 0x8b, 0x3b, 0x9e, 0x02, 0x2d, 0xbe,
  0x69, 0x3b, 0xb7, 0xbc, 0x38, 0x96, 0x3d, 0x3d, 0x09, 0xeb, 0x4e, 0xbd,
  0x4f, 0x3f, 0xd0, 0x3d, 0xe0, 0x24, 0x62, 0x3e, 0x54, 0xa5, 0x41, 0x3e,
  0xd9, 0xa3, 0x14, 0xbd, 0xab, 0xc8, 0x87, 0x3e, 0x3a, 0x04, 0x18, 0xbe,
  0x40, 0x59, 0x29, 0x3e, 0x4c, 0x57, 0x30, 0xbd, 0x9b, 0xf5, 0x56, 0x3e,
  0xe2, 0x07, 0x18, 0xbe, 0xac, 0xd1, 0x61, 0x3e, 0x14, 0xc1, 0x55, 0x3e,
  0x59, 0x24, 0x0f, 0x3d, 0x3d, 0x0b, 0xe9, 0x3d, 0x78, 0xa3, 0x26, 0x3e,
  0xef, 0xe5, 0x78, 0x3c, 0x07, 0xea, 0x8a, 0x3e, 0x40, 0x10, 0x82, 0x3c,
  0xc3, 0xb1, 0x0c, 0xbe, 0x8e, 0x44, 0x6c, 0x3e, 0x5d, 0xd1, 0x68, 0x3e,
  0x37, 0xbd, 0x3b, 0x3e, 0x80, 0xa7, 0xa7, 0xbc, 0xd5, 0xbb, 0x86, 0xbd,
  0x5f, 0x91, 0x44, 0x3e, 0xec, 0x75, 0x86, 0xbe, 0x1e, 0xb9, 0x54, 0xbe,
  0x6b, 0x12, 0x20, 0xbe, 0x67, 0xee, 0x0c, 0x3e, 0x91, 0xe5, 0x47, 0xbe,
  0x9c, 0xb1, 0x67, 0xbe, 0x5d, 0x21, 0x25, 0x3e, 0x42, 0x6b, 0xbe, 0x3d,
  0xa4, 0x53, 0x60, 0x3e, 0x00, 0xc3, 0xdc, 0xbb, 0xfb, 0xa1, 0xfb, 0x3d,
  0x1d, 0x58, 0x1e, 0xbe, 0x1d, 0xfd, 0x05, 0x3d, 0xc6, 0x5a, 0x8b, 0x3e,
  0x9f, 0x1b, 0xd2, 0xbd, 0xd3, 0x5e, 0x11, 0xbd, 0xc8, 0x0b, 0x26, 0xbd,
  0x2a, 0x37, 0x10, 0x3e, 0x63, 0xda, 0x15, 0x3e, 0x5f, 0xdb, 0x25, 0x3d,
  0x18, 0xac, 0x6f, 0x3e, 0x62, 0xed, 0x4e, 0x3e, 0x9f, 0x6a, 0x20, 0xbe,
  0x91, 0x26, 0x2f, 0xbe, 0x74, 0xbd, 0xbd, 0xbd, 0x10, 0x9d, 0x6d, 0xbe,
  0x6c, 0x78, 0x80, 0x3e, 0x0b, 0x94, 0x5c, 0xbd, 0x9f, 0x23, 0x5f, 0x3e,
  0x58, 0x99, 0x1c, 0xbe, 0x5b, 0x4f, 0x78, 0x3e, 0x2a, 0xb2, 0x32, 0x3e,
  0x2c, 0x0d, 0x8b, 0xbe, 0x56, 0x4c, 0xe0, 0xbd, 0x72, 0xa1, 0xc3, 0xbd,
  0xb2, 0xb5, 0x22, 0x3e, 0xcc, 0x0e, 0x7a, 0x3e, 0x38, 0xc3, 0x2a, 0x3d,
  0x1f, 0xac, 0x91, 0x3c, 0xd2, 0x2c, 0x2c, 0xbe, 0x14, 0xf6, 0x7d, 0x3e,
  0x08, 0x0b, 0x66, 0x3d, 0xf3, 0xd2, 0x8b, 0xbe, 0x0a, 0xd4, 0x55, 0x3e,
  0x73, 0xc5, 0x36, 0x3e, 0xb6, 0x5a, 0x40, 0x3e, 0x97, 0x64, 0x8c, 0xbe,
  0x3b, 0xf8, 0xaa, 0x3d, 0xec, 0x1a, 0x37, 0x3e, 0x62, 0x4c, 0x41, 0xbe,
  0xf9, 0x54, 0x8e, 0xbe, 0xfe, 0x9a, 0x43, 0x3e, 0x78, 0x42, 0x1e, 0xbd,
  0xd6, 0x86, 0x56, 0x3e, 0x10, 0x03, 0xe1, 0xbd, 0xc0, 0xd4, 0x81, 0x3e,
  0xc3, 0xd9, 0x71, 0xbe, 0x00, 0xf2, 0x8a, 0x3c, 0x81, 0x49, 0x16, 0xbe,
  0xe0, 0x00, 0x12, 0xbd, 0xe4, 0x08, 0xdc, 0xbd, 0xc2, 0x7a, 0x8c, 0xbe,
  0x20, 0x66, 0x9e, 0xbd, 0x28, 0x16, 0x67, 0xbe, 0x40, 0x8f, 0xc4, 0xbc,
  0xe4, 0x63, 0x0b, 0x3e, 0x32, 0x16, 0xed, 0xbd, 0xa0, 0xc8, 0x0d, 0x3c,
  0x48, 0x24, 0x13, 0xbd, 0xee, 0x84, 0x83, 0xbe, 0x72, 0x03, 0x48, 0xbe,
  0xc4, 0x4c, 0x82, 0x3d, 0xd0, 0x7c, 0x30, 0x3e, 0xd0, 0x50, 0x89, 0x3e,
  0x63, 0xd6, 0x1b, 0xbe, 0x2c, 0x47, 0x3e, 0x3e, 0x33, 0x6c, 0x95, 0xbe,
  0x60, 0x90, 0x7d, 0xbe, 0xf1, 0xd7, 0xc0, 0xbd, 0x11, 0x30, 0x12, 0x3d,
  0xe8, 0x52, 0x1f, 0x3d, 0x1e, 0x8d, 0xa7, 0xbd, 0xa7, 0x62, 0x8b, 0xbd,
  0xcb, 0x6d, 0x3c, 0x3e, 0x01, 0x4d, 0x20, 0xbe, 0x78, 0xe3, 0x5b, 0xbe,
  0x51, 0xa8, 0x1e, 0xbd, 0xeb, 0x0f, 0x4b, 0x3e, 0xf4, 0xcb, 0x6b, 0xbe,
  0x1f, 0xe2, 0x7c, 0xbe, 0xf8, 0x37, 0x4b, 0xbe, 0x52, 0xc0, 0x61, 0xb9,
  0x9b, 0x7e, 0xe9, 0x3c, 0xf9, 0xa8, 0x55, 0xbe, 0x74, 0x38, 0x80, 0x3e,
  0xcd, 0x00, 0xa5, 0x3a, 0xc8, 0xa3, 0xdf, 0xbd, 0x20, 0xce, 0xc3, 0xbc,
  0xd3, 0x56, 0x57, 0xbe, 0x5e, 0xff, 0x79, 0x3e, 0x93, 0xbb, 0x67, 0x3e,
  0x78, 0x9c, 0xd8, 0x3d, 0xa9, 0xab, 0xea, 0x3c, 0xaa, 0x4e, 0x48, 0x3e,
  0x68, 0x8e, 0x7d, 0x3e, 0x87, 0x64, 0x10, 0xbe, 0xee, 0x35, 0x66, 0x3e,
  0xb2, 0x5f, 0x15, 0xbe, 0xed, 0xa7, 0x3e, 0x3e, 0x18, 0xf1, 0x48, 0xbe,
  0x1c, 0x5f, 0x13, 0xbe, 0x90, 0x17, 0xa4, 0xbd, 0x28, 0xc6, 0x45, 0x3e,
  0x9c, 0x50, 0x31, 0x3e, 0x2f, 0x8d, 0x0a, 0x3e, 0xcc, 0x9a, 0xcb, 0xbd,
  0xe1, 0x91, 0x38, 0x3e, 0x5a, 0xbd, 0x34, 0x3e, 0x76, 0x31, 0x86, 0x3e,
  0x6d, 0xea, 0x2c, 0xbe, 0x4a, 0x1a, 0x4e, 0xbe, 0x22, 0x30, 0x0f, 0x3e,
  0x8f, 0x5c, 0x87, 0x3e, 0x85, 0xb5, 0x7f, 0xbe, 0xa8, 0x12, 0x7d, 0x3e,
  0x70, 0x09, 0x69, 0xbe, 0x87, 0x79, 0x15, 0x3e, 0xba, 0xa9, 0x8d, 0x3e,
  0xc6, 0xfe, 0x89, 0xbe, 0x43, 0x41, 0x82, 0xbe, 0xee, 0x55, 0x6e, 0xbc,
  0xb5, 0x47, 0xaf, 0xbb, 0xcd, 0xeb, 0x78, 0xbe, 0x58, 0x84, 0x87, 0x3e,
  0xce, 0x56, 0x7f, 0xbe, 0xcb, 0x11, 0x17, 0x3e, 0xf0, 0x22, 0xb6, 0xbc,
  0xf0, 0xcc, 0x06, 0xbd, 0xb1, 0x22, 0x95, 0x3d, 0xb6, 0x68, 0x8b, 0xbe,
  0x73, 0x53, 0x05, 0x3d, 0xa0, 0x51, 0x46, 0xbc, 0xa6, 0x0e, 0x07, 0x3e,
  0x6c, 0x3c, 0x1a, 0xbd, 0x80, 0xb3, 0x53, 0x3d, 0x80, 0x98, 0x39, 0xbc,
  0x95, 0x10, 0x37, 0xbe, 0x14, 0x1a, 0x68, 0x3d, 0x91, 0x8b, 0x20, 0x3e,
  0xb6, 0x2b, 0x86, 0xbe, 0x45, 0x31, 0xd7, 0x3d, 0xa2, 0x9d, 0xf4, 0x3b,
  0x9c, 0xe7, 0x63, 0x3e, 0x40, 0x9d, 0xf3, 0x3b, 0x50, 0xfb, 0x90, 0x3e,
  0x9e, 0xa0, 0x0e, 0x3e, 0x54, 0xe1, 0x73, 0xbe, 0x90, 0x5a, 0xba, 0x3d,
  0xd7, 0xc4, 0xa0, 0xbc, 0x58, 0x95, 0xda, 0x3d, 0x4c, 0x9e, 0xf6, 0x3d,
  0x2e, 0x82, 0x4d, 0x3e, 0x8b, 0x7f, 0x1c, 0x3e, 0x6f, 0x79, 0xc6, 0x3d,
  0xf9, 0x2c, 0xf8, 0x3a, 0xc0, 0xdb, 0x5f, 0xbc, 0x44, 0xfe, 0x01, 0x3e,
  0x47, 0xd8, 0x80, 0x3e, 0xc2, 0x14, 0x26, 0x3e, 0x2c, 0x8b, 0x8e, 0x3e,
  0xb6, 0x18, 0x83, 0xbd, 0x2d, 0x54, 0x86, 0xbe, 0x8d, 0x8e, 0x5c, 0x3e,
  0xe0, 0x1b, 0x96, 0xbc, 0xa8, 0x29, 0x74, 0x3b, 0xae, 0xca, 0x66, 0x3e,
  0xa0, 0x43, 0x9f, 0x3c, 0xe3, 0x58, 0x28, 0xbe, 0x0d, 0xcf, 0x84, 0xbd,
  0x72, 0xec, 0x66, 0x3e, 0xf1, 0x32, 0x96, 0x3e, 0xf0, 0x10, 0xe6, 0x3c,
  0xcf, 0xe1, 0x6c, 0x3e, 0xde, 0x4e, 0xe6, 0xbd, 0xb0, 0x7c, 0xaa, 0x3d,
  0x58, 0xe9, 0x05, 0x3e, 0x8a, 0x33, 0xbb, 0x3d, 0x53, 0x13, 0x13, 0xbc,
  0xdb, 0x5d, 0xb4, 0x3d, 0x1c, 0x83, 0x90, 0x3e, 0x92, 0xdc, 0xe0, 0x3d,
  0x58, 0x04, 0x79, 0x3e, 0xd0, 0xb3, 0xa8, 0xbc, 0x3a, 0xc0, 0x3a, 0x3e,
  0x68, 0xa1, 0x17, 0x3e, 0xe0, 0x3a, 0x89, 0x3c, 0xac, 0x1a, 0x7c, 0xbe,
  0x32, 0xd5, 0x89, 0xbe, 0xea, 0xf8, 0x3a, 0x3e, 0xb5, 0x50, 0x73, 0xbe,
  0x5c, 0x62, 0x6b, 0x3e, 0xb8, 0xf2, 0x95, 0xbd, 0x85, 0xf2, 0x97, 0x3e,
  0x39, 0x12, 0xdc, 0xbd, 0x1d, 0x58, 0xda, 0xbd, 0x3a, 0x17, 0x36, 0x3e,
  0x7b, 0xe1, 0x29, 0xbe, 0x5b, 0x4d, 0x52, 0xbe, 0x70, 0x15, 0xe9, 0xbd,
  0x18, 0xea, 0x2e, 0x3e, 0xd2, 0xcb, 0x41, 0xbe, 0x6d, 0x94, 0x5e, 0xbe,
  0x2e, 0x1b, 0xa9, 0xbb, 0x78, 0x38, 0x49, 0x3e, 0x3f, 0x3c, 0x11, 0x3e,
  0x4e, 0xe1, 0x27, 0xbe, 0x00, 0x10, 0xc2, 0x3a, 0x46, 0xff, 0xff, 0xff,
  0x04, 0x00, 0x00, 0x00, 0x60, 0x00, 0x00, 0x00, 0x44, 0xd9, 0x02, 0xbe,
  0x9b, 0xca, 0xe1, 0xbe, 0x78, 0x3f, 0x63, 0x3d, 0xf9, 0x3b, 0xf2, 0x3e,
  0x1f, 0x66, 0xcf, 0x3d, 0x79, 0x1c, 0x89, 0xbd, 0x2f, 0x7a, 0x0e, 0xbe,
  0x32, 0x4c, 0xbe, 0x3e, 0x72, 0xe6, 0x7a, 0xbe, 0xd6, 0x82, 0xac, 0xbb,
  0x14, 0xd9, 0x65, 0x3e, 0xc7, 0x38, 0x95, 0xbe, 0x0e, 0x2c, 0x47, 0xbe,
  0x3c, 0xa8, 0xc6, 0xbd, 0x40, 0x8c, 0xd4, 0x3b, 0xbd, 0x51, 0xcd, 0xbd,
  0x86, 0x29, 0x14, 0x3d, 0xa6, 0x42, 0xb4, 0x3e, 0x03, 0xfe, 0xc0, 0xbe,
  0xb5, 0x4c, 0x66, 0x3e, 0x1b, 0xdb, 0xe8, 0xbd, 0xa8, 0x45, 0x0d, 0xbe,
  0x44, 0xdc, 0xde, 0xbd, 0x14, 0x05, 0xf3, 0xbd, 0xb2, 0xff, 0xff, 0xff,
  0x04, 0x00, 0x00, 0x00, 0x40, 0x00, 0x00, 0x00, 0xb7, 0x0a, 0x92, 0xbb,
  0xe3, 0x41, 0x80, 0xbb, 0xd9, 0xb1, 0x18, 0xbc, 0x69, 0x47, 0xad, 0xbb,
  0x00, 0x00, 0x00, 0x00, 0xd0, 0x5a, 0xdf, 0xb9, 0x18, 0x85, 0x57, 0xbb,
  0xff, 0xb9, 0xb9, 0x3a, 0x3b, 0xa6, 0xa4, 0xbb, 0x00, 0x00, 0x00, 0x00,
  0x17, 0xb5, 0x18, 0xbc, 0xa8, 0x0c, 0x2e, 0x3b, 0xa8, 0xc6, 0x47, 0x3c,
  0x3b, 0x7f, 0x2b, 0x3b, 0x5e, 0xa5, 0x09, 0x3b, 0x62, 0x3e, 0x27, 0x3c,
  0x00, 0x00, 0x06, 0x00, 0x08, 0x00, 0x04, 0x00, 0x06, 0x00, 0x00, 0x00,
  0x04, 0x00, 0x00, 0x00, 0x20, 0x00, 0x00, 0x00, 0x00, 0x00, 0x00, 0x00,
  0xae, 0xbe, 0x92, 0xba, 0x5c, 0xa3, 0x15, 0xbc, 0xa6, 0x8b, 0x9e, 0xba,
  0x00, 0x00, 0x00, 0x00, 0xf6, 0xfd, 0x07, 0x3b, 0x9f, 0xa2, 0x32, 0xbc,
  0x00, 0x00, 0x00, 0x00, 0xe0, 0xf5, 0xff, 0xff, 0xe4, 0xf5, 0xff, 0xff,
  0x0f, 0x00, 0x00, 0x00, 0x4d, 0x4c, 0x49, 0x52, 0x20, 0x43, 0x6f, 0x6e,
  0x76, 0x65, 0x72, 0x74, 0x65, 0x64, 0x2e, 0x00, 0x01, 0x00, 0x00, 0x00,
  0x14, 0x00, 0x00, 0x00, 0x00, 0x00, 0x0e, 0x00, 0x18, 0x00, 0x14, 0x00,
  0x10, 0x00, 0x0c, 0x00, 0x08, 0x00, 0x04, 0x00, 0x0e, 0x00, 0x00, 0x00,
  0x14, 0x00, 0x00, 0x00, 0x1c, 0x00, 0x00, 0x00, 0x3c, 0x02, 0x00, 0x00,
  0x40, 0x02, 0x00, 0x00, 0x44, 0x02, 0x00, 0x00, 0x04, 0x00, 0x00, 0x00,
  0x6d, 0x61, 0x69, 0x6e, 0x00, 0x00, 0x00, 0x00, 0x08, 0x00, 0x00, 0x00,
  0xd4, 0x01, 0x00, 0x00, 0x70, 0x01, 0x00, 0x00, 0x1c, 0x01, 0x00, 0x00,
  0xd8, 0x00, 0x00, 0x00, 0xb0, 0x00, 0x00, 0x00, 0x60, 0x00, 0x00, 0x00,
  0x28, 0x00, 0x00, 0x00, 0x04, 0x00, 0x00, 0x00, 0x6a, 0xff, 0xff, 0xff,
  0x0c, 0x00, 0x00, 0x00, 0x10, 0x00, 0x00, 0x00, 0x04, 0x00, 0x00, 0x00,
  0x01, 0x00, 0x00, 0x00, 0x11, 0x00, 0x00, 0x00, 0x01, 0x00, 0x00, 0x00,
  0x10, 0x00, 0x00, 0x00, 0xda, 0xfe, 0xff, 0xff, 0x14, 0x00, 0x00, 0x00,
  0x00, 0x00, 0x00, 0x08, 0x10, 0x00, 0x00, 0x00, 0x14, 0x00, 0x00, 0x00,
  0x03, 0x00, 0x00, 0x00, 0x94, 0xf6, 0xff, 0xff, 0x01, 0x00, 0x00, 0x00,
  0x10, 0x00, 0x00, 0x00, 0x03, 0x00, 0x00, 0x00, 0x0f, 0x00, 0x00, 0x00,
  0x09, 0x00, 0x00, 0x00, 0x06, 0x00, 0x00, 0x00, 0x0e, 0xff, 0xff, 0xff,
  0x1c, 0x00, 0x00, 0x00, 0x00, 0x00, 0x00, 0x08, 0x1c, 0x00, 0x00, 0x00,
  0x20, 0x00, 0x00, 0x00, 0x03, 0x00, 0x00, 0x00, 0x00, 0x00, 0x06, 0x00,
  0x08, 0x00, 0x07, 0x00, 0x06, 0x00, 0x00, 0x00, 0x00, 0x00, 0x00, 0x01,
  0x01, 0x00, 0x00, 0x00, 0x0f, 0x00, 0x00, 0x00, 0x03, 0x00, 0x00, 0x00,
  0x0e, 0x00, 0x00, 0x00, 0x08, 0x00, 0x00, 0x00, 0x05, 0x00, 0x00, 0x00,
  0x00, 0x00, 0x0a, 0x00, 0x10, 0x00, 0x0c, 0x00, 0x08, 0x00, 0x04, 0x00,
  0x0a, 0x00, 0x00, 0x00, 0x0c, 0x00, 0x00, 0x00, 0x10, 0x00, 0x00, 0x00,
  0x02, 0x00, 0x00, 0x00, 0x01, 0x00, 0x00, 0x00, 0x0e, 0x00, 0x00, 0x00,
  0x02, 0x00, 0x00, 0x00, 0x0d, 0x00, 0x00, 0x00, 0x07, 0x00, 0x00, 0x00,
  0x7e, 0xff, 0xff, 0xff, 0x14, 0x00, 0x00, 0x00, 0x00, 0x00, 0x00, 0x05,
  0x24, 0x00, 0x00, 0x00, 0x28, 0x00, 0x00, 0x00, 0x01, 0x00, 0x00, 0x00,
  0x6e, 0xff, 0xff, 0xff, 0x02, 0x00, 0x00, 0x00, 0x01, 0x00, 0x00, 0x00,
  0x02, 0x00, 0x00, 0x00, 0x01, 0x00, 0x00, 0x00, 0x00, 0x00, 0x00, 0x01,
  0x01, 0x00, 0x00, 0x00, 0x0d, 0x00, 0x00, 0x00, 0x01, 0x00, 0x00, 0x00,
  0x0c, 0x00, 0x00, 0x00, 0x5e, 0xff, 0xff, 0xff, 0x10, 0x00, 0x00, 0x00,
  0x00, 0x00, 0x00, 0x01, 0x1c, 0x00, 0x00, 0x00, 0x20, 0x00, 0x00, 0x00,
  0x50, 0xff, 0xff, 0xff, 0x00, 0x00, 0x00, 0x01, 0x01, 0x00, 0x00, 0x00,
  0x01, 0x00, 0x00, 0x00, 0x00, 0x00, 0x00, 0x01, 0x01, 0x00, 0x00, 0x00,
  0x0c, 0x00, 0x00, 0x00, 0x03, 0x00, 0x00, 0x00, 0x0b, 0x00, 0x00, 0x00,
  0x04, 0x00, 0x00, 0x00, 0x02, 0x00, 0x00, 0x00, 0x00, 0x00, 0x0e, 0x00,
  0x1a, 0x00, 0x14, 0x00, 0x10, 0x00, 0x0c, 0x00, 0x0b, 0x00, 0x04, 0x00,
  0x0e, 0x00, 0x00, 0x00, 0x24, 0x00, 0x00, 0x00, 0x00, 0x00, 0x00, 0x05,
  0x34, 0x00, 0x00, 0x00, 0x38, 0x00, 0x00, 0x00, 0x01, 0x00, 0x00, 0x00,
  0x00, 0x00, 0x0e, 0x00, 0x18, 0x00, 0x17, 0x00, 0x10, 0x00, 0x0c, 0x00,
  0x08, 0x00, 0x04, 0x00, 0x0e, 0x00, 0x00, 0x00, 0x02, 0x00, 0x00, 0x00,
  0x01, 0x00, 0x00, 0x00, 0x02, 0x00, 0x00, 0x00, 0x01, 0x00, 0x00, 0x00,
  0x00, 0x00, 0x00, 0x01, 0x01, 0x00, 0x00, 0x00, 0x0b, 0x00, 0x00, 0x00,
  0x01, 0x00, 0x00, 0x00, 0x0a, 0x00, 0x00, 0x00, 0x00, 0x00, 0x0e, 0x00,
  0x14, 0x00, 0x00, 0x00, 0x10, 0x00, 0x0c, 0x00, 0x0b, 0x00, 0x04, 0x00,
  0x0e, 0x00, 0x00, 0x00, 0x1c, 0x00, 0x00, 0x00, 0x00, 0x00, 0x00, 0x01,
  0x28, 0x00, 0x00, 0x00, 0x2c, 0x00, 0x00, 0x00, 0x0c, 0x00, 0x14, 0x00,
  0x13, 0x00, 0x0c, 0x00, 0x08, 0x00, 0x07, 0x00, 0x0c, 0x00, 0x00, 0x00,
  0x00, 0x00, 0x00, 0x01, 0x01, 0x00, 0x00, 0x00, 0x01, 0x00, 0x00, 0x00,
  0x00, 0x00, 0x00, 0x01, 0x01, 0x00, 0x00, 0x00, 0x0a, 0x00, 0x00, 0x00,
  0x03, 0x00, 0x00, 0x00, 0x00, 0x00, 0x00, 0x00, 0x03, 0x00, 0x00, 0x00,
  0x01, 0x00, 0x00, 0x00, 0x01, 0x00, 0x00, 0x00, 0x11, 0x00, 0x00, 0x00,
  0x01, 0x00, 0x00, 0x00, 0x00, 0x00, 0x00, 0x00, 0x12, 0x00, 0x00, 0x00,
  0x60, 0x07, 0x00, 0x00, 0xf0, 0x06, 0x00, 0x00, 0x80, 0x06, 0x00, 0x00,
  0x2c, 0x06, 0x00, 0x00, 0xd8, 0x05, 0x00, 0x00, 0x84, 0x05, 0x00, 0x00,
  0x2c, 0x05, 0x00, 0x00, 0xe0, 0x04, 0x00, 0x00, 0x80, 0x04, 0x00, 0x00,
  0x34, 0x04, 0x00, 0x00, 0x70, 0x03, 0x00, 0x00, 0xfc, 0x02, 0x00, 0x00,
  0x30, 0x02, 0x00, 0x00, 0xbc, 0x01, 0x00, 0x00, 0x60, 0x01, 0x00, 0x00,
  0xd8, 0x00, 0x00, 0x00, 0x60, 0x00, 0x00, 0x00, 0x04, 0x00, 0x00, 0x00,
  0xfe, 0xf8, 0xff, 0xff, 0x00, 0x00, 0x00, 0x01, 0x14, 0x00, 0x00, 0x00,
  0x1c, 0x00, 0x00, 0x00, 0x1c, 0x00, 0x00, 0x00, 0x12, 0x00, 0x00, 0x00,
  0x34, 0x00, 0x00, 0x00, 0x02, 0x00, 0x00, 0x00, 0xff, 0xff, 0xff, 0xff,
  0x01, 0x00, 0x00, 0x00, 0xe0, 0xf8, 0xff, 0xff, 0x19, 0x00, 0x00, 0x00,
  0x53, 0x74, 0x61, 0x74, 0x65, 0x66, 0x75, 0x6c, 0x50, 0x61, 0x72, 0x74,
  0x69, 0x74, 0x69, 0x6f, 0x6e, 0x65, 0x64, 0x43, 0x61, 0x6c, 0x6c, 0x3a,
  0x30, 0x00, 0x00, 0x00, 0x02, 0x00, 0x00, 0x00, 0x01, 0x00, 0x00, 0x00,
  0x01, 0x00, 0x00, 0x00, 0x56, 0xf9, 0xff, 0xff, 0x00, 0x00, 0x00, 0x01,
  0x14, 0x00, 0x00, 0x00, 0x1c, 0x00, 0x00, 0x00, 0x1c, 0x00, 0x00, 0x00,
  0x11, 0x00, 0x00, 0x00, 0x50, 0x00, 0x00, 0x00, 0x02, 0x00, 0x00, 0x00,
  0xff, 0xff, 0xff, 0xff, 0x01, 0x00, 0x00, 0x00, 0x38, 0xf9, 0xff, 0xff,
  0x34, 0x00, 0x00, 0x00, 0x73, 0x65, 0x71, 0x75, 0x65, 0x6e, 0x74, 0x69,
  0x61, 0x6c, 0x2f, 0x64, 0x65, 0x6e, 0x73, 0x65, 0x5f, 0x31, 0x2f, 0x4d,
  0x61, 0x74, 0x4d, 0x75, 0x6c, 0x3b, 0x73, 0x65, 0x71, 0x75, 0x65, 0x6e,
  0x74, 0x69, 0x61, 0x6c, 0x2f, 0x64, 0x65, 0x6e, 0x73, 0x65, 0x5f, 0x31,
  0x2f, 0x42, 0x69, 0x61, 0x73, 0x41, 0x64, 0x64, 0x00, 0x00, 0x00, 0x00,
  0x02, 0x00, 0x00, 0x00, 0x01, 0x00, 0x00, 0x00, 0x01, 0x00, 0x00, 0x00,
  0xca, 0xf9, 0xff, 0xff, 0x00, 0x00, 0x00, 0x01, 0x14, 0x00, 0x00, 0x00,
  0x1c, 0x00, 0x00, 0x00, 0x1c, 0x00, 0x00, 0x00, 0x10, 0x00, 0x00, 0x00,
  0x60, 0x00, 0x00, 0x00, 0x02, 0x00, 0x00, 0x00, 0xff, 0xff, 0xff, 0xff,
  0x08, 0x00, 0x00, 0x00, 0xac, 0xf9, 0xff, 0xff, 0x46, 0x00, 0x00, 0x00,
  0x73, 0x65, 0x71, 0x75, 0x65, 0x6e, 0x74, 0x69, 0x61, 0x6c, 0x2f, 0x64,
  0x65, 0x6e, 0x73, 0x65, 0x2f, 0x4d, 0x61, 0x74, 0x4d, 0x75, 0x6c, 0x3b,
  0x73, 0x65, 0x71, 0x75, 0x65, 0x6e, 0x74, 0x69, 0x61, 0x6c, 0x2f, 0x64,
  0x65, 0x6e, 0x73, 0x65, 0x2f, 0x52, 0x65, 0x6c, 0x75, 0x3b, 0x73, 0x65,
  0x71, 0x75, 0x65, 0x6e, 0x74, 0x69, 0x61, 0x6c, 0x2f, 0x64, 0x65, 0x6e,
  0x73, 0x65, 0x2f, 0x42, 0x69, 0x61, 0x73, 0x41, 0x64, 0x64, 0x00, 0x00,
  0x02, 0x00, 0x00, 0x00, 0x01, 0x00, 0x00, 0x00, 0x08, 0x00, 0x00, 0x00,
  0x4e, 0xfa, 0xff, 0xff, 0x00, 0x00, 0x00, 0x01, 0x14, 0x00, 0x00, 0x00,
  0x1c, 0x00, 0x00, 0x00, 0x1c, 0x00, 0x00, 0x00, 0x0f, 0x00, 0x00, 0x00,
  0x34, 0x00, 0x00, 0x00, 0x02, 0x00, 0x00, 0x00, 0xff, 0xff, 0xff, 0xff,
  0x60, 0x00, 0x00, 0x00, 0x30, 0xfa, 0xff, 0xff, 0x1a, 0x00, 0x00, 0x00,
  0x73, 0x65, 0x71, 0x75, 0x65, 0x6e, 0x74, 0x69, 0x61, 0x6c, 0x2f, 0x66,
  0x6c, 0x61, 0x74, 0x74, 0x65, 0x6e, 0x2f, 0x52, 0x65, 0x73, 0x68, 0x61,
  0x70, 0x65, 0x00, 0x00, 0x02, 0x00, 0x00, 0x00, 0x01, 0x00, 0x00, 0x00,
  0x60, 0x00, 0x00, 0x00, 0xa6, 0xfa, 0xff, 0xff, 0x00, 0x00, 0x00, 0x01,
  0x14, 0x00, 0x00, 0x00, 0x24, 0x00, 0x00, 0x00, 0x24, 0x00, 0x00, 0x00,
  0x0e, 0x00, 0x00, 0x00, 0x44, 0x00, 0x00, 0x00, 0x04, 0x00, 0x00, 0x00,
  0xff, 0xff, 0xff, 0xff, 0x06, 0x00, 0x00, 0x00, 0x01, 0x00, 0x00, 0x00,
  0x10, 0x00, 0x00, 0x00, 0x90, 0xfa, 0xff, 0xff, 0x22, 0x00, 0x00, 0x00,
  0x73, 0x65, 0x71, 0x75, 0x65, 0x6e, 0x74, 0x69, 0x61, 0x6c, 0x2f, 0x6d,
  0x61, 0x78, 0x5f, 0x70, 0x6f, 0x6f, 0x6c, 0x69, 0x6e, 0x67, 0x32, 0x64,
  0x5f, 0x31, 0x2f, 0x4d, 0x61, 0x78, 0x50, 0x6f, 0x6f, 0x6c, 0x00, 0x00,
  0x04, 0x00, 0x00, 0x00, 0x01, 0x00, 0x00, 0x00, 0x06, 0x00, 0x00, 0x00,
  0x01, 0x00, 0x00, 0x00, 0x10, 0x00, 0x00, 0x00, 0x16, 0xfb, 0xff, 0xff,
  0x00, 0x00, 0x00, 0x01, 0x14, 0x00, 0x00, 0x00, 0x24, 0x00, 0x00, 0x00,
  0x24, 0x00, 0x00, 0x00, 0x0d, 0x00, 0x00, 0x00, 0x9c, 0x00, 0x00, 0x00,
  0x04, 0x00, 0x00, 0x00, 0xff, 0xff, 0xff, 0xff, 0x0c, 0x00, 0x00, 0x00,
  0x01, 0x00, 0x00, 0x00, 0x10, 0x00, 0x00, 0x00, 0x00, 0xfb, 0xff, 0xff,
  0x7a, 0x00, 0x00, 0x00, 0x73, 0x65, 0x71, 0x75, 0x65, 0x6e, 0x74, 0x69,
  0x61, 0x6c, 0x2f, 0x63, 0x6f, 0x6e, 0x76, 0x32, 0x64, 0x5f, 0x31, 0x2f,
  0x52, 0x65, 0x6c, 0x75, 0x3b, 0x73, 0x65, 0x71, 0x75, 0x65, 0x6e, 0x74,
  0x69, 0x61, 0x6c, 0x2f, 0x63, 0x6f, 0x6e, 0x76, 0x32, 0x64, 0x5f, 0x31,
  0x2f, 0x42, 0x69, 0x61, 0x73, 0x41, 0x64, 0x64, 0x3b, 0x73, 0x65, 0x71,
  0x75, 0x65, 0x6e, 0x74, 0x69, 0x61, 0x6c, 0x2f, 0x63, 0x6f, 0x6e, 0x76,
  0x32, 0x64, 0x5f, 0x31, 0x2f, 0x43, 0x6f, 0x6e, 0x76, 0x32, 0x44, 0x3b,
  0x73, 0x65, 0x71, 0x75, 0x65, 0x6e, 0x74, 0x69, 0x61, 0x6c, 0x2f, 0x63,
  0x6f, 0x6e, 0x76, 0x32, 0x64, 0x5f, 0x31, 0x2f, 0x42, 0x69, 0x61, 0x73,
  0x41, 0x64, 0x64, 0x2f, 0x52, 0x65, 0x61, 0x64, 0x56, 0x61, 0x72, 0x69,
  0x61, 0x62, 0x6c, 0x65, 0x4f, 0x70, 0x00, 0x00, 0x04, 0x00, 0x00, 0x00,
  0x01, 0x00, 0x00, 0x00, 0x0c, 0x00, 0x00, 0x00, 0x01, 0x00, 0x00, 0x00,
  0x10, 0x00, 0x00, 0x00, 0xde, 0xfb, 0xff, 0xff, 0x00, 0x00, 0x00, 0x01,
  0x14, 0x00, 0x00, 0x00, 0x24, 0x00, 0x00, 0x00, 0x24, 0x00, 0x00, 0x00,
  0x0c, 0x00, 0x00, 0x00, 0x44, 0x00, 0x00, 0x00, 0x04, 0x00, 0x00, 0x00,
  0xff, 0xff, 0xff, 0xff, 0x0e, 0x00, 0x00, 0x00, 0x01, 0x00, 0x00, 0x00,
  0x08, 0x00, 0x00, 0x00, 0xc8, 0xfb, 0xff, 0xff, 0x20, 0x00, 0x00, 0x00,
  0x73, 0x65, 0x71, 0x75, 0x65, 0x6e, 0x74, 0x69, 0x61, 0x6c, 0x2f, 0x6d,
  0x61, 0x78, 0x5f, 0x70, 0x6f, 0x6f, 0x6c, 0x69, 0x6e, 0x67, 0x32, 0x64,
  0x2f, 0x4d, 0x61, 0x78, 0x50, 0x6f, 0x6f, 0x6c, 0x00, 0x00, 0x00, 0x00,
  0x04, 0x00, 0x00, 0x00, 0x01, 0x00, 0x00, 0x00, 0x0e, 0x00, 0x00, 0x00,
  0x01, 0x00, 0x00, 0x00, 0x08, 0x00, 0x00, 0x00, 0x4e, 0xfc, 0xff, 0xff,
  0x00, 0x00, 0x00, 0x01, 0x14, 0x00, 0x00, 0x00, 0x24, 0x00, 0x00, 0x00,
  0x24, 0x00, 0x00, 0x00, 0x0b, 0x00, 0x00, 0x00, 0x94, 0x00, 0x00, 0x00,
  0x04, 0x00, 0x00, 0x00, 0xff, 0xff, 0xff, 0xff, 0x1c, 0x00, 0x00, 0x00,
  0x01, 0x00, 0x00, 0x00, 0x08, 0x00, 0x00, 0x00, 0x38, 0xfc, 0xff, 0xff,
  0x72, 0x00, 0x00, 0x00, 0x73, 0x65, 0x71, 0x75, 0x65, 0x6e, 0x74, 0x69,
  0x61, 0x6c, 0x2f, 0x63, 0x6f, 0x6e, 0x76, 0x32, 0x64, 0x2f, 0x52, 0x65,
  0x6c, 0x75, 0x3b, 0x73, 0x65, 0x71, 0x75, 0x65, 0x6e, 0x74, 0x69, 0x61,
  0x6c, 0x2f, 0x63, 0x6f, 0x6e, 0x76, 0x32, 0x64, 0x2f, 0x42, 0x69, 0x61,
  0x73, 0x41, 0x64, 0x64, 0x3b, 0x73, 0x65, 0x71, 0x75, 0x65, 0x6e, 0x74,
  0x69, 0x61, 0x6c, 0x2f, 0x63, 0x6f, 0x6e, 0x76, 0x32, 0x64, 0x2f, 0x43,
  0x6f, 0x6e, 0x76, 0x32, 0x44, 0x3b, 0x73, 0x65, 0x71, 0x75, 0x65, 0x6e,
  0x74, 0x69, 0x61, 0x6c, 0x2f, 0x63, 0x6f, 0x6e, 0x76, 0x32, 0x64, 0x2f,
  0x42, 0x69, 0x61, 0x73, 0x41, 0x64, 0x64, 0x2f, 0x52, 0x65, 0x61, 0x64,
  0x56, 0x61, 0x72, 0x69, 0x61, 0x62, 0x6c, 0x65, 0x4f, 0x70, 0x00, 0x00,
  0x04, 0x00, 0x00, 0x00, 0x01, 0x00, 0x00, 0x00, 0x1c, 0x00, 0x00, 0x00,
  0x01, 0x00, 0x00, 0x00, 0x08, 0x00, 0x00, 0x00, 0x7a, 0xfd, 0xff, 0xff,
  0x00, 0x00, 0x00, 0x01, 0x10, 0x00, 0x00, 0x00, 0x10, 0x00, 0x00, 0x00,
  0x0a, 0x00, 0x00, 0x00, 0x28, 0x00, 0x00, 0x00, 0xe0, 0xfc, 0xff, 0xff,
  0x19, 0x00, 0x00, 0x00, 0x73, 0x65, 0x71, 0x75, 0x65, 0x6e, 0x74, 0x69,
  0x61, 0x6c, 0x2f, 0x64, 0x65, 0x6e, 0x73, 0x65, 0x5f, 0x31, 0x2f, 0x4d,
  0x61, 0x74, 0x4d, 0x75, 0x6c, 0x00, 0x00, 0x00, 0x02, 0x00, 0x00, 0x00,
  0x01, 0x00, 0x00, 0x00, 0x08, 0x00, 0x00, 0x00, 0xc2, 0xfd, 0xff, 0xff,
  0x00, 0x00, 0x00, 0x01, 0x10, 0x00, 0x00, 0x00, 0x10, 0x00, 0x00, 0x00,
  0x09, 0x00, 0x00, 0x00, 0x24, 0x00, 0x00, 0x00, 0x28, 0xfd, 0xff, 0xff,
  0x17, 0x00, 0x00, 0x00, 0x73, 0x65, 0x71, 0x75, 0x65, 0x6e, 0x74, 0x69,
  0x61, 0x6c, 0x2f, 0x64, 0x65, 0x6e, 0x73, 0x65, 0x2f, 0x4d, 0x61, 0x74,
  0x4d, 0x75, 0x6c, 0x00, 0x02, 0x00, 0x00, 0x00, 0x08, 0x00, 0x00, 0x00,
  0x60, 0x00, 0x00, 0x00, 0x00, 0x00, 0x16, 0x00, 0x1c, 0x00, 0x18, 0x00,
  0x17, 0x00, 0x10, 0x00, 0x0c, 0x00, 0x08, 0x00, 0x00, 0x00, 0x00, 0x00,
  0x00, 0x00, 0x07, 0x00, 0x16, 0x00, 0x00, 0x00, 0x00, 0x00, 0x00, 0x01,
  0x14, 0x00, 0x00, 0x00, 0x14, 0x00, 0x00, 0x00, 0x08, 0x00, 0x00, 0x00,
  0x00, 0x00, 0x00, 0x02, 0x28, 0x00, 0x00, 0x00, 0x88, 0xfd, 0xff, 0xff,
  0x18, 0x00, 0x00, 0x00, 0x73, 0x65, 0x71, 0x75, 0x65, 0x6e, 0x74, 0x69,
  0x61, 0x6c, 0x2f, 0x66, 0x6c, 0x61, 0x74, 0x74, 0x65, 0x6e, 0x2f, 0x43,
  0x6f, 0x6e, 0x73, 0x74, 0x00, 0x00, 0x00, 0x00, 0x01, 0x00, 0x00, 0x00,
  0x02, 0x00, 0x00, 0x00, 0x66, 0xfe, 0xff, 0xff, 0x00, 0x00, 0x00, 0x01,
  0x10, 0x00, 0x00, 0x00, 0x10, 0x00, 0x00, 0x00, 0x07, 0x00, 0x00, 0x00,
  0x38, 0x00, 0x00, 0x00, 0xcc, 0xfd, 0xff, 0xff, 0x29, 0x00, 0x00, 0x00,
  0x73, 0x65, 0x71, 0x75, 0x65, 0x6e, 0x74, 0x69, 0x61, 0x6c, 0x2f, 0x64,
  0x65, 0x6e, 0x73, 0x65, 0x5f, 0x31, 0x2f, 0x42, 0x69, 0x61, 0x73, 0x41,
  0x64, 0x64, 0x2f, 0x52, 0x65, 0x61, 0x64, 0x56, 0x61, 0x72, 0x69, 0x61,
  0x62, 0x6c, 0x65, 0x4f, 0x70, 0x00, 0x00, 0x00, 0x01, 0x00, 0x00, 0x00,
  0x01, 0x00, 0x00, 0x00, 0xba, 0xfe, 0xff, 0xff, 0x00, 0x00, 0x00, 0x01,
  0x10, 0x00, 0x00, 0x00, 0x10, 0x00, 0x00, 0x00, 0x06, 0x00, 0x00, 0x00,
  0x34, 0x00, 0x00, 0x00, 0x20, 0xfe, 0xff, 0xff, 0x27, 0x00, 0x00, 0x00,
  0x73, 0x65, 0x71, 0x75, 0x65, 0x6e, 0x74, 0x69, 0x61, 0x6c, 0x2f, 0x64,
  0x65, 0x6e, 0x73, 0x65, 0x2f, 0x42, 0x69, 0x61, 0x73, 0x41, 0x64, 0x64,
  0x2f, 0x52, 0x65, 0x61, 0x64, 0x56, 0x61, 0x72, 0x69, 0x61, 0x62, 0x6c,
  0x65, 0x4f, 0x70, 0x00, 0x01, 0x00, 0x00, 0x00, 0x08, 0x00, 0x00, 0x00,
  0x0a, 0xff, 0xff, 0xff, 0x00, 0x00, 0x00, 0x01, 0x10, 0x00, 0x00, 0x00,
  0x10, 0x00, 0x00, 0x00, 0x05, 0x00, 0x00, 0x00, 0x28, 0x00, 0x00, 0x00,
  0x70, 0xfe, 0xff, 0xff, 0x1a, 0x00, 0x00, 0x00, 0x73, 0x65, 0x71, 0x75,
  0x65, 0x6e, 0x74, 0x69, 0x61, 0x6c, 0x2f, 0x63, 0x6f, 0x6e, 0x76, 0x32,
  0x64, 0x5f, 0x31, 0x2f, 0x43, 0x6f, 0x6e, 0x76, 0x32, 0x44, 0x00, 0x00,
  0x04, 0x00, 0x00, 0x00, 0x10, 0x00, 0x00, 0x00, 0x03, 0x00, 0x00, 0x00,
  0x01, 0x00, 0x00, 0x00, 0x08, 0x00, 0x00, 0x00, 0x5a, 0xff, 0xff, 0xff,
  0x00, 0x00, 0x00, 0x01, 0x10, 0x00, 0x00, 0x00, 0x10, 0x00, 0x00, 0x00,
  0x04, 0x00, 0x00, 0x00, 0x28, 0x00, 0x00, 0x00, 0xc0, 0xfe, 0xff, 0xff,
  0x18, 0x00, 0x00, 0x00, 0x73, 0x65, 0x71, 0x75, 0x65, 0x6e, 0x74, 0x69,
  0x61, 0x6c, 0x2f, 0x63, 0x6f, 0x6e, 0x76, 0x32, 0x64, 0x2f, 0x43, 0x6f,
  0x6e, 0x76, 0x32, 0x44, 0x00, 0x00, 0x00, 0x00, 0x04, 0x00, 0x00, 0x00,
  0x08, 0x00, 0x00, 0x00, 0x03, 0x00, 0x00, 0x00, 0x01, 0x00, 0x00, 0x00,
  0x01, 0x00, 0x00, 0x00, 0xaa, 0xff, 0xff, 0xff, 0x00, 0x00, 0x00, 0x01,
  0x10, 0x00, 0x00, 0x00, 0x10, 0x00, 0x00, 0x00, 0x03, 0x00, 0x00, 0x00,
  0x38, 0x00, 0x00, 0x00, 0x10, 0xff, 0xff, 0xff, 0x2a, 0x00, 0x00, 0x00,
  0x73, 0x65, 0x71, 0x75, 0x65, 0x6e, 0x74, 0x69, 0x61, 0x6c, 0x2f, 0x63,
  0x6f, 0x6e, 0x76, 0x32, 0x64, 0x5f, 0x31, 0x2f, 0x42, 0x69, 0x61, 0x73,
  0x41, 0x64, 0x64, 0x2f, 0x52, 0x65, 0x61, 0x64, 0x56, 0x61, 0x72, 0x69,
  0x61, 0x62, 0x6c, 0x65, 0x4f, 0x70, 0x00, 0x00, 0x01, 0x00, 0x00, 0x00,
  0x10, 0x00, 0x00, 0x00, 0x00, 0x00, 0x16, 0x00, 0x18, 0x00, 0x14, 0x00,
  0x00, 0x00, 0x10, 0x00, 0x0c, 0x00, 0x08, 0x00, 0x00, 0x00, 0x00, 0x00,
  0x00, 0x00, 0x07, 0x00, 0x16, 0x00, 0x00, 0x00, 0x00, 0x00, 0x00, 0x01,
  0x10, 0x00, 0x00, 0x00, 0x10, 0x00, 0x00, 0x00, 0x02, 0x00, 0x00, 0x00,
  0x38, 0x00, 0x00, 0x00, 0x7c, 0xff, 0xff, 0xff, 0x28, 0x00, 0x00, 0x00,
  0x73, 0x65, 0x71, 0x75, 0x65, 0x6e, 0x74, 0x69, 0x61, 0x6c, 0x2f, 0x63,
  0x6f, 0x6e, 0x76, 0x32, 0x64, 0x2f, 0x42, 0x69, 0x61, 0x73, 0x41, 0x64,
  0x64, 0x2f, 0x52, 0x65, 0x61, 0x64, 0x56, 0x61, 0x72, 0x69, 0x61, 0x62,
  0x6c, 0x65, 0x4f, 0x70, 0x00, 0x00, 0x00, 0x00, 0x01, 0x00, 0x00, 0x00,
  0x08, 0x00, 0x00, 0x00, 0x00, 0x00, 0x16, 0x00, 0x1c, 0x00, 0x18, 0x00,
  0x00, 0x00, 0x14, 0x00, 0x10, 0x00, 0x0c, 0x00, 0x00, 0x00, 0x00, 0x00,
  0x08, 0x00, 0x07, 0x00, 0x16, 0x00, 0x00, 0x00, 0x00, 0x00, 0x00, 0x01,
  0x14, 0x00, 0x00, 0x00, 0x28, 0x00, 0x00, 0x00, 0x28, 0x00, 0x00, 0x00,
  0x01, 0x00, 0x00, 0x00, 0x44, 0x00, 0x00, 0x00, 0x04, 0x00, 0x00, 0x00,
  0xff, 0xff, 0xff, 0xff, 0x1e, 0x00, 0x00, 0x00, 0x01, 0x00, 0x00, 0x00,
  0x01, 0x00, 0x00, 0x00, 0x04, 0x00, 0x04, 0x00, 0x04, 0x00, 0x00, 0x00,
  0x1e, 0x00, 0x00, 0x00, 0x73, 0x65, 0x72, 0x76, 0x69, 0x6e, 0x67, 0x5f,
  0x64, 0x65, 0x66, 0x61, 0x75, 0x6c, 0x74, 0x5f, 0x63, 0x6f, 0x6e, 0x76,
  0x32, 0x64, 0x5f, 0x69, 0x6e, 0x70, 0x75, 0x74, 0x3a, 0x30, 0x00, 0x00,
  0x04, 0x00, 0x00, 0x00, 0x01, 0x00, 0x00, 0x00, 0x1e, 0x00, 0x00, 0x00,
  0x01, 0x00, 0x00, 0x00, 0x01, 0x00, 0x00, 0x00, 0x05, 0x00, 0x00, 0x00,
  0x50, 0x00, 0x00, 0x00, 0x34, 0x00, 0x00, 0x00, 0x24, 0x00, 0x00, 0x00,
  0x14, 0x00, 0x00, 0x00, 0x04, 0x00, 0x00, 0x00, 0xd0, 0xff, 0xff, 0xff,
  0x0e, 0x00, 0x00, 0x00, 0x00, 0x00, 0x00, 0x0e, 0xdc, 0xff, 0xff, 0xff,
  0x09, 0x00, 0x00, 0x00, 0x00, 0x00, 0x00, 0x09, 0xe8, 0xff, 0xff, 0xff,
  0x16, 0x00, 0x00, 0x00, 0x00, 0x00, 0x00, 0x16, 0xf4, 0xff, 0xff, 0xff,
  0x11, 0x00, 0x00, 0x00, 0x00, 0x00, 0x00, 0x11, 0x0c, 0x00, 0x0c, 0x00,
  0x0b, 0x00, 0x00, 0x00, 0x00, 0x00, 0x04, 0x00, 0x0c, 0x00, 0x00, 0x00,
  0x03, 0x00, 0x00, 0x00, 0x00, 0x00, 0x00, 0x03
};
unsigned int model_tflite_len_2 = 8252;
