unsigned char generated_quant_model_tflite[] = {
  0x1c, 0x00, 0x00, 0x00, 0x54, 0x46, 0x4c, 0x33, 0x14, 0x00, 0x20, 0x00,
  0x04, 0x00, 0x08, 0x00, 0x0c, 0x00, 0x10, 0x00, 0x14, 0x00, 0x00, 0x00,
  0x18, 0x00, 0x1c, 0x00, 0x14, 0x00, 0x00, 0x00, 0x03, 0x00, 0x00, 0x00,
  0x18, 0x00, 0x00, 0x00, 0x34, 0x00, 0x00, 0x00, 0x6c, 0x01, 0x00, 0x00,
  0x34, 0x00, 0x00, 0x00, 0x14, 0x01, 0x00, 0x00, 0x90, 0x00, 0x00, 0x00,
  0x07, 0x00, 0x00, 0x00, 0x54, 0x0a, 0x00, 0x00, 0x6c, 0x09, 0x00, 0x00,
  0xec, 0x05, 0x00, 0x00, 0x20, 0x05, 0x00, 0x00, 0x5c, 0x04, 0x00, 0x00,
  0xd8, 0x02, 0x00, 0x00, 0x40, 0x02, 0x00, 0x00, 0x01, 0x00, 0x00, 0x00,
  0x5c, 0x01, 0x00, 0x00, 0x18, 0x00, 0x00, 0x00, 0x94, 0x1a, 0x00, 0x00,
  0x90, 0x1a, 0x00, 0x00, 0xb4, 0x19, 0x00, 0x00, 0x6c, 0x15, 0x00, 0x00,
  0xcc, 0x14, 0x00, 0x00, 0xc4, 0x11, 0x00, 0x00, 0xa0, 0x10, 0x00, 0x00,
  0x98, 0x0d, 0x00, 0x00, 0xb0, 0x0c, 0x00, 0x00, 0x1c, 0x0c, 0x00, 0x00,
  0x88, 0x0b, 0x00, 0x00, 0xf4, 0x0a, 0x00, 0x00, 0x88, 0x0a, 0x00, 0x00,
  0x60, 0x1a, 0x00, 0x00, 0x5c, 0x1a, 0x00, 0x00, 0x58, 0x1a, 0x00, 0x00,
  0x54, 0x1a, 0x00, 0x00, 0x50, 0x1a, 0x00, 0x00, 0x4c, 0x1a, 0x00, 0x00,
  0x48, 0x1a, 0x00, 0x00, 0x44, 0x1a, 0x00, 0x00, 0x40, 0x1a, 0x00, 0x00,
  0x3c, 0x1a, 0x00, 0x00, 0xb8, 0x00, 0x00, 0x00, 0x01, 0x00, 0x00, 0x00,
  0x10, 0x00, 0x00, 0x00, 0x00, 0x00, 0x0a, 0x00, 0x10, 0x00, 0x0c, 0x00,
  0x08, 0x00, 0x04, 0x00, 0x0a, 0x00, 0x00, 0x00, 0x0c, 0x00, 0x00, 0x00,
  0x1c, 0x00, 0x00, 0x00, 0x20, 0x00, 0x00, 0x00, 0x0f, 0x00, 0x00, 0x00,
  0x73, 0x65, 0x72, 0x76, 0x69, 0x6e, 0x67, 0x5f, 0x64, 0x65, 0x66, 0x61,
  0x75, 0x6c, 0x74, 0x00, 0x01, 0x00, 0x00, 0x00, 0x14, 0x00, 0x00, 0x00,
  0x01, 0x00, 0x00, 0x00, 0x24, 0x00, 0x00, 0x00, 0x08, 0x00, 0x0c, 0x00,
  0x08, 0x00, 0x04, 0x00, 0x08, 0x00, 0x00, 0x00, 0x15, 0x00, 0x00, 0x00,
  0x04, 0x00, 0x00, 0x00, 0x07, 0x00, 0x00, 0x00, 0x64, 0x65, 0x6e, 0x73,
  0x65, 0x5f, 0x33, 0x00, 0x12, 0xe7, 0xff, 0xff, 0x04, 0x00, 0x00, 0x00,
  0x0b, 0x00, 0x00, 0x00, 0x64, 0x65, 0x6e, 0x73, 0x65, 0x5f, 0x69, 0x6e,
  0x70, 0x75, 0x74, 0x00, 0x01, 0x00, 0x00, 0x00, 0x0c, 0x00, 0x00, 0x00,
  0x08, 0x00, 0x0c, 0x00, 0x04, 0x00, 0x08, 0x00, 0x08, 0x00, 0x00, 0x00,
  0x08, 0x00, 0x00, 0x00, 0x17, 0x00, 0x00, 0x00, 0x13, 0x00, 0x00, 0x00,
  0x6d, 0x69, 0x6e, 0x5f, 0x72, 0x75, 0x6e, 0x74, 0x69, 0x6d, 0x65, 0x5f,
  0x76, 0x65, 0x72, 0x73, 0x69, 0x6f, 0x6e, 0x00, 0x5e, 0xe7, 0xff, 0xff,
  0x04, 0x00, 0x00, 0x00, 0x10, 0x00, 0x00, 0x00, 0x31, 0x2e, 0x31, 0x34,
  0x2e, 0x30, 0x00, 0x00, 0x00, 0x00, 0x00, 0x00, 0x00, 0x00, 0x00, 0x00,
  0x0f, 0x00, 0x00, 0x00, 0x4d, 0x4c, 0x49, 0x52, 0x20, 0x43, 0x6f, 0x6e,
  0x76, 0x65, 0x72, 0x74, 0x65, 0x64, 0x2e, 0x00, 0x00, 0x00, 0x0e, 0x00,
  0x18, 0x00, 0x04, 0x00, 0x08, 0x00, 0x0c, 0x00, 0x10, 0x00, 0x14, 0x00,
  0x0e, 0x00, 0x00, 0x00, 0x14, 0x00, 0x00, 0x00, 0x6c, 0x00, 0x00, 0x00,
  0x70, 0x00, 0x00, 0x00, 0x74, 0x00, 0x00, 0x00, 0x9c, 0x00, 0x00, 0x00,
  0x16, 0x00, 0x00, 0x00, 0xc8, 0x18, 0x00, 0x00, 0x6c, 0x18, 0x00, 0x00,
  0xcc, 0x17, 0x00, 0x00, 0xac, 0x13, 0x00, 0x00, 0x64, 0x12, 0x00, 0x00,
  0xc0, 0x0f, 0x00, 0x00, 0x38, 0x0e, 0x00, 0x00, 0x90, 0x0b, 0x00, 0x00,
  0xcc, 0x0a, 0x00, 0x00, 0x38, 0x0a, 0x00, 0x00, 0xb4, 0x09, 0x00, 0x00,
  0x30, 0x09, 0x00, 0x00, 0xb0, 0x08, 0x00, 0x00, 0xb4, 0x07, 0x00, 0x00,
  0x4c, 0x06, 0x00, 0x00, 0xf4, 0x04, 0x00, 0x00, 0x2c, 0x04, 0x00, 0x00,
  0x58, 0x03, 0x00, 0x00, 0x9c, 0x02, 0x00, 0x00, 0xc4, 0x01, 0x00, 0x00,
  0x14, 0x01, 0x00, 0x00, 0x7c, 0x00, 0x00, 0x00, 0x01, 0x00, 0x00, 0x00,
  0x00, 0x00, 0x00, 0x00, 0x01, 0x00, 0x00, 0x00, 0x15, 0x00, 0x00, 0x00,
  0x0a, 0x00, 0x00, 0x00, 0x28, 0x08, 0x00, 0x00, 0x28, 0x07, 0x00, 0x00,
  0xd8, 0x05, 0x00, 0x00, 0x80, 0x04, 0x00, 0x00, 0xb0, 0x03, 0x00, 0x00,
  0xd8, 0x02, 0x00, 0x00, 0x2c, 0x02, 0x00, 0x00, 0x54, 0x01, 0x00, 0x00,
  0x98, 0x00, 0x00, 0x00, 0x10, 0x00, 0x00, 0x00, 0x04, 0x00, 0x00, 0x00,
  0x6d, 0x61, 0x69, 0x6e, 0x00, 0x00, 0x00, 0x00, 0xfa, 0xfd, 0xff, 0xff,
  0x06, 0x00, 0x00, 0x00, 0x10, 0x00, 0x00, 0x00, 0x04, 0x00, 0x00, 0x00,
  0x01, 0x00, 0x00, 0x00, 0x15, 0x00, 0x00, 0x00, 0x01, 0x00, 0x00, 0x00,
  0x14, 0x00, 0x00, 0x00, 0x10, 0xf8, 0xff, 0xff, 0x06, 0x00, 0x00, 0x00,
  0x00, 0x00, 0x00, 0x06, 0x02, 0x00, 0x00, 0x00, 0x1c, 0xe8, 0xff, 0xff,
  0x14, 0x00, 0x00, 0x00, 0x16, 0x00, 0x00, 0x00, 0x18, 0x00, 0x00, 0x00,
  0x40, 0x00, 0x00, 0x00, 0x30, 0x00, 0x00, 0x00, 0x02, 0x00, 0x00, 0x00,
  0x01, 0x00, 0x00, 0x00, 0x02, 0x00, 0x00, 0x00, 0x19, 0x00, 0x00, 0x00,
  0x53, 0x74, 0x61, 0x74, 0x65, 0x66, 0x75, 0x6c, 0x50, 0x61, 0x72, 0x74,
  0x69, 0x74, 0x69, 0x6f, 0x6e, 0x65, 0x64, 0x43, 0x61, 0x6c, 0x6c, 0x3a,
  0x30, 0x00, 0x00, 0x00, 0x02, 0x00, 0x00, 0x00, 0xff, 0xff, 0xff, 0xff,
  0x02, 0x00, 0x00, 0x00, 0x00, 0xe8, 0xff, 0xff, 0xe6, 0xfa, 0xff, 0xff,
  0x00, 0x00, 0x00, 0x09, 0x05, 0x00, 0x00, 0x00, 0x1c, 0x00, 0x00, 0x00,
  0x10, 0x00, 0x00, 0x00, 0x04, 0x00, 0x00, 0x00, 0xf6, 0xe8, 0xff, 0xff,
  0x00, 0x00, 0x80, 0x3f, 0x01, 0x00, 0x00, 0x00, 0x14, 0x00, 0x00, 0x00,
  0x01, 0x00, 0x00, 0x00, 0x13, 0x00, 0x00, 0x00, 0xa4, 0xf8, 0xff, 0xff,
  0x19, 0x00, 0x00, 0x00, 0x00, 0x00, 0x00, 0x19, 0x02, 0x00, 0x00, 0x00,
  0x98, 0xf8, 0xff, 0xff, 0x00, 0x00, 0x00, 0x09, 0x14, 0x00, 0x00, 0x00,
  0x15, 0x00, 0x00, 0x00, 0x18, 0x00, 0x00, 0x00, 0x40, 0x00, 0x00, 0x00,
  0x30, 0x00, 0x00, 0x00, 0x02, 0x00, 0x00, 0x00, 0x01, 0x00, 0x00, 0x00,
  0x02, 0x00, 0x00, 0x00, 0x1a, 0x00, 0x00, 0x00, 0x53, 0x74, 0x61, 0x74,
  0x65, 0x66, 0x75, 0x6c, 0x50, 0x61, 0x72, 0x74, 0x69, 0x74, 0x69, 0x6f,
  0x6e, 0x65, 0x64, 0x43, 0x61, 0x6c, 0x6c, 0x3a, 0x30, 0x31, 0x00, 0x00,
  0x02, 0x00, 0x00, 0x00, 0xff, 0xff, 0xff, 0xff, 0x02, 0x00, 0x00, 0x00,
  0xa4, 0xe9, 0xff, 0xff, 0x08, 0x00, 0x00, 0x00, 0x0c, 0x00, 0x00, 0x00,
  0x01, 0x00, 0x00, 0x00, 0x00, 0x00, 0x80, 0x3b, 0x01, 0x00, 0x00, 0x00,
  0x80, 0xff, 0xff, 0xff, 0xff, 0xff, 0xff, 0xff, 0x00, 0x00, 0x00, 0x00,
  0x9e, 0xfb, 0xff, 0xff, 0x00, 0x00, 0x00, 0x08, 0x01, 0x00, 0x00, 0x00,
  0x18, 0x00, 0x00, 0x00, 0x0c, 0x00, 0x00, 0x00, 0x04, 0x00, 0x00, 0x00,
  0xd4, 0xe8, 0xff, 0xff, 0x01, 0x00, 0x00, 0x00, 0x13, 0x00, 0x00, 0x00,
  0x03, 0x00, 0x00, 0x00, 0x12, 0x00, 0x00, 0x00, 0x0a, 0x00, 0x00, 0x00,
  0x0b, 0x00, 0x00, 0x00, 0x44, 0xf9, 0xff, 0xff, 0x00, 0x00, 0x00, 0x09,
  0x14, 0x00, 0x00, 0x00, 0x14, 0x00, 0x00, 0x00, 0x18, 0x00, 0x00, 0x00,
  0x5c, 0x00, 0x00, 0x00, 0x4c, 0x00, 0x00, 0x00, 0x02, 0x00, 0x00, 0x00,
  0x01, 0x00, 0x00, 0x00, 0x02, 0x00, 0x00, 0x00, 0x34, 0x00, 0x00, 0x00,
  0x73, 0x65, 0x71, 0x75, 0x65, 0x6e, 0x74, 0x69, 0x61, 0x6c, 0x2f, 0x64,
  0x65, 0x6e, 0x73, 0x65, 0x5f, 0x33, 0x2f, 0x4d, 0x61, 0x74, 0x4d, 0x75,
  0x6c, 0x3b, 0x73, 0x65, 0x71, 0x75, 0x65, 0x6e, 0x74, 0x69, 0x61, 0x6c,
  0x2f, 0x64, 0x65, 0x6e, 0x73, 0x65, 0x5f, 0x33, 0x2f, 0x42, 0x69, 0x61,
  0x73, 0x41, 0x64, 0x64, 0x00, 0x00, 0x00, 0x00, 0x02, 0x00, 0x00, 0x00,
  0xff, 0xff, 0xff, 0xff, 0x02, 0x00, 0x00, 0x00, 0x6c, 0xea, 0xff, 0xff,
  0x08, 0x00, 0x00, 0x00, 0x0c, 0x00, 0x00, 0x00, 0x01, 0x00, 0x00, 0x00,
  0x40, 0xf3, 0x32, 0x3d, 0x01, 0x00, 0x00, 0x00, 0xf3, 0xff, 0xff, 0xff,
  0xff, 0xff, 0xff, 0xff, 0x00, 0x00, 0x00, 0x00, 0x00, 0x00, 0x0a, 0x00,
  0x10, 0x00, 0x04, 0x00, 0x08, 0x00, 0x0c, 0x00, 0x0a, 0x00, 0x00, 0x00,
  0x04, 0x00, 0x00, 0x00, 0x10, 0x00, 0x00, 0x00, 0x04, 0x00, 0x00, 0x00,
  0x01, 0x00, 0x00, 0x00, 0x12, 0x00, 0x00, 0x00, 0x02, 0x00, 0x00, 0x00,
  0x11, 0x00, 0x00, 0x00, 0x01, 0x00, 0x00, 0x00, 0x24, 0xfa, 0xff, 0xff,
  0x16, 0x00, 0x00, 0x00, 0x00, 0x00, 0x00, 0x16, 0x01, 0x00, 0x00, 0x00,
  0x18, 0xfa, 0xff, 0xff, 0x00, 0x00, 0x00, 0x09, 0x14, 0x00, 0x00, 0x00,
  0x13, 0x00, 0x00, 0x00, 0x18, 0x00, 0x00, 0x00, 0x40, 0x00, 0x00, 0x00,
  0x30, 0x00, 0x00, 0x00, 0x02, 0x00, 0x00, 0x00, 0x01, 0x00, 0x00, 0x00,
  0x10, 0x00, 0x00, 0x00, 0x1a, 0x00, 0x00, 0x00, 0x73, 0x65, 0x71, 0x75,
  0x65, 0x6e, 0x74, 0x69, 0x61, 0x6c, 0x2f, 0x66, 0x6c, 0x61, 0x74, 0x74,
  0x65, 0x6e, 0x2f, 0x52, 0x65, 0x73, 0x68, 0x61, 0x70, 0x65, 0x00, 0x00,
  0x02, 0x00, 0x00, 0x00, 0xff, 0xff, 0xff, 0xff, 0x10, 0x00, 0x00, 0x00,
  0x24, 0xeb, 0xff, 0xff, 0x08, 0x00, 0x00, 0x00, 0x0c, 0x00, 0x00, 0x00,
  0x01, 0x00, 0x00, 0x00, 0xe1, 0x6a, 0xd5, 0x3c, 0x01, 0x00, 0x00, 0x00,
  0xb1, 0xff, 0xff, 0xff, 0xff, 0xff, 0xff, 0xff, 0x1a, 0xfd, 0xff, 0xff,
  0x00, 0x00, 0x00, 0x0b, 0x03, 0x00, 0x00, 0x00, 0x18, 0x00, 0x00, 0x00,
  0x0c, 0x00, 0x00, 0x00, 0x04, 0x00, 0x00, 0x00, 0x50, 0xea, 0xff, 0xff,
  0x01, 0x00, 0x00, 0x00, 0x11, 0x00, 0x00, 0x00, 0x02, 0x00, 0x00, 0x00,
  0x10, 0x00, 0x00, 0x00, 0x09, 0x00, 0x00, 0x00, 0x00, 0x00, 0x0a, 0x00,
  0x08, 0x00, 0x00, 0x00, 0x00, 0x00, 0x04, 0x00, 0x0a, 0x00, 0x00, 0x00,
  0x02, 0x00, 0x00, 0x00, 0xd0, 0xfa, 0xff, 0xff, 0x00, 0x00, 0x00, 0x09,
  0x14, 0x00, 0x00, 0x00, 0x12, 0x00, 0x00, 0x00, 0x18, 0x00, 0x00, 0x00,
  0x58, 0x00, 0x00, 0x00, 0x48, 0x00, 0x00, 0x00, 0x02, 0x00, 0x00, 0x00,
  0x01, 0x00, 0x00, 0x00, 0x10, 0x00, 0x00, 0x00, 0x30, 0x00, 0x00, 0x00,
  0x73, 0x65, 0x71, 0x75, 0x65, 0x6e, 0x74, 0x69, 0x61, 0x6c, 0x2f, 0x62,
  0x61, 0x74, 0x63, 0x68, 0x5f, 0x6e, 0x6f, 0x72, 0x6d, 0x61, 0x6c, 0x69,
  0x7a, 0x61, 0x74, 0x69, 0x6f, 0x6e, 0x5f, 0x32, 0x2f, 0x62, 0x61, 0x74,
  0x63, 0x68, 0x6e, 0x6f, 0x72, 0x6d, 0x2f, 0x61, 0x64, 0x64, 0x5f, 0x31,
  0x00, 0x00, 0x00, 0x00, 0x02, 0x00, 0x00, 0x00, 0xff, 0xff, 0xff, 0xff,
  0x10, 0x00, 0x00, 0x00, 0xf4, 0xeb, 0xff, 0xff, 0x08, 0x00, 0x00, 0x00,
  0x0c, 0x00, 0x00, 0x00, 0x01, 0x00, 0x00, 0x00, 0xe1, 0x6a, 0xd5, 0x3c,
  0x01, 0x00, 0x00, 0x00, 0xb1, 0xff, 0xff, 0xff, 0xff, 0xff, 0xff, 0xff,
  0x00, 0x00, 0x00, 0x00, 0xee, 0xfd, 0xff, 0xff, 0x00, 0x00, 0x00, 0x15,
  0x02, 0x00, 0x00, 0x00, 0x18, 0x00, 0x00, 0x00, 0x0c, 0x00, 0x00, 0x00,
  0x04, 0x00, 0x00, 0x00, 0x24, 0xeb, 0xff, 0xff, 0x01, 0x00, 0x00, 0x00,
  0x10, 0x00, 0x00, 0x00, 0x02, 0x00, 0x00, 0x00, 0x0f, 0x00, 0x00, 0x00,
  0x08, 0x00, 0x00, 0x00, 0xac, 0xfb, 0xff, 0xff, 0x12, 0x00, 0x00, 0x00,
  0x00, 0x00, 0x00, 0x12, 0x02, 0x00, 0x00, 0x00, 0xa0, 0xfb, 0xff, 0xff,
  0x00, 0x00, 0x00, 0x09, 0x14, 0x00, 0x00, 0x00, 0x11, 0x00, 0x00, 0x00,
  0x18, 0x00, 0x00, 0x00, 0x58, 0x00, 0x00, 0x00, 0x48, 0x00, 0x00, 0x00,
  0x02, 0x00, 0x00, 0x00, 0x01, 0x00, 0x00, 0x00, 0x10, 0x00, 0x00, 0x00,
  0x30, 0x00, 0x00, 0x00, 0x73, 0x65, 0x71, 0x75, 0x65, 0x6e, 0x74, 0x69,
  0x61, 0x6c, 0x2f, 0x62, 0x61, 0x74, 0x63, 0x68, 0x5f, 0x6e, 0x6f, 0x72,
  0x6d, 0x61, 0x6c, 0x69, 0x7a, 0x61, 0x74, 0x69, 0x6f, 0x6e, 0x5f, 0x32,
  0x2f, 0x62, 0x61, 0x74, 0x63, 0x68, 0x6e, 0x6f, 0x72, 0x6d, 0x2f, 0x6d,
  0x75, 0x6c, 0x5f, 0x31, 0x00, 0x00, 0x00, 0x00, 0x02, 0x00, 0x00, 0x00,
  0xff, 0xff, 0xff, 0xff, 0x10, 0x00, 0x00, 0x00, 0xc4, 0xec, 0xff, 0xff,
  0x08, 0x00, 0x00, 0x00, 0x0c, 0x00, 0x00, 0x00, 0x01, 0x00, 0x00, 0x00,
  0xfb, 0x60, 0xc4, 0x3c, 0x01, 0x00, 0x00, 0x00, 0x80, 0xff, 0xff, 0xff,
  0xff, 0xff, 0xff, 0xff, 0xba, 0xfe, 0xff, 0xff, 0x00, 0x00, 0x00, 0x08,
  0x01, 0x00, 0x00, 0x00, 0x1c, 0x00, 0x00, 0x00, 0x10, 0x00, 0x00, 0x00,
  0x04, 0x00, 0x00, 0x00, 0x5e, 0xfd, 0xff, 0xff, 0x00, 0x00, 0x00, 0x01,
  0x01, 0x00, 0x00, 0x00, 0x0f, 0x00, 0x00, 0x00, 0x03, 0x00, 0x00, 0x00,
  0x0e, 0x00, 0x00, 0x00, 0x06, 0x00, 0x00, 0x00, 0x07, 0x00, 0x00, 0x00,
  0x64, 0xfc, 0xff, 0xff, 0x00, 0x00, 0x00, 0x09, 0x14, 0x00, 0x00, 0x00,
  0x10, 0x00, 0x00, 0x00, 0x18, 0x00, 0x00, 0x00, 0xd4, 0x00, 0x00, 0x00,
  0xc4, 0x00, 0x00, 0x00, 0x02, 0x00, 0x00, 0x00, 0x01, 0x00, 0x00, 0x00,
  0x10, 0x00, 0x00, 0x00, 0xaf, 0x00, 0x00, 0x00, 0x73, 0x65, 0x71, 0x75,
  0x65, 0x6e, 0x74, 0x69, 0x61, 0x6c, 0x2f, 0x62, 0x61, 0x74, 0x63, 0x68,
  0x5f, 0x6e, 0x6f, 0x72, 0x6d, 0x61, 0x6c, 0x69, 0x7a, 0x61, 0x74, 0x69,
  0x6f, 0x6e, 0x5f, 0x31, 0x2f, 0x62, 0x61, 0x74, 0x63, 0x68, 0x6e, 0x6f,
  0x72, 0x6d, 0x2f, 0x6d, 0x75, 0x6c, 0x5f, 0x31, 0x3b, 0x73, 0x65, 0x71,
  0x75, 0x65, 0x6e, 0x74, 0x69, 0x61, 0x6c, 0x2f, 0x62, 0x61, 0x74, 0x63,
  0x68, 0x5f, 0x6e, 0x6f, 0x72, 0x6d, 0x61, 0x6c, 0x69, 0x7a, 0x61, 0x74,
  0x69, 0x6f, 0x6e, 0x5f, 0x31, 0x2f, 0x62, 0x61, 0x74, 0x63, 0x68, 0x6e,
  0x6f, 0x72, 0x6d, 0x2f, 0x61, 0x64, 0x64, 0x5f, 0x31, 0x3b, 0x73, 0x65,
  0x71, 0x75, 0x65, 0x6e, 0x74, 0x69, 0x61, 0x6c, 0x2f, 0x64, 0x65, 0x6e,
  0x73, 0x65, 0x5f, 0x32, 0x2f, 0x4d, 0x61, 0x74, 0x4d, 0x75, 0x6c, 0x3b,
  0x73, 0x65, 0x71, 0x75, 0x65, 0x6e, 0x74, 0x69, 0x61, 0x6c, 0x2f, 0x64,
  0x65, 0x6e, 0x73, 0x65, 0x5f, 0x32, 0x2f, 0x52, 0x65, 0x6c, 0x75, 0x3b,
  0x73, 0x65, 0x71, 0x75, 0x65, 0x6e, 0x74, 0x69, 0x61, 0x6c, 0x2f, 0x64,
  0x65, 0x6e, 0x73, 0x65, 0x5f, 0x32, 0x2f, 0x42, 0x69, 0x61, 0x73, 0x41,
  0x64, 0x64, 0x31, 0x00, 0x02, 0x00, 0x00, 0x00, 0xff, 0xff, 0xff, 0xff,
  0x10, 0x00, 0x00, 0x00, 0x04, 0xee, 0xff, 0xff, 0x08, 0x00, 0x00, 0x00,
  0x0c, 0x00, 0x00, 0x00, 0x01, 0x00, 0x00, 0x00, 0x60, 0xf4, 0x56, 0x3c,
  0x01, 0x00, 0x00, 0x00, 0x80, 0xff, 0xff, 0xff, 0xff, 0xff, 0xff, 0xff,
  0x00, 0x00, 0x00, 0x00, 0x00, 0x00, 0x0e, 0x00, 0x18, 0x00, 0x08, 0x00,
  0x0c, 0x00, 0x10, 0x00, 0x07, 0x00, 0x14, 0x00, 0x0e, 0x00, 0x00, 0x00,
  0x00, 0x00, 0x00, 0x08, 0x01, 0x00, 0x00, 0x00, 0x1c, 0x00, 0x00, 0x00,
  0x10, 0x00, 0x00, 0x00, 0x04, 0x00, 0x00, 0x00, 0xb2, 0xfe, 0xff, 0xff,
  0x00, 0x00, 0x00, 0x01, 0x01, 0x00, 0x00, 0x00, 0x0e, 0x00, 0x00, 0x00,
  0x03, 0x00, 0x00, 0x00, 0x0d, 0x00, 0x00, 0x00, 0x04, 0x00, 0x00, 0x00,
  0x05, 0x00, 0x00, 0x00, 0xb8, 0xfd, 0xff, 0xff, 0x00, 0x00, 0x00, 0x09,
  0x14, 0x00, 0x00, 0x00, 0x0f, 0x00, 0x00, 0x00, 0x18, 0x00, 0x00, 0x00,
  0xd0, 0x00, 0x00, 0x00, 0xc0, 0x00, 0x00, 0x00, 0x02, 0x00, 0x00, 0x00,
  0x01, 0x00, 0x00, 0x00, 0x20, 0x00, 0x00, 0x00, 0xab, 0x00, 0x00, 0x00,
  0x73, 0x65, 0x71, 0x75, 0x65, 0x6e, 0x74, 0x69, 0x61, 0x6c, 0x2f, 0x62,
  0x61, 0x74, 0x63, 0x68, 0x5f, 0x6e, 0x6f, 0x72, 0x6d, 0x61, 0x6c, 0x69,
  0x7a, 0x61, 0x74, 0x69, 0x6f, 0x6e, 0x2f, 0x62, 0x61, 0x74, 0x63, 0x68,
  0x6e, 0x6f, 0x72, 0x6d, 0x2f, 0x6d, 0x75, 0x6c, 0x5f, 0x31, 0x3b, 0x73,
  0x65, 0x71, 0x75, 0x65, 0x6e, 0x74, 0x69, 0x61, 0x6c, 0x2f, 0x62, 0x61,
  0x74, 0x63, 0x68, 0x5f, 0x6e, 0x6f, 0x72, 0x6d, 0x61, 0x6c, 0x69, 0x7a,
  0x61, 0x74, 0x69, 0x6f, 0x6e, 0x2f, 0x62, 0x61, 0x74, 0x63, 0x68, 0x6e,
  0x6f, 0x72, 0x6d, 0x2f, 0x61, 0x64, 0x64, 0x5f, 0x31, 0x3b, 0x73, 0x65,
  0x71, 0x75, 0x65, 0x6e, 0x74, 0x69, 0x61, 0x6c, 0x2f, 0x64, 0x65, 0x6e,
  0x73, 0x65, 0x5f, 0x31, 0x2f, 0x4d, 0x61, 0x74, 0x4d, 0x75, 0x6c, 0x3b,
  0x73, 0x65, 0x71, 0x75, 0x65, 0x6e, 0x74, 0x69, 0x61, 0x6c, 0x2f, 0x64,
  0x65, 0x6e, 0x73, 0x65, 0x5f, 0x31, 0x2f, 0x52, 0x65, 0x6c, 0x75, 0x3b,
  0x73, 0x65, 0x71, 0x75, 0x65, 0x6e, 0x74, 0x69, 0x61, 0x6c, 0x2f, 0x64,
  0x65, 0x6e, 0x73, 0x65, 0x5f, 0x31, 0x2f, 0x42, 0x69, 0x61, 0x73, 0x41,
  0x64, 0x64, 0x31, 0x00, 0x02, 0x00, 0x00, 0x00, 0xff, 0xff, 0xff, 0xff,
  0x20, 0x00, 0x00, 0x00, 0x54, 0xef, 0xff, 0xff, 0x08, 0x00, 0x00, 0x00,
  0x0c, 0x00, 0x00, 0x00, 0x01, 0x00, 0x00, 0x00, 0x63, 0xda, 0x58, 0x3c,
  0x01, 0x00, 0x00, 0x00, 0x80, 0xff, 0xff, 0xff, 0xff, 0xff, 0xff, 0xff,
  0x00, 0x00, 0x0e, 0x00, 0x1a, 0x00, 0x08, 0x00, 0x0c, 0x00, 0x10, 0x00,
  0x07, 0x00, 0x14, 0x00, 0x0e, 0x00, 0x00, 0x00, 0x00, 0x00, 0x00, 0x08,
  0x01, 0x00, 0x00, 0x00, 0x24, 0x00, 0x00, 0x00, 0x18, 0x00, 0x00, 0x00,
  0x0c, 0x00, 0x00, 0x00, 0x00, 0x00, 0x06, 0x00, 0x08, 0x00, 0x07, 0x00,
  0x06, 0x00, 0x00, 0x00, 0x00, 0x00, 0x00, 0x01, 0x01, 0x00, 0x00, 0x00,
  0x0d, 0x00, 0x00, 0x00, 0x03, 0x00, 0x00, 0x00, 0x0c, 0x00, 0x00, 0x00,
  0x02, 0x00, 0x00, 0x00, 0x03, 0x00, 0x00, 0x00, 0x28, 0xff, 0xff, 0xff,
  0x09, 0x00, 0x00, 0x00, 0x00, 0x00, 0x00, 0x09, 0x04, 0x00, 0x00, 0x00,
  0x1c, 0xff, 0xff, 0xff, 0x00, 0x00, 0x00, 0x09, 0x14, 0x00, 0x00, 0x00,
  0x0e, 0x00, 0x00, 0x00, 0x18, 0x00, 0x00, 0x00, 0x6c, 0x00, 0x00, 0x00,
  0x5c, 0x00, 0x00, 0x00, 0x02, 0x00, 0x00, 0x00, 0x01, 0x00, 0x00, 0x00,
  0x10, 0x00, 0x00, 0x00, 0x46, 0x00, 0x00, 0x00, 0x73, 0x65, 0x71, 0x75,
  0x65, 0x6e, 0x74, 0x69, 0x61, 0x6c, 0x2f, 0x64, 0x65, 0x6e, 0x73, 0x65,
  0x2f, 0x4d, 0x61, 0x74, 0x4d, 0x75, 0x6c, 0x3b, 0x73, 0x65, 0x71, 0x75,
  0x65, 0x6e, 0x74, 0x69, 0x61, 0x6c, 0x2f, 0x64, 0x65, 0x6e, 0x73, 0x65,
  0x2f, 0x52, 0x65, 0x6c, 0x75, 0x3b, 0x73, 0x65, 0x71, 0x75, 0x65, 0x6e,
  0x74, 0x69, 0x61, 0x6c, 0x2f, 0x64, 0x65, 0x6e, 0x73, 0x65, 0x2f, 0x42,
  0x69, 0x61, 0x73, 0x41, 0x64, 0x64, 0x00, 0x00, 0x02, 0x00, 0x00, 0x00,
  0xff, 0xff, 0xff, 0xff, 0x10, 0x00, 0x00, 0x00, 0x54, 0xf0, 0xff, 0xff,
  0x08, 0x00, 0x00, 0x00, 0x0c, 0x00, 0x00, 0x00, 0x01, 0x00, 0x00, 0x00,
  0x14, 0xbb, 0xfb, 0x3b, 0x01, 0x00, 0x00, 0x00, 0x80, 0xff, 0xff, 0xff,
  0xff, 0xff, 0xff, 0xff, 0x00, 0x00, 0x0a, 0x00, 0x0c, 0x00, 0x00, 0x00,
  0x04, 0x00, 0x08, 0x00, 0x0a, 0x00, 0x00, 0x00, 0x10, 0x00, 0x00, 0x00,
  0x04, 0x00, 0x00, 0x00, 0x01, 0x00, 0x00, 0x00, 0x0c, 0x00, 0x00, 0x00,
  0x01, 0x00, 0x00, 0x00, 0x00, 0x00, 0x00, 0x00, 0x0c, 0x00, 0x10, 0x00,
  0x0b, 0x00, 0x00, 0x00, 0x0c, 0x00, 0x04, 0x00, 0x0c, 0x00, 0x00, 0x00,
  0x72, 0x00, 0x00, 0x00, 0x00, 0x00, 0x00, 0x72, 0x01, 0x00, 0x00, 0x00,
  0x14, 0x00, 0x1c, 0x00, 0x08, 0x00, 0x07, 0x00, 0x0c, 0x00, 0x10, 0x00,
  0x14, 0x00, 0x00, 0x00, 0x00, 0x00, 0x18, 0x00, 0x14, 0x00, 0x00, 0x00,
  0x00, 0x00, 0x00, 0x09, 0x14, 0x00, 0x00, 0x00, 0x0d, 0x00, 0x00, 0x00,
  0x18, 0x00, 0x00, 0x00, 0x34, 0x00, 0x00, 0x00, 0x24, 0x00, 0x00, 0x00,
  0x02, 0x00, 0x00, 0x00, 0x01, 0x00, 0x00, 0x00, 0x3c, 0x00, 0x00, 0x00,
  0x0c, 0x00, 0x00, 0x00, 0x74, 0x66, 0x6c, 0x2e, 0x71, 0x75, 0x61, 0x6e,
  0x74, 0x69, 0x7a, 0x65, 0x00, 0x00, 0x00, 0x00, 0x02, 0x00, 0x00, 0x00,
  0xff, 0xff, 0xff, 0xff, 0x3c, 0x00, 0x00, 0x00, 0x14, 0xf1, 0xff, 0xff,
  0x08, 0x00, 0x00, 0x00, 0x0c, 0x00, 0x00, 0x00, 0x01, 0x00, 0x00, 0x00,
  0x81, 0x80, 0x80, 0x3b, 0x01, 0x00, 0x00, 0x00, 0x80, 0xff, 0xff, 0xff,
  0xff, 0xff, 0xff, 0xff, 0x02, 0xf1, 0xff, 0xff, 0x04, 0x00, 0x00, 0x00,
  0x08, 0x00, 0x00, 0x00, 0x23, 0xfe, 0xff, 0xff, 0xdd, 0x01, 0x00, 0x00,
  0xfa, 0xf0, 0xff, 0xff, 0x00, 0x00, 0x00, 0x02, 0x10, 0x00, 0x00, 0x00,
  0x0c, 0x00, 0x00, 0x00, 0x10, 0x00, 0x00, 0x00, 0x20, 0x00, 0x00, 0x00,
  0x01, 0x00, 0x00, 0x00, 0x02, 0x00, 0x00, 0x00, 0x0c, 0x00, 0x00, 0x00,
  0x64, 0x65, 0x6e, 0x73, 0x65, 0x5f, 0x33, 0x2f, 0x62, 0x69, 0x61, 0x73,
  0x00, 0x00, 0x00, 0x00, 0x7c, 0xf1, 0xff, 0xff, 0x08, 0x00, 0x00, 0x00,
  0x0c, 0x00, 0x00, 0x00, 0x01, 0x00, 0x00, 0x00, 0x6c, 0x38, 0x0f, 0x39,
  0x01, 0x00, 0x00, 0x00, 0x00, 0x00, 0x00, 0x00, 0x00, 0x00, 0x00, 0x00,
  0x6a, 0xf1, 0xff, 0xff, 0x04, 0x00, 0x00, 0x00, 0x20, 0x00, 0x00, 0x00,
  0xc2, 0x90, 0xda, 0xfd, 0x15, 0xd7, 0x1e, 0x50, 0x81, 0xe5, 0xf0, 0x81,
  0x47, 0x2a, 0x1b, 0x9c, 0x5b, 0xa3, 0x98, 0xc4, 0x7b, 0x27, 0xf2, 0xb7,
  0x5b, 0x5b, 0x70, 0x70, 0xd0, 0xd9, 0xee, 0x76, 0x7a, 0xf1, 0xff, 0xff,
  0x00, 0x00, 0x00, 0x09, 0x10, 0x00, 0x00, 0x00, 0x0b, 0x00, 0x00, 0x00,
  0x14, 0x00, 0x00, 0x00, 0x30, 0x00, 0x00, 0x00, 0x02, 0x00, 0x00, 0x00,
  0x02, 0x00, 0x00, 0x00, 0x10, 0x00, 0x00, 0x00, 0x19, 0x00, 0x00, 0x00,
  0x73, 0x65, 0x71, 0x75, 0x65, 0x6e, 0x74, 0x69, 0x61, 0x6c, 0x2f, 0x64,
  0x65, 0x6e, 0x73, 0x65, 0x5f, 0x33, 0x2f, 0x4d, 0x61, 0x74, 0x4d, 0x75,
  0x6c, 0x00, 0x00, 0x00, 0x0c, 0xf2, 0xff, 0xff, 0x08, 0x00, 0x00, 0x00,
  0x0c, 0x00, 0x00, 0x00, 0x01, 0x00, 0x00, 0x00, 0xf5, 0xcb, 0xab, 0x3b,
  0x01, 0x00, 0x00, 0x00, 0x00, 0x00, 0x00, 0x00, 0x00, 0x00, 0x00, 0x00,
  0xfa, 0xf1, 0xff, 0xff, 0x04, 0x00, 0x00, 0x00, 0x10, 0x00, 0x00, 0x00,
  0xd6, 0xea, 0xe4, 0xfc, 0xd1, 0xef, 0xa2, 0xcd, 0xa7, 0x05, 0xca, 0xaf,
  0xf8, 0x80, 0xfe, 0xd2, 0xfa, 0xf1, 0xff, 0xff, 0x00, 0x00, 0x00, 0x09,
  0x10, 0x00, 0x00, 0x00, 0x0a, 0x00, 0x00, 0x00, 0x10, 0x00, 0x00, 0x00,
  0x40, 0x00, 0x00, 0x00, 0x01, 0x00, 0x00, 0x00, 0x10, 0x00, 0x00, 0x00,
  0x2e, 0x00, 0x00, 0x00, 0x73, 0x65, 0x71, 0x75, 0x65, 0x6e, 0x74, 0x69,
  0x61, 0x6c, 0x2f, 0x62, 0x61, 0x74, 0x63, 0x68, 0x5f, 0x6e, 0x6f, 0x72,
  0x6d, 0x61, 0x6c, 0x69, 0x7a, 0x61, 0x74, 0x69, 0x6f, 0x6e, 0x5f, 0x32,
  0x2f, 0x62, 0x61, 0x74, 0x63, 0x68, 0x6e, 0x6f, 0x72, 0x6d, 0x2f, 0x73,
  0x75, 0x62, 0x00, 0x00, 0x9c, 0xf2, 0xff, 0xff, 0x08, 0x00, 0x00, 0x00,
  0x0c, 0x00, 0x00, 0x00, 0x01, 0x00, 0x00, 0x00, 0x25, 0x8f, 0xa2, 0x3b,
  0x01, 0x00, 0x00, 0x00, 0x7f, 0x00, 0x00, 0x00, 0x00, 0x00, 0x00, 0x00,
  0x8a, 0xf2, 0xff, 0xff, 0x04, 0x00, 0x00, 0x00, 0x10, 0x00, 0x00, 0x00,
  0xcd, 0x1f, 0xb3, 0xa8, 0xd0, 0xd4, 0x05, 0x7f, 0xb8, 0xf3, 0xe1, 0xe8,
  0x35, 0xce, 0xb3, 0xd3, 0x8a, 0xf2, 0xff, 0xff, 0x00, 0x00, 0x00, 0x09,
  0x10, 0x00, 0x00, 0x00, 0x09, 0x00, 0x00, 0x00, 0x10, 0x00, 0x00, 0x00,
  0x40, 0x00, 0x00, 0x00, 0x01, 0x00, 0x00, 0x00, 0x10, 0x00, 0x00, 0x00,
  0x2e, 0x00, 0x00, 0x00, 0x73, 0x65, 0x71, 0x75, 0x65, 0x6e, 0x74, 0x69,
  0x61, 0x6c, 0x2f, 0x62, 0x61, 0x74, 0x63, 0x68, 0x5f, 0x6e, 0x6f, 0x72,
  0x6d, 0x61, 0x6c, 0x69, 0x7a, 0x61, 0x74, 0x69, 0x6f, 0x6e, 0x5f, 0x32,
  0x2f, 0x62, 0x61, 0x74, 0x63, 0x68, 0x6e, 0x6f, 0x72, 0x6d, 0x2f, 0x6d,
  0x75, 0x6c, 0x00, 0x00, 0x2c, 0xf3, 0xff, 0xff, 0x08, 0x00, 0x00, 0x00,
  0x0c, 0x00, 0x00, 0x00, 0x01, 0x00, 0x00, 0x00, 0x9d, 0x18, 0xbd, 0x3c,
  0x01, 0x00, 0x00, 0x00, 0x80, 0xff, 0xff, 0xff, 0xff, 0xff, 0xff, 0xff,
  0x1a, 0xf3, 0xff, 0xff, 0x04, 0x00, 0x00, 0x00, 0x40, 0x00, 0x00, 0x00,
  0x1b, 0x21, 0x00, 0x00, 0xc5, 0x10, 0x00, 0x00, 0xfa, 0x10, 0x00, 0x00,
  0x6f, 0xfd, 0xff, 0xff, 0xb9, 0x10, 0x00, 0x00, 0x2e, 0xff, 0xff, 0xff,
  0xe9, 0xe2, 0xff, 0xff, 0x47, 0xf9, 0xff, 0xff, 0xb8, 0x1e, 0x00, 0x00,
  0xa4, 0x1e, 0x00, 0x00, 0x29, 0x14, 0x00, 0x00, 0xa9, 0x0d, 0x00, 0x00,
  0x7d, 0xfb, 0xff, 0xff, 0x1a, 0x03, 0x00, 0x00, 0x97, 0xfc, 0xff, 0xff,
  0x9e, 0xff, 0xff, 0xff, 0x4a, 0xf3, 0xff, 0xff, 0x00, 0x00, 0x00, 0x02,
  0x10, 0x00, 0x00, 0x00, 0x08, 0x00, 0x00, 0x00, 0x10, 0x00, 0x00, 0x00,
  0x60, 0x00, 0x00, 0x00, 0x01, 0x00, 0x00, 0x00, 0x10, 0x00, 0x00, 0x00,
  0x4c, 0x00, 0x00, 0x00, 0x73, 0x65, 0x71, 0x75, 0x65, 0x6e, 0x74, 0x69,
  0x61, 0x6c, 0x2f, 0x64, 0x65, 0x6e, 0x73, 0x65, 0x5f, 0x32, 0x2f, 0x4d,
  0x61, 0x74, 0x4d, 0x75, 0x6c, 0x3b, 0x73, 0x65, 0x71, 0x75, 0x65, 0x6e,
  0x74, 0x69, 0x61, 0x6c, 0x2f, 0x64, 0x65, 0x6e, 0x73, 0x65, 0x5f, 0x32,
  0x2f, 0x52, 0x65, 0x6c, 0x75, 0x3b, 0x73, 0x65, 0x71, 0x75, 0x65, 0x6e,
  0x74, 0x69, 0x61, 0x6c, 0x2f, 0x64, 0x65, 0x6e, 0x73, 0x65, 0x5f, 0x32,
  0x2f, 0x42, 0x69, 0x61, 0x73, 0x41, 0x64, 0x64, 0x00, 0x00, 0x00, 0x00,
  0x0c, 0xf4, 0xff, 0xff, 0x08, 0x00, 0x00, 0x00, 0x0c, 0x00, 0x00, 0x00,
  0x01, 0x00, 0x00, 0x00, 0xa3, 0x73, 0x5e, 0x39, 0x01, 0x00, 0x00, 0x00,
  0x00, 0x00, 0x00, 0x00, 0x00, 0x00, 0x00, 0x00, 0x00, 0x00, 0x00, 0x00,
  0xfe, 0xf3, 0xff, 0xff, 0x04, 0x00, 0x00, 0x00, 0x00, 0x02, 0x00, 0x00,
  0xee, 0xe4, 0xb5, 0x18, 0x0f, 0xf6, 0x43, 0xcc, 0x25, 0xc9, 0xf2, 0xe8,
  0xc5, 0xfa, 0xdd, 0xfa, 0x1a, 0x07, 0x09, 0x06, 0x2b, 0xc9, 0x04, 0x09,
  0x03, 0xe9, 0xf0, 0x0e, 0x2f, 0xae, 0xa6, 0xeb, 0xf2, 0xe3, 0xd7, 0xec,
  0x48, 0x17, 0x26, 0xd4, 0x3b, 0xce, 0x19, 0x20, 0xbe, 0xf8, 0x07, 0x19,
  0xff, 0xbf, 0xc6, 0x0b, 0xec, 0xbb, 0xd9, 0xed, 0xd0, 0xe6, 0x04, 0x21,
  0xd7, 0x39, 0x13, 0x1d, 0xfd, 0x27, 0x01, 0x06, 0xe9, 0x22, 0x10, 0x28,
  0x29, 0xf9, 0xe8, 0xf9, 0xa3, 0x1f, 0xe7, 0x0d, 0xf4, 0xff, 0x00, 0xf7,
  0xca, 0x0f, 0xf5, 0x6e, 0x14, 0xb3, 0xcd, 0xd0, 0xcf, 0xbd, 0xe1, 0xea,
  0x20, 0xe3, 0x03, 0x0d, 0xe9, 0xf2, 0xcc, 0xe9, 0xa4, 0x27, 0x0c, 0xd9,
  0xec, 0xf4, 0x02, 0x26, 0xf1, 0xf1, 0x21, 0x13, 0x32, 0xda, 0x15, 0xe6,
  0xbd, 0xec, 0x1d, 0xf5, 0x06, 0x44, 0xd2, 0x1e, 0x0f, 0x1e, 0xd2, 0xea,
  0xc1, 0xe9, 0xef, 0xec, 0x9b, 0x37, 0xfb, 0xce, 0x27, 0xc9, 0x0d, 0xf2,
  0xf6, 0x05, 0x0d, 0x0f, 0x05, 0xf7, 0x00, 0xdb, 0xbd, 0x2f, 0x17, 0xd9,
  0x23, 0xb5, 0x11, 0x01, 0x05, 0xe9, 0xae, 0x04, 0x4c, 0x08, 0xc8, 0xe3,
  0x3d, 0xfe, 0x10, 0x19, 0x06, 0xe6, 0x20, 0xec, 0xf0, 0xe2, 0xf2, 0x22,
  0x30, 0x2b, 0xd9, 0x21, 0xc2, 0xf8, 0x2d, 0xe1, 0x1f, 0x20, 0xe9, 0xff,
  0x2a, 0xe3, 0x16, 0xf1, 0x5b, 0x1e, 0xf3, 0x1a, 0x46, 0xdd, 0x06, 0xf8,
  0x7f, 0x25, 0xe9, 0xe1, 0xf8, 0x3b, 0xf9, 0x0f, 0xec, 0xd6, 0xe8, 0x64,
  0xed, 0xba, 0x1c, 0xd5, 0x11, 0x40, 0x22, 0x21, 0x27, 0x04, 0x26, 0xe8,
  0x61, 0x02, 0xb0, 0x13, 0xea, 0x38, 0xf2, 0xeb, 0x29, 0x40, 0xf2, 0xe1,
  0xdb, 0xca, 0x0f, 0xf8, 0xd9, 0xe7, 0xe2, 0x1a, 0x16, 0x18, 0xff, 0xf2,
  0x4b, 0xf5, 0xb8, 0xed, 0xd1, 0x0b, 0x3e, 0xff, 0x8a, 0x12, 0x92, 0xdc,
  0xa7, 0xd3, 0x15, 0x1b, 0xd9, 0xd2, 0x07, 0x20, 0xee, 0x01, 0x1d, 0xed,
  0x33, 0x2e, 0xf6, 0xf5, 0xc0, 0x1c, 0x2a, 0x01, 0xcd, 0xf2, 0xe7, 0xe9,
  0x0c, 0xf2, 0xc6, 0xea, 0xf1, 0xdc, 0x06, 0x1a, 0xbf, 0xf1, 0x11, 0x0a,
  0xd6, 0x1c, 0xe5, 0x01, 0xe1, 0x14, 0x08, 0xe2, 0xe6, 0x11, 0xea, 0x37,
  0xdb, 0x06, 0xe3, 0xff, 0xca, 0xc6, 0xc7, 0x13, 0x24, 0xd3, 0xd8, 0x00,
  0xab, 0xf5, 0xbc, 0x06, 0x43, 0x10, 0xff, 0xee, 0x05, 0x3d, 0xef, 0xed,
  0x11, 0x36, 0xe3, 0xea, 0x04, 0x1b, 0x0a, 0x29, 0x28, 0xeb, 0xf3, 0x27,
  0xc3, 0xd4, 0xb4, 0xe2, 0xea, 0x00, 0xf1, 0xfa, 0xc7, 0x05, 0x08, 0x11,
  0xad, 0x23, 0xec, 0x0d, 0xca, 0x17, 0xce, 0x1f, 0xf9, 0xf9, 0x28, 0xef,
  0x07, 0xed, 0xea, 0xbe, 0x1f, 0x15, 0x1b, 0x24, 0x08, 0xf7, 0x0d, 0xe0,
  0xe2, 0xf2, 0xd2, 0x06, 0x5c, 0x05, 0x42, 0x0e, 0xc0, 0xd3, 0xf8, 0x1f,
  0x46, 0xeb, 0x13, 0xdc, 0x17, 0xea, 0x15, 0xf9, 0x03, 0xb3, 0xd7, 0xf0,
  0x11, 0xb4, 0xe1, 0x18, 0x4a, 0x16, 0x37, 0x22, 0x07, 0xd4, 0xd7, 0xf5,
  0x42, 0x18, 0x37, 0x12, 0x26, 0xeb, 0xe3, 0x02, 0x5f, 0x35, 0x01, 0x13,
  0x0d, 0xe9, 0xf5, 0xe3, 0xd9, 0xfa, 0xf3, 0x30, 0xeb, 0x13, 0xd2, 0xdc,
  0x12, 0x23, 0x2a, 0xe0, 0x08, 0x0c, 0xf2, 0xe3, 0x60, 0x1d, 0x38, 0x00,
  0xd8, 0xde, 0x07, 0x0e, 0xf8, 0xc2, 0xf7, 0x01, 0x1e, 0xef, 0x13, 0xe8,
  0xfe, 0x0e, 0xf4, 0x3e, 0x20, 0xf2, 0x28, 0x1f, 0xd2, 0xa1, 0x2c, 0x11,
  0xe0, 0x25, 0xf4, 0x04, 0x33, 0xfb, 0x36, 0x20, 0x4b, 0x36, 0x0a, 0x11,
  0x37, 0x06, 0xce, 0x09, 0x10, 0xec, 0xe5, 0x02, 0xcb, 0xc7, 0x28, 0xd5,
  0xf9, 0x17, 0xee, 0x0c, 0xdb, 0x2a, 0xf4, 0xfb, 0xee, 0xf5, 0xff, 0xff,
  0x00, 0x00, 0x00, 0x09, 0x10, 0x00, 0x00, 0x00, 0x07, 0x00, 0x00, 0x00,
  0x14, 0x00, 0x00, 0x00, 0xc4, 0x00, 0x00, 0x00, 0x02, 0x00, 0x00, 0x00,
  0x10, 0x00, 0x00, 0x00, 0x20, 0x00, 0x00, 0x00, 0xae, 0x00, 0x00, 0x00,
  0x73, 0x65, 0x71, 0x75, 0x65, 0x6e, 0x74, 0x69, 0x61, 0x6c, 0x2f, 0x62,
  0x61, 0x74, 0x63, 0x68, 0x5f, 0x6e, 0x6f, 0x72, 0x6d, 0x61, 0x6c, 0x69,
  0x7a, 0x61, 0x74, 0x69, 0x6f, 0x6e, 0x5f, 0x31, 0x2f, 0x62, 0x61, 0x74,
  0x63, 0x68, 0x6e, 0x6f, 0x72, 0x6d, 0x2f, 0x6d, 0x75, 0x6c, 0x5f, 0x31,
  0x3b, 0x73, 0x65, 0x71, 0x75, 0x65, 0x6e, 0x74, 0x69, 0x61, 0x6c, 0x2f,
  0x62, 0x61, 0x74, 0x63, 0x68, 0x5f, 0x6e, 0x6f, 0x72, 0x6d, 0x61, 0x6c,
  0x69, 0x7a, 0x61, 0x74, 0x69, 0x6f, 0x6e, 0x5f, 0x31, 0x2f, 0x62, 0x61,
  0x74, 0x63, 0x68, 0x6e, 0x6f, 0x72, 0x6d, 0x2f, 0x61, 0x64, 0x64, 0x5f,
  0x31, 0x3b, 0x73, 0x65, 0x71, 0x75, 0x65, 0x6e, 0x74, 0x69, 0x61, 0x6c,
  0x2f, 0x64, 0x65, 0x6e, 0x73, 0x65, 0x5f, 0x32, 0x2f, 0x4d, 0x61, 0x74,
  0x4d, 0x75, 0x6c, 0x3b, 0x73, 0x65, 0x71, 0x75, 0x65, 0x6e, 0x74, 0x69,
  0x61, 0x6c, 0x2f, 0x64, 0x65, 0x6e, 0x73, 0x65, 0x5f, 0x32, 0x2f, 0x52,
  0x65, 0x6c, 0x75, 0x3b, 0x73, 0x65, 0x71, 0x75, 0x65, 0x6e, 0x74, 0x69,
  0x61, 0x6c, 0x2f, 0x64, 0x65, 0x6e, 0x73, 0x65, 0x5f, 0x32, 0x2f, 0x42,
  0x69, 0x61, 0x73, 0x41, 0x64, 0x64, 0x00, 0x00, 0x14, 0xf7, 0xff, 0xff,
  0x08, 0x00, 0x00, 0x00, 0x0c, 0x00, 0x00, 0x00, 0x01, 0x00, 0x00, 0x00,
  0xfe, 0x4d, 0x83, 0x3c, 0x01, 0x00, 0x00, 0x00, 0x00, 0x00, 0x00, 0x00,
  0x00, 0x00, 0x00, 0x00, 0x02, 0xf7, 0xff, 0xff, 0x04, 0x00, 0x00, 0x00,
  0x80, 0x00, 0x00, 0x00, 0x4f, 0xf7, 0xff, 0xff, 0x3e, 0xf3, 0xff, 0xff,
  0xad, 0x02, 0x00, 0x00, 0xbf, 0x0e, 0x00, 0x00, 0xef, 0xf3, 0xff, 0xff,
  0x41, 0xff, 0xff, 0xff, 0x8a, 0xfd, 0xff, 0xff, 0x3a, 0x01, 0x00, 0x00,
  0xf7, 0x00, 0x00, 0x00, 0xf4, 0x04, 0x00, 0x00, 0x27, 0x0b, 0x00, 0x00,
  0x56, 0x01, 0x00, 0x00, 0x43, 0x00, 0x00, 0x00, 0xfc, 0x08, 0x00, 0x00,
  0x91, 0xfe, 0xff, 0xff, 0x3b, 0xfc, 0xff, 0xff, 0x14, 0xfb, 0xff, 0xff,
  0x2b, 0xf3, 0xff, 0xff, 0xe8, 0xff, 0xff, 0xff, 0x04, 0x08, 0x00, 0x00,
  0xd1, 0x00, 0x00, 0x00, 0xe1, 0x02, 0x00, 0x00, 0xa3, 0x03, 0x00, 0x00,
  0x80, 0x03, 0x00, 0x00, 0x91, 0x04, 0x00, 0x00, 0x4a, 0x08, 0x00, 0x00,
  0xba, 0x03, 0x00, 0x00, 0x57, 0x06, 0x00, 0x00, 0x97, 0xf9, 0xff, 0xff,
  0x39, 0xf9, 0xff, 0xff, 0x89, 0xf0, 0xff, 0xff, 0xd1, 0x13, 0x00, 0x00,
  0x72, 0xf7, 0xff, 0xff, 0x00, 0x00, 0x00, 0x02, 0x10, 0x00, 0x00, 0x00,
  0x06, 0x00, 0x00, 0x00, 0x10, 0x00, 0x00, 0x00, 0x60, 0x00, 0x00, 0x00,
  0x01, 0x00, 0x00, 0x00, 0x20, 0x00, 0x00, 0x00, 0x4c, 0x00, 0x00, 0x00,
  0x73, 0x65, 0x71, 0x75, 0x65, 0x6e, 0x74, 0x69, 0x61, 0x6c, 0x2f, 0x64,
  0x65, 0x6e, 0x73, 0x65, 0x5f, 0x31, 0x2f, 0x4d, 0x61, 0x74, 0x4d, 0x75,
  0x6c, 0x3b, 0x73, 0x65, 0x71, 0x75, 0x65, 0x6e, 0x74, 0x69, 0x61, 0x6c,
  0x2f, 0x64, 0x65, 0x6e, 0x73, 0x65, 0x5f, 0x31, 0x2f, 0x52, 0x65, 0x6c,
  0x75, 0x3b, 0x73, 0x65, 0x71, 0x75, 0x65, 0x6e, 0x74, 0x69, 0x61, 0x6c,
  0x2f, 0x64, 0x65, 0x6e, 0x73, 0x65, 0x5f, 0x31, 0x2f, 0x42, 0x69, 0x61,
  0x73, 0x41, 0x64, 0x64, 0x00, 0x00, 0x00, 0x00, 0x34, 0xf8, 0xff, 0xff,
  0x08, 0x00, 0x00, 0x00, 0x0c, 0x00, 0x00, 0x00, 0x01, 0x00, 0x00, 0x00,
  0x63, 0xe5, 0x40, 0x3a, 0x01, 0x00, 0x00, 0x00, 0x00, 0x00, 0x00, 0x00,
  0x00, 0x00, 0x00, 0x00, 0x22, 0xf8, 0xff, 0xff, 0x04, 0x00, 0x00, 0x00,
  0x00, 0x02, 0x00, 0x00, 0xfa, 0x08, 0xf9, 0x43, 0xe5, 0x0b, 0xed, 0xcf,
  0x1f, 0xfa, 0x03, 0xfb, 0x0f, 0x0b, 0xb6, 0x06, 0xf9, 0x0c, 0xf2, 0xe1,
  0x06, 0x0a, 0x0c, 0x13, 0xd4, 0x0a, 0x02, 0xf4, 0x09, 0x15, 0x34, 0xff,
  0xf4, 0x0a, 0xee, 0x22, 0x04, 0xfa, 0xf5, 0xdc, 0xd2, 0x01, 0x09, 0xf5,
  0xf5, 0x0b, 0x66, 0x0a, 0x08, 0x04, 0x0d, 0xc6, 0x07, 0x03, 0x07, 0xf7,
  0xa5, 0xf4, 0xf8, 0x05, 0xf2, 0xfe, 0xb2, 0xf8, 0x0a, 0x0e, 0xf9, 0xff,
  0xfa, 0xfe, 0x12, 0x0c, 0xbe, 0x03, 0xf6, 0xf2, 0x09, 0x10, 0xaf, 0x08,
  0x09, 0x19, 0x0a, 0xb6, 0x07, 0xfe, 0x09, 0x28, 0x64, 0xfb, 0x02, 0x09,
  0x06, 0x06, 0x68, 0xfa, 0xfb, 0xf9, 0x0b, 0x39, 0x0c, 0x0a, 0xef, 0xfe,
  0xc6, 0x08, 0xf9, 0xf3, 0xf9, 0x12, 0x81, 0xfe, 0xf8, 0x0d, 0xee, 0xcb,
  0x1f, 0xf8, 0x02, 0xf7, 0x9d, 0xf7, 0xef, 0xfa, 0x0c, 0xe9, 0x0a, 0x08,
  0xf5, 0xf2, 0x0f, 0xdb, 0xf0, 0x0a, 0x01, 0x08, 0xa7, 0xfa, 0xf3, 0x03,
  0x03, 0xf5, 0xa6, 0x00, 0x05, 0x06, 0x02, 0x1d, 0xee, 0xf4, 0x0f, 0xdd,
  0xcd, 0xfa, 0xfa, 0xf6, 0x04, 0xf5, 0x4a, 0x03, 0xf9, 0x04, 0x0b, 0xe7,
  0x17, 0x01, 0x13, 0x02, 0x9c, 0xf8, 0xf9, 0x08, 0xf7, 0xf4, 0x02, 0xf9,
  0xf7, 0xf1, 0x08, 0x6e, 0xfd, 0xfd, 0xf9, 0xeb, 0xd5, 0xfe, 0x05, 0x09,
  0x0c, 0xf4, 0xa0, 0xfe, 0xfb, 0x01, 0x10, 0x8b, 0xf4, 0xfe, 0xf0, 0x19,
  0xfb, 0xfc, 0x04, 0xfa, 0x10, 0xfc, 0xe9, 0xfc, 0xf9, 0x0d, 0xf4, 0xd4,
  0x10, 0x03, 0xfb, 0xf3, 0xfe, 0xfe, 0x09, 0x01, 0xf8, 0x0d, 0xdc, 0xf7,
  0x0a, 0x13, 0xec, 0x49, 0xe4, 0x07, 0xee, 0x07, 0xb4, 0x0a, 0x06, 0xfe,
  0xf4, 0xf9, 0x16, 0xff, 0x0a, 0x10, 0x02, 0x18, 0xf1, 0x0b, 0xf4, 0x1b,
  0xe6, 0x09, 0xfb, 0xf8, 0xfb, 0xec, 0x48, 0xfc, 0x03, 0x17, 0xf0, 0x91,
  0x18, 0x02, 0x04, 0x11, 0x41, 0xf8, 0xf0, 0xfe, 0x07, 0x10, 0xa6, 0x06,
  0x08, 0xf8, 0x03, 0xeb, 0xf1, 0x08, 0x07, 0x0b, 0x02, 0x08, 0x01, 0x15,
  0x01, 0xec, 0x0e, 0x04, 0x0a, 0xf6, 0xfc, 0x29, 0x10, 0x0f, 0xfb, 0x16,
  0xd1, 0xfb, 0x11, 0x0b, 0xf8, 0x0a, 0x30, 0xfc, 0x0d, 0xec, 0x07, 0x0a,
  0xfe, 0xf6, 0x0b, 0x06, 0x34, 0xf9, 0x0b, 0xfe, 0x06, 0x0b, 0x95, 0xf7,
  0x01, 0xfc, 0xf1, 0x42, 0x01, 0x05, 0x13, 0xd9, 0xef, 0x02, 0x00, 0x0d,
  0x06, 0xf2, 0xe7, 0xf6, 0x01, 0x11, 0x02, 0xcd, 0xf9, 0xfd, 0xfa, 0x0a,
  0x6a, 0xf7, 0xf8, 0xf1, 0x04, 0x01, 0xf3, 0x04, 0x09, 0xf0, 0x02, 0x66,
  0x0e, 0x09, 0xf3, 0x1c, 0xdc, 0xfa, 0xf5, 0xfe, 0xff, 0xfe, 0xcf, 0xfd,
  0xfe, 0x0a, 0x02, 0x46, 0xeb, 0xf8, 0xf0, 0x04, 0xea, 0x04, 0xfd, 0xf4,
  0xf4, 0xff, 0x19, 0x07, 0xfe, 0x13, 0x04, 0xb0, 0x04, 0xf8, 0xeb, 0xd9,
  0x2e, 0x07, 0xed, 0x03, 0xfb, 0xfb, 0x46, 0xfe, 0xf8, 0x0b, 0xf7, 0x30,
  0xf7, 0xf5, 0x0a, 0xfb, 0x48, 0x03, 0x15, 0x08, 0xff, 0x05, 0xae, 0xf7,
  0x08, 0x01, 0xef, 0xf1, 0x03, 0xfa, 0x06, 0x15, 0xe7, 0xf9, 0xfb, 0x10,
  0xfe, 0x0a, 0xed, 0x02, 0x04, 0x08, 0xf6, 0xb4, 0xf3, 0xf9, 0x0a, 0x1a,
  0xed, 0xf7, 0xff, 0xfa, 0x0a, 0xf9, 0x0a, 0xfb, 0xf8, 0xf9, 0xf7, 0x5e,
  0x14, 0x06, 0xef, 0x21, 0x18, 0x02, 0xf6, 0x0e, 0x0f, 0xfc, 0x24, 0xff,
  0xfb, 0xef, 0xfb, 0x0d, 0xf7, 0x06, 0x0a, 0xf8, 0xfb, 0xfe, 0xf5, 0x0e,
  0x0b, 0x07, 0x27, 0x02, 0x07, 0x0e, 0xf4, 0xc4, 0x17, 0x01, 0xf4, 0xee,
  0x8e, 0x00, 0xfa, 0x0c, 0x0e, 0x0b, 0x39, 0x0b, 0xfd, 0x16, 0xfb, 0x23,
  0xfc, 0xf9, 0xf0, 0x01, 0x35, 0xfd, 0xfc, 0xe9, 0xf5, 0x08, 0xfe, 0xf5,
  0x12, 0xfa, 0xff, 0xff, 0x00, 0x00, 0x00, 0x09, 0x10, 0x00, 0x00, 0x00,
  0x05, 0x00, 0x00, 0x00, 0x14, 0x00, 0x00, 0x00, 0xc0, 0x00, 0x00, 0x00,
  0x02, 0x00, 0x00, 0x00, 0x20, 0x00, 0x00, 0x00, 0x10, 0x00, 0x00, 0x00,
  0xaa, 0x00, 0x00, 0x00, 0x73, 0x65, 0x71, 0x75, 0x65, 0x6e, 0x74, 0x69,
  0x61, 0x6c, 0x2f, 0x62, 0x61, 0x74, 0x63, 0x68, 0x5f, 0x6e, 0x6f, 0x72,
  0x6d, 0x61, 0x6c, 0x69, 0x7a, 0x61, 0x74, 0x69, 0x6f, 0x6e, 0x2f, 0x62,
  0x61, 0x74, 0x63, 0x68, 0x6e, 0x6f, 0x72, 0x6d, 0x2f, 0x6d, 0x75, 0x6c,
  0x5f, 0x31, 0x3b, 0x73, 0x65, 0x71, 0x75, 0x65, 0x6e, 0x74, 0x69, 0x61,
  0x6c, 0x2f, 0x62, 0x61, 0x74, 0x63, 0x68, 0x5f, 0x6e, 0x6f, 0x72, 0x6d,
  0x61, 0x6c, 0x69, 0x7a, 0x61, 0x74, 0x69, 0x6f, 0x6e, 0x2f, 0x62, 0x61,
  0x74, 0x63, 0x68, 0x6e, 0x6f, 0x72, 0x6d, 0x2f, 0x61, 0x64, 0x64, 0x5f,
  0x31, 0x3b, 0x73, 0x65, 0x71, 0x75, 0x65, 0x6e, 0x74, 0x69, 0x61, 0x6c,
  0x2f, 0x64, 0x65, 0x6e, 0x73, 0x65, 0x5f, 0x31, 0x2f, 0x4d, 0x61, 0x74,
  0x4d, 0x75, 0x6c, 0x3b, 0x73, 0x65, 0x71, 0x75, 0x65, 0x6e, 0x74, 0x69,
  0x61, 0x6c, 0x2f, 0x64, 0x65, 0x6e, 0x73, 0x65, 0x5f, 0x31, 0x2f, 0x52,
  0x65, 0x6c, 0x75, 0x3b, 0x73, 0x65, 0x71, 0x75, 0x65, 0x6e, 0x74, 0x69,
  0x61, 0x6c, 0x2f, 0x64, 0x65, 0x6e, 0x73, 0x65, 0x5f, 0x31, 0x2f, 0x42,
  0x69, 0x61, 0x73, 0x41, 0x64, 0x64, 0x00, 0x00, 0x34, 0xfb, 0xff, 0xff,
  0x08, 0x00, 0x00, 0x00, 0x0c, 0x00, 0x00, 0x00, 0x01, 0x00, 0x00, 0x00,
  0xdf, 0x2a, 0xc4, 0x3d, 0x01, 0x00, 0x00, 0x00, 0x00, 0x00, 0x00, 0x00,
  0x00, 0x00, 0x00, 0x00, 0x00, 0x00, 0x00, 0x00, 0x26, 0xfb, 0xff, 0xff,
  0x04, 0x00, 0x00, 0x00, 0x40, 0x00, 0x00, 0x00, 0x30, 0x02, 0x00, 0x00,
  0x92, 0xfc, 0xff, 0xff, 0xed, 0xf6, 0xff, 0xff, 0x00, 0x00, 0x00, 0x00,
  0x7a, 0xfb, 0xff, 0xff, 0x97, 0x03, 0x00, 0x00, 0xb2, 0x0e, 0x00, 0x00,
  0x05, 0x09, 0x00, 0x00, 0xdc, 0xf8, 0xff, 0xff, 0x3c, 0x12, 0x00, 0x00,
  0xca, 0x06, 0x00, 0x00, 0x79, 0x11, 0x00, 0x00, 0x56, 0x01, 0x00, 0x00,
  0x74, 0xfb, 0xff, 0xff, 0x00, 0x00, 0x00, 0x00, 0x31, 0x04, 0x00, 0x00,
  0x56, 0xfb, 0xff, 0xff, 0x00, 0x00, 0x00, 0x02, 0x10, 0x00, 0x00, 0x00,
  0x04, 0x00, 0x00, 0x00, 0x10, 0x00, 0x00, 0x00, 0x1c, 0x00, 0x00, 0x00,
  0x01, 0x00, 0x00, 0x00, 0x10, 0x00, 0x00, 0x00, 0x0a, 0x00, 0x00, 0x00,
  0x64, 0x65, 0x6e, 0x73, 0x65, 0x2f, 0x62, 0x69, 0x61, 0x73, 0x00, 0x00,
  0xd4, 0xfb, 0xff, 0xff, 0x08, 0x00, 0x00, 0x00, 0x0c, 0x00, 0x00, 0x00,
  0x01, 0x00, 0x00, 0x00, 0x6c, 0x7d, 0x35, 0x37, 0x01, 0x00, 0x00, 0x00,
  0x00, 0x00, 0x00, 0x00, 0x00, 0x00, 0x00, 0x00, 0xc2, 0xfb, 0xff, 0xff,
  0x04, 0x00, 0x00, 0x00, 0xc0, 0x03, 0x00, 0x00, 0x9f, 0xbf, 0xc7, 0xf0,
  0xf0, 0x57, 0xce, 0x5b, 0xb0, 0xb9, 0x3f, 0x6b, 0xa0, 0x5b, 0x32, 0x0b,
  0x3a, 0xe8, 0x51, 0x4f, 0xc8, 0xc6, 0x04, 0x52, 0x46, 0x06, 0x0d, 0x21,
  0xc8, 0xd7, 0x15, 0x53, 0xb8, 0x19, 0xc6, 0x18, 0x3b, 0x51, 0xca, 0x58,
  0x2c, 0xca, 0xfb, 0x49, 0xb4, 0xf2, 0x17, 0x1a, 0xd2, 0x3f, 0x53, 0xaf,
  0x35, 0x08, 0x90, 0x0f, 0x19, 0xb2, 0xb1, 0x59, 0xa5, 0xb0, 0x4d, 0x1f,
  0x94, 0x3d, 0x50, 0xae, 0xe8, 0xc9, 0xf9, 0x19, 0x14, 0xf5, 0xd9, 0xd4,
  0x2b, 0xfb, 0x3c, 0x05, 0x2f, 0xc9, 0x47, 0x37, 0xbf, 0x1a, 0x18, 0x36,
  0x55, 0xed, 0xf3, 0x42, 0xd8, 0xe9, 0x98, 0x36, 0xa6, 0xc9, 0x53, 0x33,
  0x26, 0x0e, 0x08, 0xa8, 0xf3, 0x2b, 0x9e, 0x30, 0x61, 0xc7, 0xb9, 0x32,
  0x29, 0x34, 0x24, 0x99, 0x2a, 0xcc, 0xed, 0xc7, 0xd4, 0x33, 0x16, 0xb3,
  0x43, 0xc0, 0x9c, 0xb1, 0x63, 0xb1, 0x26, 0x0d, 0x00, 0x24, 0xf9, 0x03,
  0xfe, 0xa1, 0x0d, 0x50, 0xdf, 0x12, 0x29, 0xe0, 0xc4, 0xf4, 0xc7, 0xa5,
  0xfe, 0xcb, 0xf2, 0xf1, 0xb5, 0x38, 0x29, 0xb3, 0xe1, 0x60, 0xd2, 0x4b,
  0x5a, 0xca, 0xf1, 0xf0, 0x05, 0x08, 0xdd, 0x2f, 0x63, 0x1f, 0xd4, 0xf6,
  0x40, 0xb7, 0x58, 0x52, 0x0a, 0xc0, 0x22, 0x11, 0xac, 0x31, 0xa8, 0x31,
  0xf6, 0x5b, 0x5f, 0xf3, 0x65, 0x20, 0xc5, 0xf6, 0xb5, 0x46, 0x0c, 0xba,
  0x5c, 0xcc, 0x2b, 0x3f, 0xf9, 0x31, 0x36, 0xa6, 0x3e, 0xac, 0x4a, 0x18,
  0xb0, 0xd1, 0xea, 0x1a, 0xc6, 0xfd, 0xa9, 0x4b, 0x1e, 0x1d, 0xbc, 0x42,
  0xa9, 0x0c, 0xfe, 0xbf, 0xef, 0x25, 0x0f, 0xb8, 0xc5, 0xa0, 0xb1, 0xd2,
  0xfe, 0x32, 0x9b, 0x3d, 0xae, 0xd2, 0xbe, 0xfe, 0x9e, 0x20, 0x58, 0x31,
  0xb3, 0x36, 0xcc, 0xbb, 0x3d, 0x3a, 0x17, 0x4f, 0x02, 0x60, 0xbc, 0xe9,
  0xe2, 0x12, 0x0b, 0x2d, 0x28, 0xf8, 0xeb, 0xa9, 0x14, 0x63, 0xe7, 0x33,
  0x2f, 0xc4, 0xec, 0xfb, 0x15, 0xfb, 0xf6, 0xa5, 0x57, 0x05, 0x1e, 0x9d,
  0x2c, 0x2d, 0xa9, 0xd5, 0x46, 0xa6, 0x00, 0x5e, 0xd0, 0xea, 0xd5, 0xf0,
  0xa4, 0x06, 0xcf, 0x16, 0xd3, 0x3f, 0x0e, 0x41, 0x1a, 0x14, 0x25, 0x4b,
  0x3c, 0xbb, 0xec, 0x49, 0x2b, 0x07, 0xe6, 0x0b, 0xc7, 0xe4, 0xaf, 0xc0,
  0x18, 0xfb, 0x2a, 0x22, 0x27, 0x56, 0xd6, 0x39, 0xfc, 0xe0, 0x68, 0xd5,
  0xe1, 0x48, 0x2b, 0xb9, 0x2b, 0x3f, 0xc0, 0x36, 0x3d, 0xc7, 0x10, 0x62,
  0xe8, 0x05, 0x56, 0x3f, 0x23, 0xdf, 0x25, 0x10, 0x43, 0xcd, 0xe3, 0xb5,
  0x1f, 0xd5, 0x0e, 0xcb, 0x2f, 0xd6, 0xde, 0xc4, 0x96, 0x1d, 0xf6, 0x9c,
  0x28, 0x3c, 0xb0, 0xc9, 0xbd, 0x36, 0x40, 0x58, 0x2a, 0x1b, 0x4d, 0xdc,
  0xfc, 0xe9, 0x23, 0xa9, 0x03, 0x58, 0x07, 0x1d, 0x53, 0x51, 0x3c, 0xab,
  0x48, 0x09, 0xd2, 0x13, 0xbc, 0x9e, 0x2d, 0xf8, 0x1b, 0xda, 0x58, 0x54,
  0x13, 0xa0, 0xd4, 0xeb, 0x08, 0x3c, 0xed, 0xe0, 0xf9, 0x06, 0xdf, 0x0a,
  0x35, 0xfb, 0xba, 0xb1, 0x23, 0x47, 0xc5, 0x4e, 0x52, 0x01, 0x30, 0xa7,
  0x01, 0x38, 0xa3, 0x57, 0x06, 0xf9, 0xd0, 0x29, 0xe3, 0xae, 0xac, 0xc2,
  0xac, 0x24, 0xda, 0xc0, 0x68, 0x25, 0xbf, 0xe2, 0xe8, 0x3f, 0x62, 0x0b,
  0x4a, 0x40, 0xc1, 0x47, 0xd9, 0xa9, 0x36, 0x20, 0x2b, 0xb6, 0xad, 0xba,
  0xd0, 0xd2, 0xf8, 0x9e, 0xd5, 0xfd, 0x21, 0x3d, 0xc5, 0xb4, 0xb5, 0x44,
  0xc9, 0x26, 0x3f, 0x47, 0x4c, 0xca, 0xb4, 0x65, 0xc8, 0xd6, 0xf3, 0xf7,
  0x3a, 0xf0, 0x47, 0x9f, 0x3c, 0xfe, 0xbf, 0xf5, 0xfd, 0xc5, 0xff, 0xc0,
  0x0a, 0x10, 0x54, 0x0e, 0xd6, 0x05, 0x1e, 0x41, 0x58, 0x04, 0xdc, 0xcb,
  0xda, 0x19, 0xb8, 0x09, 0xcc, 0xca, 0x44, 0xe1, 0xce, 0xdb, 0xf9, 0xaa,
  0xcb, 0x4a, 0xf6, 0xbb, 0xa9, 0xf1, 0x52, 0x20, 0x25, 0x52, 0x58, 0xf0,
  0x3b, 0xac, 0xa2, 0x36, 0x44, 0x57, 0xa3, 0xd4, 0xbd, 0xb5, 0x1b, 0x3f,
  0x42, 0xfa, 0x00, 0xc2, 0x9e, 0x2e, 0x2e, 0x2a, 0x47, 0x2f, 0x5c, 0x26,
  0xd5, 0x28, 0xb2, 0x3c, 0x48, 0x69, 0xef, 0xc1, 0x3c, 0xcb, 0xb7, 0x66,
  0x3c, 0x9f, 0xea, 0xd8, 0xd6, 0x3e, 0xc1, 0x33, 0xff, 0xdf, 0x29, 0x3b,
  0x60, 0xae, 0xda, 0xcb, 0x06, 0x15, 0x5d, 0xe7, 0xc9, 0x1c, 0xe2, 0x6c,
  0x08, 0x0c, 0x08, 0x48, 0x18, 0x1d, 0xb9, 0x49, 0xcc, 0x54, 0x49, 0xb5,
  0x56, 0x1a, 0x16, 0xd1, 0x2d, 0x9f, 0xd3, 0xa3, 0x60, 0xc4, 0x2b, 0xae,
  0x0d, 0xd4, 0x4c, 0xe2, 0x1f, 0x53, 0xc6, 0xc2, 0x53, 0xca, 0xab, 0xdd,
  0x4a, 0xbd, 0x61, 0xee, 0xf0, 0x1c, 0xd6, 0xa9, 0x63, 0xe0, 0x81, 0xca,
  0x46, 0x34, 0x5b, 0x4d, 0xf7, 0xcb, 0x40, 0x88, 0xd3, 0xda, 0x37, 0x43,
  0x52, 0xee, 0xc1, 0x34, 0xaa, 0x97, 0x2f, 0x68, 0x30, 0x5e, 0x39, 0x47,
  0xf1, 0xa3, 0x09, 0x65, 0xce, 0x09, 0x49, 0x95, 0x9f, 0x0b, 0xd0, 0x4d,
  0x15, 0xef, 0x55, 0x12, 0x8b, 0xdc, 0x19, 0x2c, 0x5c, 0xa1, 0xce, 0xb2,
  0xb9, 0x48, 0x68, 0xc3, 0xb9, 0x1a, 0xbe, 0xb3, 0x1e, 0x2a, 0xa0, 0xb8,
  0x5f, 0x01, 0xbd, 0x2b, 0x22, 0xa6, 0xa4, 0x08, 0xdb, 0xf6, 0x39, 0xbf,
  0x9a, 0xe1, 0x2b, 0x31, 0x72, 0x42, 0x34, 0x16, 0xf6, 0x1f, 0xf0, 0xce,
  0x56, 0x07, 0x29, 0x02, 0x20, 0xd0, 0x0f, 0xdd, 0xa2, 0x6b, 0xf7, 0x3f,
  0xec, 0xef, 0x42, 0xff, 0xec, 0xe0, 0xac, 0x68, 0x00, 0x64, 0xa9, 0x0c,
  0x16, 0x0b, 0x28, 0xdb, 0xf3, 0xf1, 0xcc, 0x03, 0x23, 0xf9, 0xf5, 0x0f,
  0xf6, 0xb6, 0xf0, 0xbf, 0x48, 0x38, 0xad, 0x35, 0x18, 0x6f, 0x2d, 0x4f,
  0xc8, 0xfc, 0x42, 0xde, 0x21, 0x7b, 0x6e, 0x87, 0x40, 0x1d, 0xd5, 0x01,
  0x16, 0x1a, 0x15, 0x41, 0xa7, 0x60, 0xb1, 0x20, 0xa5, 0x93, 0xb8, 0x02,
  0x4b, 0x1c, 0xc0, 0x25, 0xa2, 0xfd, 0xd1, 0xab, 0x1a, 0xfc, 0xc4, 0x2b,
  0x12, 0xa7, 0x67, 0x44, 0x10, 0xb8, 0xbd, 0x64, 0x63, 0xff, 0xb6, 0xc0,
  0x3d, 0xba, 0x41, 0xae, 0x43, 0xa9, 0x2a, 0xf4, 0x3f, 0x45, 0xeb, 0xeb,
  0xfd, 0x09, 0xdf, 0x19, 0x96, 0xe6, 0x43, 0xa3, 0xc9, 0xa0, 0x11, 0x26,
  0xb7, 0xa9, 0xb3, 0x5f, 0xe1, 0xc2, 0x19, 0x1f, 0x5a, 0xef, 0xf7, 0xe2,
  0xe8, 0xd0, 0xfa, 0xd0, 0x03, 0xab, 0xea, 0xe3, 0x35, 0xc6, 0xe8, 0x27,
  0xba, 0x64, 0x65, 0xde, 0xa1, 0xb8, 0x51, 0x0d, 0xca, 0x08, 0xc8, 0xba,
  0x53, 0x2c, 0xb6, 0x9a, 0xc8, 0x2e, 0x0a, 0xb4, 0x0d, 0x13, 0xab, 0x4a,
  0x5a, 0x11, 0x4e, 0x55, 0xb9, 0xbb, 0xdf, 0xd9, 0x78, 0x3c, 0xcd, 0x4d,
  0x9c, 0x06, 0xf3, 0x56, 0x03, 0x29, 0xaf, 0x30, 0x32, 0xe9, 0xb8, 0x36,
  0xbf, 0xb1, 0xdf, 0x50, 0xf3, 0xff, 0x20, 0xbc, 0xe0, 0xf6, 0x44, 0x27,
  0x21, 0xe6, 0x4f, 0x61, 0xbd, 0x0a, 0x42, 0xe6, 0xd3, 0xfa, 0x33, 0xf7,
  0xd4, 0x03, 0x0b, 0x3c, 0x5d, 0x54, 0xe9, 0x0f, 0xe3, 0xfc, 0x62, 0x70,
  0x12, 0xb4, 0x22, 0xbe, 0x3c, 0x2e, 0x46, 0xef, 0x72, 0xff, 0xff, 0xff,
  0x00, 0x00, 0x00, 0x09, 0x10, 0x00, 0x00, 0x00, 0x03, 0x00, 0x00, 0x00,
  0x14, 0x00, 0x00, 0x00, 0x38, 0x00, 0x00, 0x00, 0x02, 0x00, 0x00, 0x00,
  0x10, 0x00, 0x00, 0x00, 0x3c, 0x00, 0x00, 0x00, 0x17, 0x00, 0x00, 0x00,
  0x73, 0x65, 0x71, 0x75, 0x65, 0x6e, 0x74, 0x69, 0x61, 0x6c, 0x2f, 0x64,
  0x65, 0x6e, 0x73, 0x65, 0x2f, 0x4d, 0x61, 0x74, 0x4d, 0x75, 0x6c, 0x00,
  0x0c, 0x00, 0x0c, 0x00, 0x00, 0x00, 0x00, 0x00, 0x04, 0x00, 0x08, 0x00,
  0x0c, 0x00, 0x00, 0x00, 0x08, 0x00, 0x00, 0x00, 0x0c, 0x00, 0x00, 0x00,
  0x01, 0x00, 0x00, 0x00, 0xee, 0xc7, 0x34, 0x3b, 0x01, 0x00, 0x00, 0x00,
  0x00, 0x00, 0x00, 0x00, 0x00, 0x00, 0x00, 0x00, 0x00, 0x00, 0x00, 0x00,
  0x00, 0x00, 0x06, 0x00, 0x08, 0x00, 0x04, 0x00, 0x06, 0x00, 0x00, 0x00,
  0x04, 0x00, 0x00, 0x00, 0x08, 0x00, 0x00, 0x00, 0xff, 0xff, 0xff, 0xff,
  0x10, 0x00, 0x00, 0x00, 0x00, 0x00, 0x0e, 0x00, 0x18, 0x00, 0x08, 0x00,
  0x07, 0x00, 0x0c, 0x00, 0x10, 0x00, 0x14, 0x00, 0x0e, 0x00, 0x00, 0x00,
  0x00, 0x00, 0x00, 0x02, 0x10, 0x00, 0x00, 0x00, 0x02, 0x00, 0x00, 0x00,
  0x10, 0x00, 0x00, 0x00, 0x2c, 0x00, 0x00, 0x00, 0x01, 0x00, 0x00, 0x00,
  0x02, 0x00, 0x00, 0x00, 0x18, 0x00, 0x00, 0x00, 0x73, 0x65, 0x71, 0x75,
  0x65, 0x6e, 0x74, 0x69, 0x61, 0x6c, 0x2f, 0x66, 0x6c, 0x61, 0x74, 0x74,
  0x65, 0x6e, 0x2f, 0x43, 0x6f, 0x6e, 0x73, 0x74, 0x00, 0x00, 0x00, 0x00,
  0x90, 0xff, 0xff, 0xff, 0x14, 0x00, 0x18, 0x00, 0x04, 0x00, 0x00, 0x00,
  0x08, 0x00, 0x0c, 0x00, 0x10, 0x00, 0x00, 0x00, 0x00, 0x00, 0x14, 0x00,
  0x14, 0x00, 0x00, 0x00, 0x14, 0x00, 0x00, 0x00, 0x01, 0x00, 0x00, 0x00,
  0x18, 0x00, 0x00, 0x00, 0x44, 0x00, 0x00, 0x00, 0x34, 0x00, 0x00, 0x00,
  0x02, 0x00, 0x00, 0x00, 0x01, 0x00, 0x00, 0x00, 0x3c, 0x00, 0x00, 0x00,
  0x1d, 0x00, 0x00, 0x00, 0x73, 0x65, 0x72, 0x76, 0x69, 0x6e, 0x67, 0x5f,
  0x64, 0x65, 0x66, 0x61, 0x75, 0x6c, 0x74, 0x5f, 0x64, 0x65, 0x6e, 0x73,
  0x65, 0x5f, 0x69, 0x6e, 0x70, 0x75, 0x74, 0x3a, 0x30, 0x00, 0x00, 0x00,
  0x02, 0x00, 0x00, 0x00, 0xff, 0xff, 0xff, 0xff, 0x3c, 0x00, 0x00, 0x00,
  0xfc, 0xff, 0xff, 0xff, 0x04, 0x00, 0x04, 0x00, 0x04, 0x00, 0x00, 0x00
};
unsigned int generated_quant_model_tflite_len = 6912;
